#include "magic_wand_model_data.h"

// We need to keep the data array aligned on some architectures.
#ifdef __has_attribute
#define HAVE_ATTRIBUTE(x) __has_attribute(x)
#else
#define HAVE_ATTRIBUTE(x) 0
#endif
#if HAVE_ATTRIBUTE(aligned) || (defined(__GNUC__) && !defined(__clang__))
#define DATA_ALIGN_ATTRIBUTE __attribute__((aligned(4)))
#else
#define DATA_ALIGN_ATTRIBUTE
#endif

const unsigned char g_magic_wand_model_data[] DATA_ALIGN_ATTRIBUTE = {
  0x1c, 0x00, 0x00, 0x00, 0x54, 0x46, 0x4c, 0x33, 0x14, 0x00, 0x20, 0x00,
  0x04, 0x00, 0x08, 0x00, 0x0c, 0x00, 0x10, 0x00, 0x14, 0x00, 0x00, 0x00,
  0x18, 0x00, 0x1c, 0x00, 0x14, 0x00, 0x00, 0x00, 0x03, 0x00, 0x00, 0x00,
  0x18, 0x00, 0x00, 0x00, 0x2c, 0x00, 0x00, 0x00, 0xd8, 0x00, 0x00, 0x00,
  0x2c, 0x00, 0x00, 0x00, 0x80, 0x00, 0x00, 0x00, 0x78, 0x00, 0x00, 0x00,
  0x05, 0x00, 0x00, 0x00, 0x28, 0x07, 0x00, 0x00, 0x44, 0x06, 0x00, 0x00,
  0xbc, 0x03, 0x00, 0x00, 0xf8, 0x02, 0x00, 0x00, 0xac, 0x01, 0x00, 0x00,
  0x01, 0x00, 0x00, 0x00, 0xd0, 0x00, 0x00, 0x00, 0x14, 0x00, 0x00, 0x00,
  0x98, 0x32, 0x00, 0x00, 0x94, 0x32, 0x00, 0x00, 0x8c, 0x31, 0x00, 0x00,
  0xd8, 0x30, 0x00, 0x00, 0x30, 0x30, 0x00, 0x00, 0xbc, 0x2f, 0x00, 0x00,
  0x50, 0x2f, 0x00, 0x00, 0x00, 0x13, 0x00, 0x00, 0xec, 0x11, 0x00, 0x00,
  0x10, 0x10, 0x00, 0x00, 0xb4, 0x07, 0x00, 0x00, 0x6c, 0x32, 0x00, 0x00,
  0x68, 0x32, 0x00, 0x00, 0x64, 0x32, 0x00, 0x00, 0x60, 0x32, 0x00, 0x00,
  0x5c, 0x32, 0x00, 0x00, 0x58, 0x32, 0x00, 0x00, 0x54, 0x32, 0x00, 0x00,
  0x50, 0x32, 0x00, 0x00, 0x3c, 0x00, 0x00, 0x00, 0x00, 0x00, 0x00, 0x00,
  0x01, 0x00, 0x00, 0x00, 0x0c, 0x00, 0x00, 0x00, 0x08, 0x00, 0x0c, 0x00,
  0x04, 0x00, 0x08, 0x00, 0x08, 0x00, 0x00, 0x00, 0x08, 0x00, 0x00, 0x00,
  0x13, 0x00, 0x00, 0x00, 0x13, 0x00, 0x00, 0x00, 0x6d, 0x69, 0x6e, 0x5f,
  0x72, 0x75, 0x6e, 0x74, 0x69, 0x6d, 0x65, 0x5f, 0x76, 0x65, 0x72, 0x73,
  0x69, 0x6f, 0x6e, 0x00, 0xfa, 0xce, 0xff, 0xff, 0x04, 0x00, 0x00, 0x00,
  0x10, 0x00, 0x00, 0x00, 0x31, 0x2e, 0x35, 0x2e, 0x30, 0x00, 0x00, 0x00,
  0x00, 0x00, 0x00, 0x00, 0x00, 0x00, 0x00, 0x00, 0x0f, 0x00, 0x00, 0x00,
  0x4d, 0x4c, 0x49, 0x52, 0x20, 0x43, 0x6f, 0x6e, 0x76, 0x65, 0x72, 0x74,
  0x65, 0x64, 0x2e, 0x00, 0x00, 0x00, 0x0e, 0x00, 0x18, 0x00, 0x04, 0x00,
  0x08, 0x00, 0x0c, 0x00, 0x10, 0x00, 0x14, 0x00, 0x0e, 0x00, 0x00, 0x00,
  0x14, 0x00, 0x00, 0x00, 0x5c, 0x00, 0x00, 0x00, 0x60, 0x00, 0x00, 0x00,
  0x64, 0x00, 0x00, 0x00, 0x84, 0x00, 0x00, 0x00, 0x12, 0x00, 0x00, 0x00,
  0x58, 0x31, 0x00, 0x00, 0xe8, 0x30, 0x00, 0x00, 0x44, 0x30, 0x00, 0x00,
  0x9c, 0x2f, 0x00, 0x00, 0xf4, 0x2e, 0x00, 0x00, 0x94, 0x2e, 0x00, 0x00,
  0x2c, 0x2e, 0x00, 0x00, 0xd8, 0x11, 0x00, 0x00, 0xbc, 0x10, 0x00, 0x00,
  0xe0, 0x0e, 0x00, 0x00, 0x0c, 0x06, 0x00, 0x00, 0x28, 0x05, 0x00, 0x00,
  0xe8, 0x03, 0x00, 0x00, 0x3c, 0x03, 0x00, 0x00, 0x98, 0x02, 0x00, 0x00,
  0xd4, 0x01, 0x00, 0x00, 0x10, 0x01, 0x00, 0x00, 0x84, 0x00, 0x00, 0x00,
  0x01, 0x00, 0x00, 0x00, 0x00, 0x00, 0x00, 0x00, 0x01, 0x00, 0x00, 0x00,
  0x11, 0x00, 0x00, 0x00, 0x08, 0x00, 0x00, 0x00, 0x74, 0x05, 0x00, 0x00,
  0x94, 0x04, 0x00, 0x00, 0x78, 0x03, 0x00, 0x00, 0xbc, 0x02, 0x00, 0x00,
  0x30, 0x02, 0x00, 0x00, 0x50, 0x01, 0x00, 0x00, 0xa8, 0x00, 0x00, 0x00,
  0x10, 0x00, 0x00, 0x00, 0x04, 0x00, 0x00, 0x00, 0x6d, 0x61, 0x69, 0x6e,
  0x00, 0x00, 0x00, 0x00, 0x7a, 0xff, 0xff, 0xff, 0x00, 0x00, 0x00, 0x09,
  0x04, 0x00, 0x00, 0x00, 0x1c, 0x00, 0x00, 0x00, 0x10, 0x00, 0x00, 0x00,
  0x04, 0x00, 0x00, 0x00, 0xf6, 0xcf, 0xff, 0xff, 0x00, 0x00, 0x80, 0x3f,
  0x01, 0x00, 0x00, 0x00, 0x11, 0x00, 0x00, 0x00, 0x01, 0x00, 0x00, 0x00,
  0x10, 0x00, 0x00, 0x00, 0xa0, 0xfa, 0xff, 0xff, 0x19, 0x00, 0x00, 0x00,
  0x00, 0x00, 0x00, 0x19, 0x01, 0x00, 0x00, 0x00, 0x84, 0xcf, 0xff, 0xff,
  0x14, 0x00, 0x00, 0x00, 0x12, 0x00, 0x00, 0x00, 0x18, 0x00, 0x00, 0x00,
  0x30, 0x00, 0x00, 0x00, 0x20, 0x00, 0x00, 0x00, 0x02, 0x00, 0x00, 0x00,
  0x01, 0x00, 0x00, 0x00, 0x03, 0x00, 0x00, 0x00, 0x08, 0x00, 0x00, 0x00,
  0x49, 0x64, 0x65, 0x6e, 0x74, 0x69, 0x74, 0x79, 0x00, 0x00, 0x00, 0x00,
  0x02, 0x00, 0x00, 0x00, 0xff, 0xff, 0xff, 0xff, 0x03, 0x00, 0x00, 0x00,
  0x68, 0xd0, 0xff, 0xff, 0x00, 0x00, 0x0e, 0x00, 0x18, 0x00, 0x08, 0x00,
  0x0c, 0x00, 0x10, 0x00, 0x07, 0x00, 0x14, 0x00, 0x0e, 0x00, 0x00, 0x00,
  0x00, 0x00, 0x00, 0x08, 0x03, 0x00, 0x00, 0x00, 0x18, 0x00, 0x00, 0x00,
  0x0c, 0x00, 0x00, 0x00, 0x04, 0x00, 0x00, 0x00, 0x84, 0xcf, 0xff, 0xff,
  0x01, 0x00, 0x00, 0x00, 0x10, 0x00, 0x00, 0x00, 0x03, 0x00, 0x00, 0x00,
  0x0f, 0x00, 0x00, 0x00, 0x07, 0x00, 0x00, 0x00, 0x04, 0x00, 0x00, 0x00,
  0x0c, 0xd0, 0xff, 0xff, 0x14, 0x00, 0x00, 0x00, 0x11, 0x00, 0x00, 0x00,
  0x18, 0x00, 0x00, 0x00, 0x5c, 0x00, 0x00, 0x00, 0x4c, 0x00, 0x00, 0x00,
  0x02, 0x00, 0x00, 0x00, 0x01, 0x00, 0x00, 0x00, 0x03, 0x00, 0x00, 0x00,
  0x34, 0x00, 0x00, 0x00, 0x73, 0x65, 0x71, 0x75, 0x65, 0x6e, 0x74, 0x69,
  0x61, 0x6c, 0x2f, 0x64, 0x65, 0x6e, 0x73, 0x65, 0x5f, 0x31, 0x2f, 0x4d,
  0x61, 0x74, 0x4d, 0x75, 0x6c, 0x3b, 0x73, 0x65, 0x71, 0x75, 0x65, 0x6e,
  0x74, 0x69, 0x61, 0x6c, 0x2f, 0x64, 0x65, 0x6e, 0x73, 0x65, 0x5f, 0x31,
  0x2f, 0x42, 0x69, 0x61, 0x73, 0x41, 0x64, 0x64, 0x00, 0x00, 0x00, 0x00,
  0x02, 0x00, 0x00, 0x00, 0xff, 0xff, 0xff, 0xff, 0x03, 0x00, 0x00, 0x00,
  0x0c, 0xd0, 0xff, 0xff, 0xda, 0xfc, 0xff, 0xff, 0x00, 0x00, 0x00, 0x08,
  0x03, 0x00, 0x00, 0x00, 0x24, 0x00, 0x00, 0x00, 0x18, 0x00, 0x00, 0x00,
  0x0c, 0x00, 0x00, 0x00, 0x00, 0x00, 0x06, 0x00, 0x08, 0x00, 0x07, 0x00,
  0x06, 0x00, 0x00, 0x00, 0x00, 0x00, 0x00, 0x01, 0x01, 0x00, 0x00, 0x00,
  0x0f, 0x00, 0x00, 0x00, 0x03, 0x00, 0x00, 0x00, 0x0e, 0x00, 0x00, 0x00,
  0x06, 0x00, 0x00, 0x00, 0x03, 0x00, 0x00, 0x00, 0xe8, 0xfb, 0xff, 0xff,
  0x09, 0x00, 0x00, 0x00, 0x00, 0x00, 0x00, 0x09, 0x01, 0x00, 0x00, 0x00,
  0xcc, 0xd0, 0xff, 0xff, 0x14, 0x00, 0x00, 0x00, 0x10, 0x00, 0x00, 0x00,
  0x18, 0x00, 0x00, 0x00, 0x6c, 0x00, 0x00, 0x00, 0x5c, 0x00, 0x00, 0x00,
  0x02, 0x00, 0x00, 0x00, 0x01, 0x00, 0x00, 0x00, 0x10, 0x00, 0x00, 0x00,
  0x46, 0x00, 0x00, 0x00, 0x73, 0x65, 0x71, 0x75, 0x65, 0x6e, 0x74, 0x69,
  0x61, 0x6c, 0x2f, 0x64, 0x65, 0x6e, 0x73, 0x65, 0x2f, 0x4d, 0x61, 0x74,
  0x4d, 0x75, 0x6c, 0x3b, 0x73, 0x65, 0x71, 0x75, 0x65, 0x6e, 0x74, 0x69,
  0x61, 0x6c, 0x2f, 0x64, 0x65, 0x6e, 0x73, 0x65, 0x2f, 0x52, 0x65, 0x6c,
  0x75, 0x3b, 0x73, 0x65, 0x71, 0x75, 0x65, 0x6e, 0x74, 0x69, 0x61, 0x6c,
  0x2f, 0x64, 0x65, 0x6e, 0x73, 0x65, 0x2f, 0x42, 0x69, 0x61, 0x73, 0x41,
  0x64, 0x64, 0x00, 0x00, 0x02, 0x00, 0x00, 0x00, 0xff, 0xff, 0xff, 0xff,
  0x10, 0x00, 0x00, 0x00, 0xec, 0xd1, 0xff, 0xff, 0x00, 0x00, 0x0a, 0x00,
  0x10, 0x00, 0x04, 0x00, 0x08, 0x00, 0x0c, 0x00, 0x0a, 0x00, 0x00, 0x00,
  0x02, 0x00, 0x00, 0x00, 0x10, 0x00, 0x00, 0x00, 0x04, 0x00, 0x00, 0x00,
  0x01, 0x00, 0x00, 0x00, 0x0e, 0x00, 0x00, 0x00, 0x02, 0x00, 0x00, 0x00,
  0x0d, 0x00, 0x00, 0x00, 0x05, 0x00, 0x00, 0x00, 0xa8, 0xfc, 0xff, 0xff,
  0x16, 0x00, 0x00, 0x00, 0x00, 0x00, 0x00, 0x16, 0x01, 0x00, 0x00, 0x00,
  0x8c, 0xd1, 0xff, 0xff, 0x14, 0x00, 0x00, 0x00, 0x0f, 0x00, 0x00, 0x00,
  0x18, 0x00, 0x00, 0x00, 0x40, 0x00, 0x00, 0x00, 0x30, 0x00, 0x00, 0x00,
  0x02, 0x00, 0x00, 0x00, 0x01, 0x00, 0x00, 0x00, 0x70, 0x00, 0x00, 0x00,
  0x1a, 0x00, 0x00, 0x00, 0x73, 0x65, 0x71, 0x75, 0x65, 0x6e, 0x74, 0x69,
  0x61, 0x6c, 0x2f, 0x66, 0x6c, 0x61, 0x74, 0x74, 0x65, 0x6e, 0x2f, 0x52,
  0x65, 0x73, 0x68, 0x61, 0x70, 0x65, 0x00, 0x00, 0x02, 0x00, 0x00, 0x00,
  0xff, 0xff, 0xff, 0xff, 0x70, 0x00, 0x00, 0x00, 0x70, 0xd1, 0xff, 0xff,
  0x3e, 0xfe, 0xff, 0xff, 0x00, 0x00, 0x00, 0x05, 0x01, 0x00, 0x00, 0x00,
  0x38, 0x00, 0x00, 0x00, 0x2c, 0x00, 0x00, 0x00, 0x14, 0x00, 0x00, 0x00,
  0x00, 0x00, 0x0e, 0x00, 0x14, 0x00, 0x00, 0x00, 0x10, 0x00, 0x0c, 0x00,
  0x08, 0x00, 0x04, 0x00, 0x0e, 0x00, 0x00, 0x00, 0x03, 0x00, 0x00, 0x00,
  0x01, 0x00, 0x00, 0x00, 0x03, 0x00, 0x00, 0x00, 0x01, 0x00, 0x00, 0x00,
  0x01, 0x00, 0x00, 0x00, 0x0d, 0x00, 0x00, 0x00, 0x01, 0x00, 0x00, 0x00,
  0x0c, 0x00, 0x00, 0x00, 0x2c, 0xd2, 0xff, 0xff, 0x14, 0x00, 0x00, 0x00,
  0x0e, 0x00, 0x00, 0x00, 0x20, 0x00, 0x00, 0x00, 0x58, 0x00, 0x00, 0x00,
  0x40, 0x00, 0x00, 0x00, 0x04, 0x00, 0x00, 0x00, 0x01, 0x00, 0x00, 0x00,
  0x07, 0x00, 0x00, 0x00, 0x01, 0x00, 0x00, 0x00, 0x10, 0x00, 0x00, 0x00,
  0x22, 0x00, 0x00, 0x00, 0x73, 0x65, 0x71, 0x75, 0x65, 0x6e, 0x74, 0x69,
  0x61, 0x6c, 0x2f, 0x6d, 0x61, 0x78, 0x5f, 0x70, 0x6f, 0x6f, 0x6c, 0x69,
  0x6e, 0x67, 0x32, 0x64, 0x5f, 0x31, 0x2f, 0x4d, 0x61, 0x78, 0x50, 0x6f,
  0x6f, 0x6c, 0x00, 0x00, 0x04, 0x00, 0x00, 0x00, 0xff, 0xff, 0xff, 0xff,
  0x07, 0x00, 0x00, 0x00, 0x01, 0x00, 0x00, 0x00, 0x10, 0x00, 0x00, 0x00,
  0x28, 0xd2, 0xff, 0xff, 0x1a, 0xfe, 0xff, 0xff, 0x00, 0x00, 0x00, 0x01,
  0x24, 0x00, 0x00, 0x00, 0x18, 0x00, 0x00, 0x00, 0x04, 0x00, 0x00, 0x00,
  0x0c, 0xfe, 0xff, 0xff, 0x01, 0x00, 0x00, 0x00, 0x01, 0x00, 0x00, 0x00,
  0x00, 0x00, 0x00, 0x01, 0x01, 0x00, 0x00, 0x00, 0x0c, 0x00, 0x00, 0x00,
  0x03, 0x00, 0x00, 0x00, 0x0b, 0x00, 0x00, 0x00, 0x09, 0x00, 0x00, 0x00,
  0x02, 0x00, 0x00, 0x00, 0xd4, 0xd2, 0xff, 0xff, 0x14, 0x00, 0x00, 0x00,
  0x0d, 0x00, 0x00, 0x00, 0x20, 0x00, 0x00, 0x00, 0xb8, 0x00, 0x00, 0x00,
  0xa0, 0x00, 0x00, 0x00, 0x04, 0x00, 0x00, 0x00, 0x01, 0x00, 0x00, 0x00,
  0x15, 0x00, 0x00, 0x00, 0x01, 0x00, 0x00, 0x00, 0x10, 0x00, 0x00, 0x00,
  0x83, 0x00, 0x00, 0x00, 0x73, 0x65, 0x71, 0x75, 0x65, 0x6e, 0x74, 0x69,
  0x61, 0x6c, 0x2f, 0x63, 0x6f, 0x6e, 0x76, 0x32, 0x64, 0x5f, 0x31, 0x2f,
  0x52, 0x65, 0x6c, 0x75, 0x3b, 0x73, 0x65, 0x71, 0x75, 0x65, 0x6e, 0x74,
  0x69, 0x61, 0x6c, 0x2f, 0x63, 0x6f, 0x6e, 0x76, 0x32, 0x64, 0x5f, 0x31,
  0x2f, 0x42, 0x69, 0x61, 0x73, 0x41, 0x64, 0x64, 0x3b, 0x73, 0x65, 0x71,
  0x75, 0x65, 0x6e, 0x74, 0x69, 0x61, 0x6c, 0x2f, 0x63, 0x6f, 0x6e, 0x76,
  0x32, 0x64, 0x5f, 0x31, 0x2f, 0x43, 0x6f, 0x6e, 0x76, 0x32, 0x44, 0x3b,
  0x73, 0x65, 0x71, 0x75, 0x65, 0x6e, 0x74, 0x69, 0x61, 0x6c, 0x2f, 0x63,
  0x6f, 0x6e, 0x76, 0x32, 0x64, 0x5f, 0x31, 0x2f, 0x42, 0x69, 0x61, 0x73,
  0x41, 0x64, 0x64, 0x2f, 0x52, 0x65, 0x61, 0x64, 0x56, 0x61, 0x72, 0x69,
  0x61, 0x62, 0x6c, 0x65, 0x4f, 0x70, 0x2f, 0x72, 0x65, 0x73, 0x6f, 0x75,
  0x72, 0x63, 0x65, 0x00, 0x04, 0x00, 0x00, 0x00, 0xff, 0xff, 0xff, 0xff,
  0x15, 0x00, 0x00, 0x00, 0x01, 0x00, 0x00, 0x00, 0x10, 0x00, 0x00, 0x00,
  0x40, 0xd4, 0xff, 0xff, 0x00, 0x00, 0x0e, 0x00, 0x1a, 0x00, 0x08, 0x00,
  0x0c, 0x00, 0x10, 0x00, 0x07, 0x00, 0x14, 0x00, 0x0e, 0x00, 0x00, 0x00,
  0x00, 0x00, 0x00, 0x05, 0x01, 0x00, 0x00, 0x00, 0x3c, 0x00, 0x00, 0x00,
  0x30, 0x00, 0x00, 0x00, 0x14, 0x00, 0x00, 0x00, 0x00, 0x00, 0x0e, 0x00,
  0x18, 0x00, 0x17, 0x00, 0x10, 0x00, 0x0c, 0x00, 0x08, 0x00, 0x04, 0x00,
  0x0e, 0x00, 0x00, 0x00, 0x03, 0x00, 0x00, 0x00, 0x03, 0x00, 0x00, 0x00,
  0x03, 0x00, 0x00, 0x00, 0x03, 0x00, 0x00, 0x00, 0x00, 0x00, 0x00, 0x01,
  0x01, 0x00, 0x00, 0x00, 0x0b, 0x00, 0x00, 0x00, 0x01, 0x00, 0x00, 0x00,
  0x0a, 0x00, 0x00, 0x00, 0x2c, 0xff, 0xff, 0xff, 0x11, 0x00, 0x00, 0x00,
  0x00, 0x00, 0x00, 0x11, 0x01, 0x00, 0x00, 0x00, 0x10, 0xd4, 0xff, 0xff,
  0x14, 0x00, 0x00, 0x00, 0x0c, 0x00, 0x00, 0x00, 0x20, 0x00, 0x00, 0x00,
  0x58, 0x00, 0x00, 0x00, 0x40, 0x00, 0x00, 0x00, 0x04, 0x00, 0x00, 0x00,
  0x01, 0x00, 0x00, 0x00, 0x15, 0x00, 0x00, 0x00, 0x01, 0x00, 0x00, 0x00,
  0x08, 0x00, 0x00, 0x00, 0x20, 0x00, 0x00, 0x00, 0x73, 0x65, 0x71, 0x75,
  0x65, 0x6e, 0x74, 0x69, 0x61, 0x6c, 0x2f, 0x6d, 0x61, 0x78, 0x5f, 0x70,
  0x6f, 0x6f, 0x6c, 0x69, 0x6e, 0x67, 0x32, 0x64, 0x2f, 0x4d, 0x61, 0x78,
  0x50, 0x6f, 0x6f, 0x6c, 0x00, 0x00, 0x00, 0x00, 0x04, 0x00, 0x00, 0x00,
  0xff, 0xff, 0xff, 0xff, 0x15, 0x00, 0x00, 0x00, 0x01, 0x00, 0x00, 0x00,
  0x08, 0x00, 0x00, 0x00, 0x1c, 0xd5, 0xff, 0xff, 0x00, 0x00, 0x0e, 0x00,
  0x14, 0x00, 0x00, 0x00, 0x08, 0x00, 0x0c, 0x00, 0x07, 0x00, 0x10, 0x00,
  0x0e, 0x00, 0x00, 0x00, 0x00, 0x00, 0x00, 0x01, 0x30, 0x00, 0x00, 0x00,
  0x24, 0x00, 0x00, 0x00, 0x10, 0x00, 0x00, 0x00, 0x0c, 0x00, 0x10, 0x00,
  0x00, 0x00, 0x04, 0x00, 0x08, 0x00, 0x0f, 0x00, 0x0c, 0x00, 0x00, 0x00,
  0x01, 0x00, 0x00, 0x00, 0x01, 0x00, 0x00, 0x00, 0x00, 0x00, 0x00, 0x01,
  0x01, 0x00, 0x00, 0x00, 0x0a, 0x00, 0x00, 0x00, 0x03, 0x00, 0x00, 0x00,
  0x00, 0x00, 0x00, 0x00, 0x08, 0x00, 0x00, 0x00, 0x01, 0x00, 0x00, 0x00,
  0x0c, 0x00, 0x10, 0x00, 0x0b, 0x00, 0x00, 0x00, 0x0c, 0x00, 0x04, 0x00,
  0x0c, 0x00, 0x00, 0x00, 0x03, 0x00, 0x00, 0x00, 0x00, 0x00, 0x00, 0x03,
  0x01, 0x00, 0x00, 0x00, 0xf0, 0xd4, 0xff, 0xff, 0x14, 0x00, 0x00, 0x00,
  0x0b, 0x00, 0x00, 0x00, 0x20, 0x00, 0x00, 0x00, 0xb0, 0x00, 0x00, 0x00,
  0x98, 0x00, 0x00, 0x00, 0x04, 0x00, 0x00, 0x00, 0x01, 0x00, 0x00, 0x00,
  0x40, 0x00, 0x00, 0x00, 0x03, 0x00, 0x00, 0x00, 0x08, 0x00, 0x00, 0x00,
  0x7b, 0x00, 0x00, 0x00, 0x73, 0x65, 0x71, 0x75, 0x65, 0x6e, 0x74, 0x69,
  0x61, 0x6c, 0x2f, 0x63, 0x6f, 0x6e, 0x76, 0x32, 0x64, 0x2f, 0x52, 0x65,
  0x6c, 0x75, 0x3b, 0x73, 0x65, 0x71, 0x75, 0x65, 0x6e, 0x74, 0x69, 0x61,
  0x6c, 0x2f, 0x63, 0x6f, 0x6e, 0x76, 0x32, 0x64, 0x2f, 0x42, 0x69, 0x61,
  0x73, 0x41, 0x64, 0x64, 0x3b, 0x73, 0x65, 0x71, 0x75, 0x65, 0x6e, 0x74,
  0x69, 0x61, 0x6c, 0x2f, 0x63, 0x6f, 0x6e, 0x76, 0x32, 0x64, 0x2f, 0x43,
  0x6f, 0x6e, 0x76, 0x32, 0x44, 0x3b, 0x73, 0x65, 0x71, 0x75, 0x65, 0x6e,
  0x74, 0x69, 0x61, 0x6c, 0x2f, 0x63, 0x6f, 0x6e, 0x76, 0x32, 0x64, 0x2f,
  0x42, 0x69, 0x61, 0x73, 0x41, 0x64, 0x64, 0x2f, 0x52, 0x65, 0x61, 0x64,
  0x56, 0x61, 0x72, 0x69, 0x61, 0x62, 0x6c, 0x65, 0x4f, 0x70, 0x2f, 0x72,
  0x65, 0x73, 0x6f, 0x75, 0x72, 0x63, 0x65, 0x00, 0x04, 0x00, 0x00, 0x00,
  0xff, 0xff, 0xff, 0xff, 0x40, 0x00, 0x00, 0x00, 0x03, 0x00, 0x00, 0x00,
  0x08, 0x00, 0x00, 0x00, 0x44, 0xd5, 0xff, 0xff, 0x4e, 0xd6, 0xff, 0xff,
  0x04, 0x00, 0x00, 0x00, 0x00, 0x08, 0x00, 0x00, 0xe6, 0x10, 0x39, 0xbf,
  0xc6, 0xc2, 0xb0, 0xbc, 0xff, 0x7f, 0xe0, 0xbd, 0x57, 0xa7, 0x17, 0xbd,
  0x98, 0xd2, 0x34, 0xbd, 0x97, 0xcf, 0xaa, 0x3e, 0x16, 0xd2, 0xdc, 0x3d,
  0x7d, 0xfc, 0xc6, 0xbc, 0x67, 0x2b, 0x4d, 0xbf, 0x4a, 0x95, 0xd5, 0x3c,
  0x78, 0xe8, 0x8f, 0xbd, 0x7c, 0x4f, 0xcf, 0xbd, 0x52, 0xf1, 0x6d, 0xbd,
  0xa7, 0xc1, 0xa2, 0x3d, 0x1b, 0xca, 0xf6, 0x3d, 0x97, 0xd8, 0x10, 0x3e,
  0x9e, 0x6b, 0x39, 0xbf, 0x1f, 0xe3, 0x31, 0xbd, 0xfc, 0xce, 0x2f, 0xbe,
  0xa8, 0xed, 0xd4, 0xbd, 0x22, 0x99, 0x9d, 0xbd, 0x1f, 0xa4, 0xb8, 0xbd,
  0xcf, 0x49, 0x85, 0xbe, 0x35, 0x1a, 0x14, 0x3d, 0x7f, 0xd1, 0x3a, 0xbf,
  0xc3, 0xe4, 0x8c, 0xbc, 0xea, 0xb8, 0x88, 0x3d, 0xd0, 0x10, 0x21, 0x3f,
  0xc8, 0x40, 0x44, 0xbd, 0x18, 0x2b, 0x85, 0xbc, 0xab, 0xc4, 0x31, 0xbd,
  0x7f, 0xa0, 0x49, 0x3d, 0xf8, 0xe4, 0x4c, 0x3d, 0x88, 0x55, 0xb5, 0x3e,
  0x84, 0x34, 0x21, 0x3f, 0x29, 0xfd, 0xf0, 0x3d, 0x0e, 0x58, 0x9f, 0x3c,
  0xbc, 0xbd, 0xfc, 0xbc, 0xec, 0xaa, 0x42, 0x3d, 0x4d, 0x9d, 0xf8, 0x3d,
  0xae, 0x60, 0x1a, 0xbd, 0x03, 0xe4, 0xcf, 0xbe, 0x4b, 0x04, 0xbc, 0xbc,
  0xb5, 0xdd, 0xde, 0xbe, 0x6d, 0x4b, 0x1e, 0xbd, 0xeb, 0xe4, 0x8c, 0xbe,
  0x40, 0x1d, 0x42, 0xbf, 0x6c, 0x29, 0x0c, 0xbe, 0xbd, 0xc1, 0x9a, 0x3d,
  0xc4, 0x16, 0xb8, 0xbe, 0x7b, 0x4e, 0x23, 0xbc, 0x47, 0x7e, 0x1b, 0xbe,
  0xd8, 0x1c, 0x19, 0xbd, 0x81, 0x03, 0x33, 0xbd, 0x1e, 0xc4, 0x14, 0x3f,
  0xc5, 0xe5, 0x57, 0xbd, 0x05, 0xb6, 0xe3, 0x3d, 0x9d, 0xca, 0xd9, 0xbe,
  0x24, 0x28, 0xbc, 0xbe, 0x59, 0x32, 0xcd, 0xbe, 0x1e, 0xd0, 0x21, 0xbd,
  0x1e, 0xd3, 0x6f, 0xbd, 0x4e, 0x13, 0x87, 0x3e, 0x27, 0xdb, 0xbb, 0xbd,
  0x7c, 0x0c, 0xd0, 0xbe, 0x7b, 0x54, 0x6e, 0x3e, 0x57, 0xf6, 0xf1, 0x3d,
  0x98, 0xa0, 0x3e, 0x3f, 0x8f, 0x29, 0x5c, 0xbd, 0xa4, 0xbb, 0xc4, 0x3c,
  0x0d, 0xb4, 0x72, 0xbe, 0x9f, 0x73, 0xb4, 0xbe, 0x8c, 0xe1, 0xdc, 0xbe,
  0x96, 0x10, 0xb6, 0xbb, 0xa0, 0x34, 0x07, 0xbc, 0xd8, 0xe8, 0xa0, 0xbe,
  0x4e, 0xf8, 0xd7, 0xbc, 0xb8, 0x97, 0x91, 0xbd, 0xbb, 0x92, 0x2a, 0xbd,
  0x37, 0x06, 0x28, 0xbe, 0x39, 0xf2, 0xaf, 0x3d, 0x47, 0x6a, 0xd2, 0xbd,
  0x9f, 0xa7, 0xaa, 0x3c, 0xe4, 0x31, 0xf3, 0xbe, 0xb2, 0x49, 0xc9, 0xbc,
  0x64, 0x19, 0x6f, 0xbe, 0x79, 0x0c, 0xb2, 0x3e, 0x3a, 0xbf, 0x4a, 0xbd,
  0xb7, 0x26, 0x42, 0xbe, 0xf0, 0x20, 0x26, 0xbe, 0x8e, 0xfb, 0x95, 0xbc,
  0xa2, 0xc8, 0x13, 0xbf, 0x60, 0x5b, 0xa7, 0xbc, 0x9d, 0x53, 0xbc, 0xbe,
  0xa8, 0x3d, 0x11, 0xbe, 0x35, 0x45, 0xa6, 0x3d, 0xe1, 0x73, 0x8c, 0xbe,
  0x65, 0x38, 0xf7, 0xbd, 0x87, 0x2c, 0x6d, 0x3d, 0xec, 0x00, 0xa4, 0xbc,
  0x10, 0x6a, 0x49, 0xbe, 0x2e, 0x9b, 0xa1, 0x3e, 0x36, 0x22, 0x49, 0xbe,
  0x6d, 0x1a, 0x8c, 0xbe, 0x87, 0xf3, 0xc5, 0x3d, 0xb5, 0x0e, 0xa4, 0xbb,
  0xc9, 0xb7, 0x00, 0xbe, 0x52, 0xa8, 0x27, 0x3e, 0x2d, 0x5f, 0xab, 0xbd,
  0x19, 0x31, 0x6c, 0x3e, 0x3e, 0xc5, 0xc0, 0x3e, 0x7c, 0x0d, 0x48, 0x3e,
  0x1d, 0x2e, 0xa7, 0x3c, 0xa7, 0x1c, 0x2e, 0xbc, 0x01, 0xc7, 0xd1, 0xbd,
  0xa0, 0x62, 0x99, 0x3c, 0x8c, 0x52, 0x27, 0x3d, 0xc7, 0x93, 0x7f, 0x3b,
  0x4d, 0x9a, 0x29, 0x3c, 0xf0, 0xbe, 0x22, 0x3e, 0xca, 0x0c, 0x19, 0x3e,
  0x4c, 0x37, 0x1f, 0xbe, 0x36, 0x74, 0x83, 0x3b, 0x5e, 0x6a, 0x90, 0xbd,
  0xdc, 0x70, 0x67, 0xbd, 0xd2, 0xff, 0xbb, 0xbd, 0x4d, 0xde, 0x0f, 0xbd,
  0x25, 0x89, 0x05, 0x3d, 0x10, 0x00, 0xc7, 0xbc, 0x8a, 0xab, 0xf0, 0x3c,
  0x14, 0xe7, 0xbe, 0xbe, 0xa9, 0xc5, 0x8a, 0xbd, 0x3d, 0x7f, 0xc0, 0xbd,
  0x28, 0x1a, 0x4e, 0x3e, 0x49, 0xff, 0xa1, 0x3d, 0x63, 0x56, 0x26, 0x3e,
  0x68, 0x85, 0xcd, 0xbc, 0x47, 0xa1, 0xb5, 0xbd, 0xc2, 0x5b, 0x98, 0xbd,
  0xa1, 0xeb, 0x90, 0x3d, 0xdd, 0xc3, 0x36, 0xbd, 0x30, 0xbf, 0x73, 0xbd,
  0x6f, 0x3c, 0xd5, 0x3e, 0x2a, 0x60, 0xbd, 0x3d, 0x08, 0xe9, 0x57, 0x3e,
  0xa7, 0x0a, 0xb9, 0xbd, 0x85, 0x63, 0x36, 0xbe, 0x5f, 0x76, 0xe2, 0x3c,
  0xf6, 0x63, 0xb8, 0x3c, 0x65, 0xf2, 0xeb, 0xbd, 0x0c, 0x3a, 0x24, 0x3e,
  0x80, 0x75, 0xf9, 0xbd, 0x4c, 0x9b, 0x7f, 0x3d, 0xdf, 0xad, 0x6b, 0xbd,
  0xf0, 0xf7, 0x85, 0xbc, 0x32, 0x8a, 0xf7, 0x3c, 0x46, 0xd3, 0x0c, 0x3d,
  0x42, 0x5f, 0xb0, 0xbd, 0x25, 0xda, 0x1d, 0xbe, 0xd2, 0x74, 0xea, 0x3d,
  0x8a, 0x48, 0x12, 0xbd, 0xc1, 0xd4, 0x7c, 0x3e, 0xa1, 0x0e, 0xdf, 0xba,
  0xaf, 0xa5, 0x93, 0xbd, 0x9b, 0x57, 0xd4, 0xbe, 0xaf, 0x45, 0x01, 0xbf,
  0x27, 0xc5, 0x5d, 0xbe, 0xfa, 0x16, 0xba, 0xbd, 0x31, 0x9b, 0xe3, 0x3c,
  0x7c, 0x6f, 0x2f, 0xbe, 0x2a, 0xbc, 0x15, 0xbe, 0xf7, 0xcf, 0xd2, 0xbd,
  0x25, 0x40, 0xd9, 0xbe, 0x9d, 0x92, 0xbf, 0xbe, 0x76, 0xaf, 0x70, 0xbe,
  0x51, 0xd6, 0xa4, 0xbe, 0x86, 0x6e, 0x82, 0x3d, 0xbf, 0x88, 0x19, 0x3e,
  0xf3, 0x6b, 0x8f, 0x3d, 0x3e, 0x66, 0xd8, 0x3d, 0x3c, 0xbc, 0xa8, 0xbe,
  0x2c, 0x0a, 0xaf, 0xbe, 0x82, 0xc6, 0x80, 0xbe, 0x6d, 0x14, 0x3b, 0xbe,
  0xae, 0x96, 0xe4, 0x3d, 0xf8, 0xa9, 0x5c, 0x3d, 0x82, 0xa8, 0xce, 0x3c,
  0x4a, 0x56, 0x4f, 0x3e, 0x77, 0x34, 0x7f, 0xbe, 0x27, 0x5e, 0x07, 0xbe,
  0x7d, 0x7a, 0x1d, 0x3e, 0x91, 0xb7, 0x57, 0x3d, 0xf7, 0x68, 0x73, 0x3c,
  0x11, 0xee, 0x8c, 0xbc, 0xd7, 0x00, 0x8a, 0xbd, 0x89, 0xef, 0x8a, 0xbe,
  0x7c, 0x48, 0x7b, 0x3c, 0xd4, 0xd6, 0x12, 0xbe, 0xc5, 0xc5, 0x79, 0xbe,
  0x6b, 0x08, 0x0d, 0xbc, 0x90, 0x9b, 0x00, 0xbe, 0x1b, 0x08, 0x1b, 0xbe,
  0x4d, 0x33, 0x23, 0x3d, 0x7c, 0xf6, 0x9d, 0xbe, 0x48, 0xe3, 0x64, 0xbd,
  0x04, 0x60, 0x93, 0xbe, 0x37, 0x40, 0x02, 0xbf, 0x87, 0xad, 0x2a, 0xbf,
  0x9b, 0xf7, 0xc1, 0xbc, 0xee, 0xf0, 0xca, 0xbd, 0x0a, 0x66, 0xa0, 0x3d,
  0x02, 0x64, 0x44, 0xbe, 0x08, 0x16, 0x8a, 0xbd, 0xfe, 0x1b, 0xe8, 0xbd,
  0xbe, 0xd6, 0x08, 0xbe, 0x6a, 0x84, 0xdc, 0xbe, 0x97, 0x52, 0xc2, 0x3d,
  0x5d, 0xce, 0xe5, 0x3c, 0xdb, 0xda, 0x6a, 0x3c, 0x07, 0x7b, 0x31, 0x3f,
  0x2a, 0x42, 0x80, 0xbd, 0xe9, 0x1a, 0x70, 0x3e, 0xf3, 0x6c, 0x04, 0x3f,
  0x6a, 0x0c, 0x88, 0xbc, 0xe1, 0x47, 0x6c, 0xbd, 0x7b, 0x89, 0xba, 0xbc,
  0x6a, 0xd8, 0x51, 0xbe, 0xcf, 0xce, 0xbb, 0xbd, 0xf0, 0x6d, 0x2c, 0x3d,
  0xc2, 0x81, 0xd0, 0xbd, 0xf3, 0x4f, 0x1c, 0x3e, 0xbf, 0x97, 0x9b, 0xbd,
  0x07, 0x49, 0xef, 0xbd, 0x28, 0x81, 0x15, 0xbe, 0xb8, 0xb8, 0xbc, 0x3e,
  0x1c, 0x1d, 0xb0, 0xbc, 0x99, 0xfc, 0x1d, 0x3e, 0xc8, 0xa8, 0x51, 0xbe,
  0x34, 0x08, 0x1b, 0xbe, 0xae, 0x4e, 0x8b, 0xbe, 0xbe, 0xa8, 0x61, 0xbd,
  0xd3, 0xca, 0x2d, 0xbe, 0x0f, 0x39, 0x08, 0x3c, 0xb7, 0x72, 0xdd, 0xbc,
  0x3c, 0x51, 0xf2, 0xbc, 0x07, 0x74, 0x07, 0xbe, 0x05, 0x8e, 0x15, 0xbe,
  0x7e, 0x63, 0xa3, 0x3e, 0xff, 0x0c, 0x14, 0x3e, 0x13, 0xf5, 0xaf, 0xbd,
  0xb0, 0x89, 0x85, 0xbc, 0xbc, 0x13, 0x3e, 0x3e, 0x4e, 0x50, 0xed, 0xbc,
  0xc5, 0x2a, 0x9b, 0xbd, 0x96, 0x6c, 0xb4, 0x3d, 0x99, 0x7c, 0xaa, 0xbd,
  0xc9, 0xfa, 0x3f, 0x3e, 0x8b, 0xe6, 0x0c, 0xbf, 0x78, 0xe9, 0x11, 0xbf,
  0x4d, 0xfd, 0xed, 0xbe, 0x36, 0x5e, 0xff, 0xbe, 0xfe, 0x89, 0x7c, 0xbd,
  0x81, 0x50, 0x05, 0xbf, 0xe2, 0xf9, 0xbc, 0xbe, 0xaa, 0xf5, 0xaa, 0x3e,
  0x49, 0xa7, 0x80, 0xbe, 0xad, 0x8e, 0xd6, 0xbe, 0xbc, 0x8b, 0xab, 0xbe,
  0x4e, 0x5b, 0xc6, 0xbe, 0x2b, 0x7d, 0x9f, 0xbe, 0xe5, 0x64, 0x1d, 0x3e,
  0xa0, 0x42, 0xab, 0xbe, 0x49, 0xe7, 0x09, 0x3e, 0x67, 0xec, 0xc4, 0xbe,
  0xef, 0x44, 0xdf, 0xbe, 0x90, 0x6a, 0xd7, 0xbe, 0xee, 0xf6, 0x9d, 0xbe,
  0xba, 0x30, 0x83, 0x3d, 0x7e, 0x7e, 0x39, 0xbe, 0xb4, 0x1f, 0x6a, 0xbe,
  0xa3, 0x4f, 0xd9, 0x3e, 0x1b, 0x79, 0xce, 0xbe, 0x75, 0xa4, 0x15, 0xbf,
  0x8b, 0x80, 0xea, 0xbe, 0x46, 0xd3, 0xde, 0xbe, 0xee, 0x1e, 0x5b, 0xbe,
  0x16, 0x5c, 0xee, 0xbe, 0x7d, 0x33, 0x7a, 0xbe, 0x54, 0xaf, 0x00, 0xbe,
  0x87, 0x7d, 0xf1, 0x3c, 0x14, 0x6b, 0x03, 0xbe, 0xa2, 0x37, 0x21, 0x3e,
  0x1f, 0x24, 0x46, 0xbe, 0xed, 0x23, 0x07, 0xbe, 0x3f, 0xbb, 0x46, 0x3e,
  0x69, 0x6b, 0xc8, 0xbd, 0xc2, 0x7c, 0xf9, 0xbd, 0x5c, 0x2b, 0xe1, 0x3d,
  0x37, 0x0e, 0xa1, 0xbd, 0x88, 0x92, 0x07, 0x3d, 0xc3, 0xf0, 0x5f, 0xbe,
  0x79, 0x62, 0xe5, 0x3e, 0x56, 0xdd, 0xd4, 0x3d, 0x43, 0xcb, 0x1d, 0xbe,
  0xc4, 0xd5, 0x2b, 0x3c, 0x72, 0x08, 0x1a, 0xbe, 0xd3, 0xe7, 0xb9, 0xbe,
  0x2e, 0x3d, 0xe8, 0xbc, 0x7c, 0x50, 0x91, 0xbe, 0xb7, 0xfd, 0x09, 0x3d,
  0xad, 0x3b, 0x00, 0xbd, 0x67, 0xe1, 0xb6, 0xbe, 0x22, 0xe8, 0xd7, 0x3d,
  0xac, 0x08, 0x33, 0xbd, 0xf6, 0xfe, 0x8a, 0xbe, 0xe5, 0xb0, 0x16, 0xbd,
  0x68, 0x65, 0x99, 0xbe, 0x16, 0x69, 0x06, 0xbe, 0xc3, 0xcf, 0x38, 0xbe,
  0xd1, 0xbb, 0x92, 0xbe, 0x31, 0x5e, 0x13, 0xbf, 0xda, 0x84, 0xe5, 0xbd,
  0xf3, 0x83, 0xa8, 0xbd, 0x95, 0xde, 0xea, 0xbd, 0x2c, 0x0d, 0x2a, 0xbf,
  0x8c, 0xf1, 0x09, 0xbe, 0x57, 0x4a, 0x1e, 0xbe, 0xff, 0x3c, 0x14, 0xbf,
  0xa1, 0xab, 0x10, 0x3d, 0x98, 0x63, 0xa8, 0x3d, 0x4c, 0xe7, 0x34, 0x3c,
  0x12, 0x34, 0xe2, 0x3d, 0x2c, 0x2f, 0x69, 0xbe, 0xf2, 0xb7, 0x7c, 0x3e,
  0x97, 0x8d, 0x9f, 0x3e, 0x02, 0x00, 0xf1, 0x3c, 0xd5, 0x4c, 0x7e, 0x38,
  0xb5, 0x5c, 0x05, 0x3e, 0x94, 0x8d, 0x61, 0xbc, 0x4e, 0xcd, 0x40, 0xbb,
  0x89, 0x75, 0x40, 0xbe, 0xd8, 0x88, 0x26, 0x3e, 0x31, 0xe3, 0xd3, 0xbc,
  0xac, 0xec, 0x87, 0xbd, 0xa1, 0x6c, 0x02, 0x3e, 0xa2, 0x5f, 0x9a, 0x3d,
  0x53, 0x83, 0xdf, 0x3d, 0x2f, 0xe3, 0x39, 0x3d, 0x73, 0xf5, 0x15, 0xbe,
  0x5e, 0x51, 0x99, 0x3d, 0xa0, 0xb1, 0xd5, 0x3d, 0x79, 0xde, 0xca, 0xbc,
  0xd8, 0x19, 0x23, 0xbf, 0x2c, 0x3e, 0xc8, 0x3d, 0x32, 0xe7, 0x78, 0xbd,
  0x90, 0xe6, 0xdb, 0xbd, 0x37, 0x4a, 0x42, 0xbd, 0xb3, 0x03, 0x17, 0x3e,
  0x36, 0xae, 0x8c, 0x3d, 0xd0, 0x2b, 0x61, 0x3e, 0xde, 0xf7, 0x62, 0xbf,
  0x74, 0x73, 0xae, 0x3d, 0x14, 0x66, 0xd7, 0xbc, 0xc6, 0xff, 0x95, 0x3e,
  0xac, 0x25, 0xa8, 0xbd, 0x1e, 0x57, 0xde, 0x3c, 0x35, 0xcb, 0x79, 0x3e,
  0xca, 0x90, 0x20, 0x3e, 0xe3, 0xeb, 0x47, 0xbf, 0xca, 0x1d, 0x52, 0x3d,
  0xe8, 0x9e, 0x28, 0xbd, 0x9c, 0xb3, 0xde, 0x3e, 0x5e, 0x79, 0x85, 0xbd,
  0x08, 0xaf, 0x0d, 0x3e, 0xba, 0x28, 0xf1, 0xbd, 0x24, 0xab, 0x68, 0xbd,
  0x7b, 0xfd, 0x2d, 0xbf, 0xd8, 0xa0, 0x8a, 0xba, 0xd0, 0xd2, 0xf4, 0xbc,
  0xce, 0x5c, 0xdb, 0xbe, 0x12, 0x21, 0x72, 0xbd, 0xb2, 0x25, 0x6d, 0xbd,
  0x61, 0xc0, 0xc8, 0xbd, 0x06, 0x5c, 0x4c, 0x3e, 0x25, 0x5b, 0x47, 0x3e,
  0x26, 0x51, 0x34, 0xbc, 0x94, 0x24, 0xf7, 0xbd, 0x85, 0x75, 0xe7, 0xbd,
  0x3a, 0x13, 0x8d, 0xbd, 0x4f, 0xe7, 0xcf, 0xbd, 0xe7, 0x1c, 0x99, 0xbe,
  0x87, 0x1c, 0x4c, 0xbe, 0x9d, 0xd3, 0x25, 0x3e, 0xf1, 0xe1, 0x1e, 0x3b,
  0x99, 0x44, 0x8c, 0xbc, 0x8d, 0x9b, 0x44, 0x3e, 0x4d, 0xa4, 0x64, 0xbd,
  0xfa, 0x84, 0x0a, 0xbe, 0x79, 0x66, 0xc8, 0xbe, 0x1b, 0xd5, 0x35, 0xbe,
  0x0d, 0x81, 0x16, 0xbe, 0x05, 0x42, 0x01, 0x3e, 0xad, 0xde, 0x37, 0x3e,
  0xa8, 0xdd, 0xf9, 0xba, 0x5a, 0xae, 0x1d, 0xbd, 0x4a, 0xfd, 0x43, 0xbe,
  0x3b, 0x2d, 0x2a, 0xbf, 0x2a, 0x7c, 0x8c, 0xbd, 0x7d, 0x7a, 0x17, 0xbf,
  0x01, 0x46, 0x23, 0x3e, 0xa7, 0xb7, 0x62, 0xbd, 0xff, 0xf4, 0xf3, 0x3b,
  0x7d, 0x00, 0x44, 0xbc, 0xda, 0x34, 0x79, 0xbe, 0x8a, 0x7d, 0x36, 0xbf,
  0x84, 0x70, 0xaf, 0x3e, 0xc6, 0x9e, 0xd9, 0x3c, 0x22, 0x6e, 0x36, 0xbe,
  0x1e, 0x11, 0x68, 0xbd, 0xe7, 0x01, 0xe6, 0x3d, 0xfb, 0x6c, 0x49, 0xbe,
  0xae, 0x6d, 0x18, 0xbe, 0x79, 0x53, 0x99, 0x3e, 0x62, 0x91, 0x07, 0x3f,
  0x4b, 0x29, 0xaf, 0x3d, 0xf1, 0x9a, 0x6e, 0xbe, 0x28, 0xb6, 0x5c, 0x3e,
  0xed, 0xd6, 0x85, 0x3c, 0xc7, 0xa1, 0x86, 0xbe, 0xb3, 0x46, 0x0d, 0xbe,
  0x75, 0x31, 0x9b, 0x3e, 0xdf, 0x28, 0x14, 0xbe, 0xf9, 0xa3, 0xe8, 0x3d,
  0xba, 0xf6, 0x5d, 0xbd, 0x5a, 0x53, 0x4d, 0xbc, 0xe8, 0x76, 0x19, 0x3c,
  0xbb, 0x46, 0x97, 0xbe, 0x06, 0x78, 0x24, 0xbe, 0x06, 0x66, 0x1f, 0x3f,
  0xec, 0xa4, 0x61, 0x3e, 0x18, 0x9e, 0x77, 0xbd, 0x9f, 0x6a, 0x4c, 0xbe,
  0x80, 0xf0, 0x2a, 0x3e, 0x99, 0x1c, 0x87, 0xbc, 0x29, 0x85, 0x8f, 0xbe,
  0x44, 0xff, 0x12, 0xbe, 0xd9, 0x9e, 0xf7, 0x3c, 0x43, 0xfc, 0x8e, 0x3e,
  0x36, 0xf3, 0xf1, 0xbd, 0xac, 0x57, 0x3b, 0xbe, 0x34, 0xc7, 0x02, 0xbd,
  0xd0, 0xca, 0x7f, 0xbe, 0x91, 0x84, 0x43, 0xbd, 0xe9, 0xbf, 0x70, 0xbe,
  0x23, 0xb4, 0x39, 0xbe, 0x19, 0xcb, 0x48, 0xbe, 0x28, 0xc6, 0xaa, 0xbe,
  0x5d, 0x07, 0x59, 0xbe, 0x4b, 0x8a, 0x20, 0x3d, 0x55, 0xa0, 0x95, 0xbb,
  0xec, 0x74, 0x9b, 0xbd, 0x36, 0xe4, 0xcf, 0xbd, 0xe0, 0xe3, 0x54, 0xbe,
  0xf4, 0x9f, 0x02, 0xbf, 0xb7, 0x9e, 0x68, 0x3b, 0xb3, 0x05, 0x77, 0x3c,
  0x17, 0xb8, 0x2e, 0x3d, 0xb7, 0x81, 0xac, 0x3e, 0x2c, 0x62, 0x56, 0xbd,
  0xb4, 0x88, 0x0d, 0xbb, 0x73, 0x2a, 0x27, 0x3e, 0xab, 0x1d, 0x13, 0xbe,
  0x0e, 0x03, 0xd0, 0xbd, 0x55, 0xc6, 0xca, 0x3e, 0xbd, 0x98, 0xa1, 0x3c,
  0x0c, 0x4e, 0x63, 0x3e, 0x4b, 0x7d, 0x0a, 0xbd, 0x9c, 0xcc, 0xb7, 0x3e,
  0xa7, 0xd1, 0xbd, 0x3e, 0xa6, 0x68, 0xcd, 0x3d, 0xa5, 0x0a, 0x84, 0xbe,
  0x0d, 0x8d, 0x84, 0xbe, 0xf6, 0x1b, 0x3f, 0xbc, 0x95, 0xd0, 0xb5, 0xbe,
  0x90, 0x55, 0x0b, 0xbd, 0xc4, 0x09, 0x95, 0x3e, 0x7f, 0xdb, 0x9d, 0xbe,
  0xc8, 0x69, 0x92, 0x3c, 0x06, 0x32, 0xb3, 0xbe, 0x6b, 0xc4, 0x41, 0xbe,
  0xb6, 0x48, 0xde, 0xbc, 0xf0, 0x79, 0xae, 0xbe, 0xfc, 0xf5, 0x17, 0xbd,
  0x5c, 0x65, 0x82, 0xbd, 0x3d, 0x6a, 0x8e, 0xbe, 0x68, 0xb9, 0x9b, 0x3e,
  0x6c, 0x55, 0x59, 0xbe, 0x1c, 0x8e, 0x83, 0xbe, 0xf2, 0x5c, 0xe7, 0x3d,
  0x10, 0x70, 0x93, 0xbe, 0xe0, 0xa4, 0x29, 0xbe, 0xd8, 0x7e, 0x50, 0x3e,
  0x7d, 0xd4, 0x95, 0xbe, 0x0d, 0xd1, 0xa9, 0xbd, 0x3e, 0x67, 0x2b, 0xbe,
  0xd1, 0xaa, 0x8b, 0xbe, 0x73, 0x3f, 0xda, 0x3d, 0xae, 0x62, 0x8f, 0xbe,
  0x26, 0x52, 0x98, 0xbd, 0xa6, 0x8c, 0xbb, 0x3e, 0xf9, 0x6a, 0xde, 0xbe,
  0x6a, 0x23, 0x29, 0x3d, 0x26, 0xde, 0xff, 0xff, 0x10, 0x00, 0x00, 0x00,
  0x0a, 0x00, 0x00, 0x00, 0x1c, 0x00, 0x00, 0x00, 0x38, 0x00, 0x00, 0x00,
  0x04, 0x00, 0x00, 0x00, 0x10, 0x00, 0x00, 0x00, 0x04, 0x00, 0x00, 0x00,
  0x01, 0x00, 0x00, 0x00, 0x08, 0x00, 0x00, 0x00, 0x1a, 0x00, 0x00, 0x00,
  0x73, 0x65, 0x71, 0x75, 0x65, 0x6e, 0x74, 0x69, 0x61, 0x6c, 0x2f, 0x63,
  0x6f, 0x6e, 0x76, 0x32, 0x64, 0x5f, 0x31, 0x2f, 0x43, 0x6f, 0x6e, 0x76,
  0x32, 0x44, 0x00, 0x00, 0x9c, 0xdd, 0xff, 0xff, 0xa6, 0xde, 0xff, 0xff,
  0x04, 0x00, 0x00, 0x00, 0x80, 0x01, 0x00, 0x00, 0x7f, 0x56, 0xdb, 0x3d,
  0xdd, 0x3d, 0x8b, 0xbd, 0xd4, 0x28, 0x4e, 0xbd, 0xad, 0xf3, 0x9a, 0x3e,
  0xbf, 0x22, 0xe4, 0x3e, 0xe5, 0xa5, 0xd9, 0xbd, 0xf5, 0x17, 0xc1, 0x3e,
  0x61, 0x5e, 0x82, 0xbd, 0xd7, 0x38, 0x93, 0x3e, 0xa7, 0x26, 0x8f, 0x3e,
  0x8a, 0x67, 0xf6, 0x3c, 0x62, 0xe0, 0xb8, 0x3d, 0x72, 0x24, 0x96, 0xbd,
  0x89, 0xd5, 0x58, 0x3d, 0x0b, 0x11, 0x1a, 0x3d, 0x7e, 0x30, 0x12, 0x3e,
  0x59, 0xa9, 0x29, 0x3e, 0x79, 0xcd, 0xbb, 0x3d, 0xca, 0x4e, 0xa9, 0x3d,
  0xb5, 0x77, 0x4a, 0xbd, 0x2e, 0x34, 0x8c, 0x3d, 0xe3, 0xc7, 0x80, 0xbd,
  0xb0, 0x82, 0x30, 0xbe, 0xf2, 0x1f, 0xe6, 0x3d, 0xa0, 0xf7, 0xd2, 0x3c,
  0x75, 0x41, 0xb0, 0xbc, 0x65, 0x6e, 0x23, 0xbd, 0xbb, 0x71, 0x7a, 0x3e,
  0xec, 0xd4, 0xdf, 0xba, 0x4e, 0xf2, 0x97, 0xbe, 0xf9, 0x27, 0x49, 0xbe,
  0xbf, 0x5f, 0xa0, 0xbd, 0xcb, 0x72, 0x59, 0x3d, 0xdb, 0xd6, 0xae, 0xbb,
  0xaf, 0xe3, 0xc0, 0x3d, 0x42, 0xee, 0x9c, 0x3e, 0x39, 0xa6, 0xfc, 0x3d,
  0xcc, 0xbf, 0xdc, 0x3c, 0xce, 0xa1, 0x0a, 0x3b, 0xcd, 0xd2, 0xdf, 0x3d,
  0x7b, 0x16, 0x04, 0x3f, 0xab, 0xe6, 0x0b, 0xbe, 0x4d, 0x62, 0xf9, 0xbd,
  0xb6, 0x72, 0x0b, 0xbe, 0xcb, 0x91, 0x76, 0x3e, 0x6e, 0xd6, 0xc1, 0x3d,
  0xb4, 0x4e, 0xab, 0xbe, 0xf8, 0x33, 0x61, 0x3e, 0x5b, 0x17, 0xad, 0x3d,
  0x75, 0x2d, 0xb6, 0x3d, 0xa1, 0xbd, 0x0c, 0xbe, 0xd2, 0xd2, 0x30, 0x3e,
  0x1e, 0x38, 0x45, 0x3e, 0x57, 0xfb, 0x21, 0x3e, 0x16, 0x77, 0x52, 0x3e,
  0xe7, 0xd7, 0x84, 0x3e, 0x76, 0x72, 0x81, 0x3b, 0xca, 0x20, 0x8e, 0x3e,
  0x9e, 0xcf, 0x83, 0x3e, 0x61, 0x25, 0xd2, 0xbd, 0xcc, 0xf0, 0x9f, 0x3d,
  0xec, 0xc0, 0x52, 0x3e, 0xf3, 0x3d, 0xbb, 0x3e, 0xb2, 0x94, 0x80, 0x3e,
  0x30, 0x3e, 0x83, 0x3e, 0x0c, 0x85, 0x86, 0x3e, 0x2c, 0xef, 0x1c, 0xbd,
  0x76, 0xe1, 0xa2, 0x3e, 0x59, 0x1b, 0x48, 0x3e, 0x57, 0x65, 0xf6, 0x3c,
  0xb6, 0x0c, 0xef, 0x3d, 0xdf, 0xd1, 0x74, 0x3c, 0x89, 0xd6, 0x5a, 0x3e,
  0xa1, 0xac, 0xc4, 0xbd, 0x07, 0x79, 0x1a, 0xbe, 0x62, 0x46, 0x80, 0x3e,
  0x04, 0xcd, 0xb7, 0x3e, 0xc3, 0xfc, 0x5c, 0x3e, 0xe9, 0xd6, 0xc6, 0xb9,
  0x0d, 0x5f, 0x41, 0xbc, 0x25, 0x6a, 0x1c, 0x3f, 0x8a, 0xb2, 0xc7, 0xbd,
  0xd4, 0xb4, 0x4d, 0xbd, 0xf8, 0xd3, 0x9e, 0xbe, 0x1b, 0x9d, 0x55, 0x3c,
  0xa8, 0xe5, 0xf2, 0x3d, 0x14, 0xa3, 0xc5, 0x3d, 0xfa, 0x37, 0xa5, 0x3e,
  0x0e, 0x67, 0x36, 0x3d, 0x8e, 0x70, 0x8e, 0x3d, 0xf5, 0x34, 0xe5, 0xbe,
  0x26, 0xca, 0xf9, 0x3c, 0xc9, 0x13, 0x83, 0x3e, 0x28, 0x3b, 0xd6, 0x3e,
  0x32, 0x64, 0xf7, 0x3d, 0xca, 0x8d, 0x1c, 0xbe, 0xfe, 0xdf, 0xff, 0xff,
  0x10, 0x00, 0x00, 0x00, 0x09, 0x00, 0x00, 0x00, 0x1c, 0x00, 0x00, 0x00,
  0x38, 0x00, 0x00, 0x00, 0x04, 0x00, 0x00, 0x00, 0x08, 0x00, 0x00, 0x00,
  0x04, 0x00, 0x00, 0x00, 0x03, 0x00, 0x00, 0x00, 0x01, 0x00, 0x00, 0x00,
  0x18, 0x00, 0x00, 0x00, 0x73, 0x65, 0x71, 0x75, 0x65, 0x6e, 0x74, 0x69,
  0x61, 0x6c, 0x2f, 0x63, 0x6f, 0x6e, 0x76, 0x32, 0x64, 0x2f, 0x43, 0x6f,
  0x6e, 0x76, 0x32, 0x44, 0x00, 0x00, 0x00, 0x00, 0x74, 0xdf, 0xff, 0xff,
  0x7e, 0xe0, 0xff, 0xff, 0x04, 0x00, 0x00, 0x00, 0xc0, 0x00, 0x00, 0x00,
  0xff, 0x38, 0x28, 0x3e, 0xad, 0xef, 0xb0, 0xbe, 0x2d, 0x6e, 0x6c, 0x3e,
  0xdc, 0x03, 0xba, 0x3e, 0x6a, 0x6d, 0x89, 0x3e, 0xdb, 0x70, 0x1d, 0x3e,
  0x7d, 0xbf, 0xe9, 0xbc, 0x5d, 0xe1, 0x7d, 0x3e, 0x5c, 0xd0, 0xc5, 0x3e,
  0xb0, 0xf1, 0x2b, 0x3d, 0xdc, 0xea, 0x33, 0x3e, 0x69, 0xde, 0xd2, 0xbe,
  0x4a, 0x2d, 0x63, 0x3e, 0x8a, 0x1b, 0x2d, 0xbe, 0xc0, 0xa8, 0x90, 0x3e,
  0x70, 0x62, 0x53, 0xbe, 0xfb, 0xb7, 0x97, 0xbd, 0x6e, 0x72, 0xdc, 0xbe,
  0x8b, 0xdf, 0xda, 0x3d, 0x56, 0x81, 0xe9, 0x3d, 0x1b, 0xdb, 0xf6, 0xbe,
  0xa2, 0xae, 0x0f, 0x3e, 0x26, 0xa7, 0x52, 0xbe, 0xae, 0x48, 0xb2, 0x3e,
  0x61, 0x65, 0xdd, 0x3e, 0x42, 0xcc, 0xf5, 0x3b, 0x14, 0xcd, 0x93, 0x3e,
  0x47, 0x7e, 0x90, 0xbe, 0xcb, 0x2c, 0x3e, 0x3e, 0x79, 0x56, 0x0e, 0xbe,
  0xa6, 0x3a, 0xa5, 0x3e, 0x91, 0x8b, 0xa7, 0x3d, 0x6c, 0xf6, 0x40, 0x3e,
  0x43, 0x93, 0xba, 0xbe, 0xb1, 0x0e, 0x83, 0x3e, 0x70, 0x13, 0xe5, 0x3d,
  0x34, 0x7d, 0xa2, 0x3e, 0x7d, 0x64, 0xa2, 0x3c, 0xc8, 0x4f, 0xcf, 0xbb,
  0xce, 0xda, 0xc0, 0x3e, 0x2d, 0x90, 0xf2, 0x3e, 0xb8, 0x26, 0xaa, 0x3d,
  0x09, 0x57, 0x2a, 0x3e, 0x8d, 0x88, 0x9b, 0xbe, 0x9d, 0xea, 0x3b, 0x3e,
  0x02, 0x4f, 0x6a, 0xbe, 0x32, 0xca, 0x86, 0x3e, 0xd4, 0x5a, 0x03, 0xbf,
  0x16, 0xe1, 0xff, 0xff, 0x10, 0x00, 0x00, 0x00, 0x08, 0x00, 0x00, 0x00,
  0x14, 0x00, 0x00, 0x00, 0x30, 0x00, 0x00, 0x00, 0x02, 0x00, 0x00, 0x00,
  0x03, 0x00, 0x00, 0x00, 0x10, 0x00, 0x00, 0x00, 0x19, 0x00, 0x00, 0x00,
  0x73, 0x65, 0x71, 0x75, 0x65, 0x6e, 0x74, 0x69, 0x61, 0x6c, 0x2f, 0x64,
  0x65, 0x6e, 0x73, 0x65, 0x5f, 0x31, 0x2f, 0x4d, 0x61, 0x74, 0x4d, 0x75,
  0x6c, 0x00, 0x00, 0x00, 0x84, 0xe0, 0xff, 0xff, 0x8e, 0xe1, 0xff, 0xff,
  0x04, 0x00, 0x00, 0x00, 0x00, 0x1c, 0x00, 0x00, 0x5a, 0x09, 0x0b, 0xbb,
  0xff, 0x37, 0x45, 0xbe, 0xb6, 0x32, 0x9f, 0xbd, 0x60, 0x82, 0x3b, 0xb8,
  0xfd, 0xe7, 0x28, 0x3e, 0x38, 0x62, 0x9f, 0x3d, 0x14, 0x5a, 0xa1, 0xbe,
  0xf8, 0xac, 0xb3, 0xbe, 0x79, 0xca, 0xd4, 0x3d, 0x4f, 0xe1, 0x94, 0x3d,
  0x78, 0x0b, 0x50, 0x3e, 0x5e, 0x24, 0x2d, 0xbe, 0x64, 0x6b, 0x8a, 0xbe,
  0x90, 0x7b, 0xb4, 0x3a, 0x47, 0x44, 0x34, 0xbe, 0x79, 0x7a, 0xd0, 0x3e,
  0x9f, 0xcf, 0x0d, 0xbe, 0xd1, 0xce, 0x94, 0x3c, 0x65, 0xce, 0x68, 0xbe,
  0xdf, 0xbe, 0xbe, 0x3c, 0x58, 0x7b, 0x6b, 0xbd, 0xa7, 0x54, 0x34, 0xbd,
  0xbc, 0x7e, 0x9f, 0x3d, 0x42, 0x38, 0xbc, 0xbe, 0x74, 0xb2, 0x16, 0x3c,
  0x45, 0x51, 0x35, 0x3d, 0xaf, 0xc4, 0x9e, 0xbd, 0x45, 0xdf, 0xd9, 0xbd,
  0x2c, 0xd9, 0x6c, 0xbe, 0xfb, 0xb1, 0xa5, 0x3d, 0xa2, 0xa1, 0x07, 0xbe,
  0x41, 0x03, 0x97, 0x3e, 0x04, 0xf8, 0x94, 0xbe, 0xbf, 0xaa, 0x70, 0xbd,
  0x9a, 0xfb, 0x28, 0xbe, 0xaa, 0xd9, 0xa7, 0xbd, 0x0e, 0x33, 0x11, 0x3e,
  0x08, 0x0c, 0x0c, 0x3e, 0xc9, 0x0e, 0x9c, 0xbc, 0x03, 0x93, 0xc3, 0xbd,
  0xb0, 0xea, 0xf0, 0x3d, 0x4c, 0x26, 0x78, 0x3e, 0x49, 0x8a, 0xac, 0x3d,
  0xd7, 0x2b, 0x82, 0xbe, 0x18, 0x10, 0x98, 0xbe, 0x89, 0xe7, 0x1a, 0x3e,
  0x16, 0x0c, 0xa4, 0xbd, 0x3b, 0xb6, 0x82, 0xbd, 0x01, 0xb3, 0xaa, 0xbe,
  0x97, 0x03, 0x23, 0x3d, 0x30, 0xc4, 0xd1, 0x3d, 0x32, 0x02, 0xb2, 0xbd,
  0xdc, 0x1b, 0x12, 0x3d, 0x29, 0xb9, 0x1a, 0xbc, 0x7e, 0x44, 0x6b, 0x3d,
  0x28, 0x83, 0x86, 0xbe, 0x79, 0x04, 0x05, 0x3e, 0xd4, 0x90, 0xdb, 0x3d,
  0xe5, 0x84, 0x50, 0x3e, 0x71, 0xcb, 0x9b, 0xbc, 0x12, 0x10, 0x39, 0x3e,
  0x0c, 0xb8, 0x89, 0x3e, 0xe0, 0xef, 0xc0, 0xbd, 0x3a, 0x20, 0x84, 0x3e,
  0xb2, 0xa1, 0x9e, 0xbe, 0xcc, 0xdb, 0x85, 0x3e, 0x1b, 0x2a, 0xdb, 0x3c,
  0x69, 0x62, 0x32, 0x3d, 0xb6, 0x7a, 0x0a, 0xbc, 0xb8, 0x4f, 0x35, 0x3e,
  0xb8, 0xa0, 0xab, 0xbd, 0x1d, 0x5d, 0xfa, 0xbe, 0xee, 0x7d, 0x27, 0xbe,
  0x1d, 0x13, 0x58, 0xbd, 0x79, 0x2b, 0xfa, 0x3c, 0xde, 0x71, 0xd8, 0xbe,
  0x1d, 0x88, 0x48, 0xbe, 0x15, 0xc3, 0xda, 0x3e, 0x33, 0xd7, 0x62, 0xbe,
  0x34, 0x37, 0x5a, 0x3d, 0x2e, 0xa7, 0x14, 0xbe, 0x84, 0xc6, 0x98, 0x3e,
  0x47, 0xdd, 0xc3, 0xbc, 0x4f, 0x65, 0x9f, 0x3c, 0x2e, 0xb6, 0x17, 0xbc,
  0x91, 0x0a, 0x6c, 0x3d, 0xdc, 0x38, 0x07, 0x3e, 0xcd, 0xb3, 0xd2, 0xbe,
  0xc0, 0x42, 0x0c, 0x3e, 0xc9, 0xbe, 0x68, 0x3d, 0x4c, 0xfe, 0x81, 0xbd,
  0xba, 0x5e, 0x18, 0xbe, 0xb8, 0xb5, 0xd0, 0xbd, 0x3f, 0x97, 0xd9, 0x3e,
  0x9e, 0x04, 0x2b, 0x3c, 0xdc, 0x14, 0x8c, 0x3e, 0x65, 0xd5, 0xc4, 0xbd,
  0x83, 0xeb, 0x09, 0xbd, 0x87, 0x76, 0x53, 0xbe, 0x18, 0xc3, 0x8b, 0xbb,
  0x9a, 0xf5, 0x28, 0xbc, 0x0c, 0x6d, 0x3b, 0x3e, 0x3e, 0x3e, 0x06, 0xbd,
  0xd7, 0x68, 0x00, 0xbe, 0xa6, 0x7f, 0x0d, 0xbe, 0x67, 0x3c, 0xec, 0xba,
  0xd8, 0x73, 0x8b, 0xbe, 0xf9, 0x34, 0xe0, 0xbd, 0x56, 0x9a, 0xf0, 0x3d,
  0x60, 0x55, 0x48, 0x3e, 0x48, 0x24, 0x73, 0x3c, 0x5f, 0x27, 0x96, 0x3e,
  0xca, 0x2f, 0xec, 0xbd, 0x27, 0xe7, 0xe9, 0x3e, 0x01, 0x39, 0xf8, 0xbd,
  0x9a, 0x79, 0xa8, 0xbd, 0x49, 0xcf, 0x58, 0xbe, 0x66, 0xbd, 0x80, 0xbe,
  0xfe, 0x89, 0xfd, 0x3e, 0xd0, 0x87, 0x0b, 0x3f, 0x8f, 0xb7, 0x39, 0x3f,
  0x6d, 0xd9, 0x89, 0xbd, 0x52, 0x95, 0xbf, 0xbd, 0xce, 0x39, 0x66, 0xbd,
  0xe7, 0x24, 0xe4, 0xbe, 0xe7, 0xfb, 0xd1, 0x3d, 0xcb, 0x66, 0x15, 0xbc,
  0x05, 0x58, 0x2b, 0xbf, 0xc1, 0x01, 0xad, 0x3b, 0x64, 0x08, 0x69, 0xbd,
  0xc6, 0x3c, 0x9f, 0x3d, 0x47, 0x35, 0xf8, 0xbc, 0x69, 0xfc, 0x6c, 0xbd,
  0x74, 0x9d, 0x51, 0xbf, 0x40, 0x3c, 0x35, 0x3e, 0x66, 0x8f, 0x2f, 0x3e,
  0x0e, 0x8b, 0x90, 0x3f, 0x78, 0x06, 0x3a, 0x3e, 0x39, 0x7a, 0x12, 0x3e,
  0x10, 0x30, 0x7c, 0x3d, 0xe6, 0x36, 0x44, 0xbf, 0x5a, 0x2f, 0x0c, 0xbf,
  0x25, 0xc7, 0x15, 0x3e, 0x7c, 0xb5, 0xd9, 0xbe, 0x96, 0xfb, 0x9f, 0x3c,
  0x4e, 0x2e, 0x9f, 0xbe, 0x69, 0x2c, 0xff, 0x3d, 0x1d, 0xe4, 0x76, 0xba,
  0x83, 0x3e, 0xa6, 0xbc, 0x11, 0x35, 0xbd, 0xbe, 0x9c, 0x29, 0x61, 0x3e,
  0x46, 0xa8, 0x61, 0xbc, 0x3e, 0x78, 0x4e, 0x3f, 0x71, 0xc7, 0xc7, 0x3d,
  0x0e, 0x90, 0xc4, 0x3d, 0xed, 0xea, 0xd7, 0x3c, 0x0f, 0x8f, 0xb9, 0xbe,
  0xfc, 0xaa, 0x22, 0xbf, 0x60, 0x0a, 0x67, 0x3c, 0x2b, 0xc4, 0xb3, 0xbe,
  0x83, 0x36, 0x08, 0x3d, 0xf5, 0x26, 0xb5, 0xbe, 0x04, 0xbe, 0x3e, 0xbe,
  0x3e, 0xd6, 0xfb, 0xbc, 0xca, 0xc6, 0x5a, 0xbd, 0x14, 0x89, 0x33, 0xbe,
  0x18, 0x91, 0x0b, 0x3e, 0x63, 0x39, 0xe8, 0xbc, 0xc2, 0x6a, 0x3c, 0x3f,
  0x8f, 0x64, 0x89, 0x3d, 0x8f, 0x74, 0x83, 0x3d, 0x65, 0xa0, 0x5c, 0x3d,
  0x32, 0x1d, 0x3c, 0xbe, 0x19, 0xd8, 0xf3, 0xbe, 0xd6, 0xd1, 0x90, 0xbb,
  0x49, 0xd9, 0xc0, 0xbe, 0xc2, 0x1f, 0x85, 0xbc, 0x2e, 0x12, 0x20, 0xbe,
  0x5d, 0x9a, 0xe9, 0xbd, 0x89, 0x9c, 0x59, 0x3c, 0x1e, 0x81, 0x56, 0x3d,
  0xdb, 0x45, 0x6d, 0xbe, 0x4a, 0x66, 0x4b, 0x3e, 0x5e, 0xb9, 0xc7, 0x3b,
  0x8e, 0xe2, 0x51, 0x3f, 0x06, 0xd3, 0x28, 0x3d, 0xdd, 0x60, 0xa8, 0x3d,
  0xe1, 0x25, 0x5e, 0xbb, 0xf4, 0xbb, 0xf7, 0xbe, 0x2e, 0x79, 0xb7, 0xbe,
  0xb1, 0xf4, 0x51, 0x3d, 0x5b, 0xe8, 0xb0, 0xbe, 0x01, 0x8d, 0x7a, 0x3b,
  0x38, 0x62, 0x1d, 0x3d, 0x55, 0x6f, 0x1d, 0xbe, 0x04, 0x00, 0x98, 0x3d,
  0x0d, 0x5b, 0x32, 0x3c, 0x74, 0xf3, 0xf0, 0xbe, 0x90, 0x56, 0x11, 0x3e,
  0x90, 0xfe, 0x73, 0x3d, 0x94, 0x7f, 0x83, 0x3f, 0xbd, 0x18, 0x23, 0x3e,
  0xc4, 0x80, 0x34, 0x3e, 0x50, 0x53, 0x3d, 0x3c, 0x5c, 0x9a, 0xda, 0xbe,
  0xa6, 0x62, 0x95, 0xbe, 0xb4, 0x0a, 0x26, 0x3e, 0x1c, 0xc0, 0x8d, 0xbe,
  0x5a, 0x83, 0x5e, 0x3d, 0xc2, 0x8a, 0x82, 0x3e, 0x47, 0xb8, 0x9f, 0xbb,
  0xe9, 0x17, 0x94, 0x3c, 0x3c, 0x4f, 0x8b, 0x3d, 0xfe, 0xb3, 0xdf, 0xbe,
  0x9e, 0x39, 0x4c, 0x3e, 0xbe, 0xc2, 0x33, 0xbe, 0x31, 0x4a, 0x33, 0x3f,
  0x00, 0x50, 0xfd, 0x36, 0x90, 0x02, 0xb9, 0x3d, 0xf1, 0x83, 0xe5, 0x3b,
  0x92, 0x1c, 0x28, 0xbf, 0xb0, 0x5a, 0x13, 0x3e, 0x26, 0x95, 0xd9, 0x3d,
  0xa9, 0xa5, 0xfb, 0xbe, 0xeb, 0x9e, 0xf7, 0xbd, 0x12, 0xe9, 0x5c, 0xbe,
  0x56, 0xf3, 0x4f, 0xbc, 0x29, 0xed, 0xd9, 0x3d, 0x00, 0x2b, 0x02, 0x3e,
  0x0b, 0xae, 0xb7, 0x3e, 0xe6, 0x24, 0xbe, 0xbe, 0xeb, 0x0e, 0x4a, 0xbe,
  0xbf, 0xef, 0x44, 0x3b, 0x6e, 0xbc, 0x98, 0x3d, 0x24, 0xae, 0x00, 0x3c,
  0x06, 0xac, 0x82, 0xbe, 0xaa, 0x99, 0xcd, 0xbe, 0x88, 0x6c, 0xff, 0x3d,
  0xca, 0x5b, 0xa7, 0xbe, 0x67, 0xfe, 0x51, 0x3f, 0x64, 0x32, 0x99, 0xbd,
  0xf4, 0x9c, 0xaa, 0x3d, 0xa7, 0x8a, 0x85, 0xbe, 0x92, 0xde, 0xdf, 0x3a,
  0x1b, 0xf8, 0xda, 0x3d, 0x43, 0xe1, 0xd4, 0x3d, 0x9d, 0x44, 0xdb, 0xbd,
  0x63, 0x05, 0x64, 0xbd, 0x2c, 0x10, 0x48, 0x3e, 0x5a, 0x39, 0x30, 0x3e,
  0xf8, 0x0a, 0xe3, 0x3c, 0x3f, 0xf7, 0x4f, 0xbe, 0x84, 0x50, 0xe3, 0xbe,
  0xd5, 0x06, 0xc8, 0x3e, 0xa4, 0x9d, 0xc0, 0xbe, 0xee, 0x9f, 0x71, 0x3e,
  0xb8, 0x1d, 0xb1, 0xbd, 0xf6, 0x8e, 0x61, 0xbd, 0xf6, 0x27, 0x28, 0xbe,
  0xf1, 0x7e, 0x94, 0xbc, 0xab, 0x92, 0xdf, 0x3d, 0x1f, 0xa9, 0x07, 0x3c,
  0xf1, 0x13, 0x5d, 0x3d, 0x8e, 0x0a, 0xbf, 0x3c, 0x3d, 0xaa, 0x8e, 0xbc,
  0xda, 0xe9, 0x78, 0x3e, 0x6d, 0x1b, 0xb9, 0x3d, 0xe0, 0x1c, 0xf8, 0xbd,
  0xca, 0x26, 0xd5, 0xbe, 0x6b, 0x8f, 0xf5, 0x3e, 0x21, 0x33, 0x49, 0xbe,
  0x56, 0x8d, 0x03, 0x3f, 0x1d, 0xec, 0x2a, 0xbe, 0xd2, 0x7c, 0xc5, 0x3b,
  0x90, 0x5f, 0x94, 0xbe, 0xc0, 0x64, 0xf4, 0xbd, 0x3e, 0xa1, 0xef, 0xbd,
  0x42, 0x08, 0xe9, 0x3d, 0x97, 0x03, 0x9f, 0xbb, 0xe4, 0x06, 0x8b, 0x3e,
  0x40, 0xf4, 0x5c, 0x3e, 0xf6, 0x3e, 0x79, 0x3d, 0xcd, 0xf3, 0x8c, 0xbd,
  0xf5, 0x3b, 0x10, 0xbe, 0x53, 0xd8, 0x81, 0xbe, 0x80, 0x57, 0x8e, 0x3e,
  0xb4, 0xfc, 0xea, 0x3c, 0x9e, 0xe4, 0x5e, 0x3e, 0xf2, 0xc9, 0xe7, 0xbd,
  0x8f, 0xe6, 0xbd, 0x3c, 0x4e, 0x66, 0x14, 0xbe, 0x1b, 0x13, 0xd9, 0x3d,
  0xfa, 0xbe, 0x02, 0x3c, 0xbf, 0x79, 0x74, 0x3e, 0x84, 0xb3, 0x4c, 0x3d,
  0x7b, 0xbc, 0x70, 0xbe, 0xfe, 0x06, 0x52, 0x3e, 0x7d, 0xe7, 0x9f, 0x3e,
  0x05, 0x48, 0xe0, 0x3d, 0xd2, 0x02, 0x5d, 0xbe, 0x86, 0x96, 0xb8, 0xbe,
  0x4b, 0x54, 0x10, 0x3e, 0xfa, 0x58, 0x29, 0x3d, 0x45, 0xec, 0xd6, 0x3e,
  0x86, 0xbc, 0x7d, 0xbe, 0x3e, 0x56, 0x6f, 0xbc, 0x39, 0xf0, 0x63, 0xbe,
  0x86, 0x88, 0x0d, 0xbe, 0x30, 0x23, 0x05, 0xbd, 0xd0, 0xf6, 0x72, 0x3e,
  0xdd, 0xdb, 0xf3, 0x3d, 0xda, 0x9c, 0x05, 0x3c, 0xdd, 0x04, 0x68, 0x3e,
  0x17, 0x64, 0xc8, 0x3c, 0xf0, 0x31, 0xc6, 0xbd, 0xc2, 0x7b, 0x68, 0xbe,
  0xa2, 0x47, 0xd0, 0xbe, 0x53, 0x5d, 0xb2, 0x3e, 0x99, 0x7d, 0x0e, 0xbe,
  0x34, 0x85, 0x99, 0x3e, 0x98, 0x0f, 0xf4, 0xbd, 0x3e, 0xc7, 0x9c, 0xbe,
  0x92, 0x50, 0x8d, 0xbe, 0x3b, 0x8c, 0xa3, 0xbc, 0x49, 0xad, 0x9c, 0xbd,
  0xa3, 0x75, 0xb6, 0x3e, 0xc0, 0x2d, 0x2b, 0xbe, 0xd6, 0xdd, 0x5c, 0x3e,
  0xa0, 0xba, 0x7e, 0x3d, 0xe0, 0x7e, 0x55, 0xbd, 0x32, 0x68, 0x82, 0xbc,
  0xb1, 0x55, 0xa9, 0xbd, 0x35, 0xdc, 0x47, 0xbe, 0x99, 0x50, 0xfd, 0xbc,
  0x37, 0xb5, 0xf4, 0xbd, 0x70, 0xec, 0xba, 0x3e, 0x30, 0x80, 0x14, 0xbe,
  0x64, 0x97, 0x5f, 0xbd, 0xf2, 0x09, 0x19, 0xbe, 0xfa, 0xc8, 0x59, 0xbe,
  0xd4, 0xba, 0x6c, 0x3c, 0x83, 0x12, 0xb8, 0xbd, 0x8d, 0x23, 0x11, 0xbe,
  0xbd, 0x0c, 0xab, 0xbe, 0x07, 0xb9, 0xd4, 0x3e, 0xa2, 0x66, 0xe8, 0x3d,
  0x19, 0x61, 0x43, 0xbe, 0x46, 0xa9, 0x58, 0xbe, 0xce, 0xee, 0x62, 0xbe,
  0x0d, 0x56, 0x87, 0x3d, 0x30, 0xd1, 0x67, 0xbe, 0x5f, 0xb3, 0xd7, 0xbe,
  0xa7, 0x81, 0xc2, 0xbd, 0xa6, 0x1f, 0x82, 0xbe, 0x79, 0x7f, 0xc0, 0xbc,
  0x42, 0x80, 0x51, 0xbe, 0x50, 0x37, 0x8c, 0xbd, 0x2a, 0x85, 0x20, 0x3e,
  0xeb, 0x48, 0x20, 0xbe, 0x78, 0x14, 0xac, 0xbe, 0x3a, 0x0e, 0x88, 0x3e,
  0x18, 0xca, 0x94, 0x3e, 0xf0, 0x6f, 0xe1, 0xbd, 0x3c, 0x49, 0x97, 0xbe,
  0x46, 0x6f, 0x0b, 0xbe, 0x5f, 0x55, 0x2f, 0x3e, 0xea, 0x60, 0x96, 0xbd,
  0xd3, 0xd4, 0x1c, 0xbf, 0x47, 0xad, 0x46, 0xbe, 0x66, 0x46, 0x7b, 0xbd,
  0x61, 0x35, 0x09, 0xbe, 0x91, 0xf1, 0x02, 0x3e, 0x7a, 0x48, 0xff, 0xbd,
  0x5f, 0x99, 0xa7, 0x3d, 0x93, 0x79, 0x6f, 0xbd, 0x49, 0x37, 0xcf, 0xbe,
  0xd1, 0xe7, 0x1c, 0x3e, 0xd4, 0x58, 0x90, 0xbd, 0x35, 0x40, 0x0d, 0xbe,
  0x67, 0x01, 0x11, 0xbd, 0x68, 0x4f, 0x44, 0xbe, 0xeb, 0x83, 0x06, 0xbe,
  0xea, 0xde, 0x4a, 0xbe, 0x3f, 0xff, 0x1e, 0xbf, 0xcb, 0x04, 0x08, 0xbe,
  0x8e, 0xbd, 0x4f, 0x3e, 0xf3, 0x8d, 0xb8, 0x3d, 0x3e, 0xc8, 0x8e, 0xbd,
  0x4d, 0x96, 0x2f, 0xbe, 0xf0, 0xea, 0xb3, 0x3d, 0xff, 0x88, 0x8d, 0xbe,
  0x32, 0x53, 0x28, 0xbe, 0x01, 0x2e, 0xf8, 0x3e, 0x94, 0x81, 0xa1, 0xba,
  0x59, 0x1f, 0x0f, 0xbd, 0x7a, 0x01, 0x62, 0xbe, 0xee, 0xd5, 0xcf, 0xbe,
  0x8a, 0x92, 0x2c, 0xbe, 0x61, 0x82, 0xca, 0xbd, 0x5e, 0xd8, 0x02, 0xbf,
  0x48, 0x03, 0xa6, 0xbb, 0x5d, 0x57, 0x55, 0xbe, 0xa3, 0x60, 0x2d, 0xbe,
  0x2f, 0xb1, 0x87, 0xbc, 0xbf, 0xa9, 0xc0, 0xbd, 0xf4, 0x5b, 0x78, 0x3b,
  0x4a, 0x70, 0xb3, 0xbd, 0xd9, 0x97, 0x4b, 0xbe, 0xb0, 0x4f, 0x0e, 0x3f,
  0x23, 0x79, 0x68, 0xbe, 0xe4, 0x1f, 0xf3, 0xbc, 0x91, 0x4a, 0x5e, 0x3e,
  0xb1, 0x38, 0x65, 0xbd, 0x0e, 0xaf, 0x16, 0xbe, 0x90, 0xce, 0xd3, 0xbd,
  0xdc, 0x3e, 0x58, 0xbf, 0x79, 0x75, 0x0b, 0xbe, 0x8f, 0x69, 0xe9, 0xbd,
  0x78, 0x1a, 0x53, 0xbd, 0x81, 0xc2, 0xc3, 0xbd, 0x91, 0x80, 0xa2, 0x3c,
  0xfd, 0x03, 0x0d, 0x3e, 0x14, 0xd4, 0x80, 0xbe, 0xf3, 0xc5, 0xd0, 0xbd,
  0x31, 0xd7, 0xd2, 0x3e, 0xe7, 0x9e, 0xcf, 0x3c, 0x8a, 0x9c, 0x5f, 0xbe,
  0x46, 0x2e, 0x13, 0xbd, 0xf2, 0x92, 0xd5, 0x3c, 0x90, 0xaf, 0x8f, 0xbd,
  0x36, 0xb7, 0x41, 0xbe, 0x69, 0x6b, 0x03, 0xbf, 0xc9, 0x83, 0x28, 0xbe,
  0x57, 0x18, 0x59, 0xbe, 0x0e, 0x1f, 0xe4, 0xbd, 0xf8, 0x93, 0x79, 0xbe,
  0x03, 0xbf, 0x80, 0xbe, 0xa0, 0x95, 0xa3, 0x3d, 0x43, 0xfc, 0x4e, 0xbe,
  0x56, 0x02, 0x29, 0xbe, 0xca, 0x35, 0xf9, 0x3e, 0xf9, 0x2f, 0x75, 0xbe,
  0x1d, 0xdc, 0x30, 0x3e, 0x3e, 0xc9, 0x73, 0xbd, 0x84, 0x7f, 0x06, 0xbc,
  0x04, 0x81, 0x05, 0xbd, 0xda, 0x38, 0x7b, 0xbd, 0xe1, 0x1a, 0xa5, 0xbd,
  0x8e, 0x1f, 0x65, 0xbe, 0x6e, 0xa8, 0x84, 0x3e, 0xfb, 0x94, 0xf4, 0xbd,
  0x31, 0x80, 0x22, 0x3e, 0x91, 0x92, 0x0f, 0x3e, 0x40, 0x31, 0x0b, 0x3b,
  0xd7, 0xe6, 0xe3, 0xbe, 0xb1, 0x81, 0x14, 0xbf, 0x4c, 0x32, 0x07, 0x3d,
  0x6e, 0xbd, 0xb0, 0x3e, 0x1f, 0x5f, 0x02, 0x3d, 0x15, 0x36, 0x8d, 0xbe,
  0x62, 0x26, 0x7f, 0xbe, 0xc9, 0x79, 0x09, 0xbe, 0xb2, 0x1d, 0x8f, 0xbe,
  0x12, 0x87, 0xad, 0x3d, 0xec, 0x7d, 0x42, 0x3d, 0xfc, 0x1c, 0xcd, 0x3d,
  0x8c, 0x67, 0x86, 0xbe, 0x71, 0xe0, 0x38, 0x3e, 0x23, 0x95, 0x82, 0x3d,
  0xc1, 0xef, 0x26, 0x3e, 0x07, 0x3c, 0xaf, 0xbe, 0xb4, 0x96, 0xa1, 0xbd,
  0x24, 0x69, 0x3a, 0x3c, 0x23, 0x9d, 0x5f, 0x3e, 0x62, 0x33, 0x37, 0xbe,
  0xca, 0x4f, 0x7c, 0xbd, 0x6d, 0x59, 0x90, 0xbe, 0x6c, 0x22, 0xf9, 0x3e,
  0x3a, 0xb1, 0xfa, 0xbe, 0xe8, 0x6b, 0x07, 0x3e, 0x20, 0x9b, 0x4e, 0xbe,
  0x78, 0x88, 0x5e, 0x3d, 0x46, 0x53, 0xff, 0xbd, 0xe5, 0x47, 0x8c, 0xbc,
  0x6a, 0xdc, 0x1c, 0xbc, 0x1b, 0x2b, 0x9c, 0x3e, 0x05, 0x1a, 0xa6, 0xbd,
  0xbe, 0x7c, 0x88, 0xbe, 0xc7, 0x14, 0xce, 0x3d, 0xd0, 0x84, 0x94, 0x3e,
  0x97, 0x08, 0x39, 0xbe, 0xce, 0xa7, 0x50, 0x3d, 0x2f, 0xf6, 0xb8, 0xbd,
  0x37, 0x1d, 0x9f, 0x3e, 0x9b, 0x65, 0xbc, 0xbe, 0x2e, 0x46, 0x5a, 0x3e,
  0x2f, 0xe4, 0xcd, 0x3c, 0x25, 0xed, 0x9f, 0x3d, 0xeb, 0x13, 0xbe, 0xbd,
  0xbc, 0xc2, 0x0e, 0x3d, 0xe5, 0xe8, 0xf5, 0x3d, 0x5c, 0xc3, 0x2d, 0x3e,
  0x98, 0x09, 0xdc, 0xbd, 0x2a, 0x93, 0x96, 0xbd, 0xbc, 0xb9, 0x48, 0x3d,
  0x97, 0x82, 0x12, 0xbe, 0x2c, 0x4c, 0x2b, 0xbc, 0xf4, 0x73, 0x4c, 0xbb,
  0xd0, 0x04, 0xa2, 0xbd, 0xb4, 0xdd, 0x9b, 0x3e, 0x0b, 0xe4, 0x65, 0xbe,
  0xeb, 0xd1, 0x7d, 0x3e, 0x25, 0xb1, 0x36, 0xbd, 0x75, 0x01, 0x28, 0xbe,
  0x9c, 0xf3, 0x58, 0x3d, 0xeb, 0x46, 0x4d, 0x3c, 0xbf, 0x36, 0x93, 0x3d,
  0x28, 0x59, 0x28, 0x3e, 0x29, 0x9a, 0xaa, 0x3d, 0xbe, 0x56, 0xf0, 0xbc,
  0xa1, 0xe7, 0x04, 0x3d, 0x7e, 0x6d, 0x19, 0xbd, 0x41, 0xf7, 0x31, 0x3d,
  0x59, 0x5b, 0x09, 0xbe, 0x58, 0x65, 0x6d, 0xbe, 0x3a, 0x42, 0xd4, 0x3d,
  0x54, 0x17, 0x22, 0xbe, 0xb2, 0xb8, 0x1e, 0x3e, 0xba, 0x69, 0xfe, 0xbd,
  0x32, 0xf5, 0x64, 0x3e, 0x4c, 0x99, 0x03, 0xbe, 0xf3, 0xe3, 0xf0, 0x3d,
  0x7a, 0xb7, 0x95, 0xbd, 0xf3, 0x69, 0x78, 0x3e, 0x09, 0xf5, 0xf5, 0x3c,
  0xd6, 0x80, 0x32, 0xbe, 0x8f, 0x8a, 0x4f, 0x3c, 0xa6, 0xe6, 0xa7, 0x3d,
  0x19, 0xb0, 0xed, 0x3d, 0x9c, 0x1a, 0x89, 0xbd, 0x94, 0xc2, 0x30, 0xbe,
  0x8b, 0x13, 0x78, 0x3e, 0xef, 0xfc, 0xf4, 0xbd, 0xd2, 0x68, 0x34, 0x3e,
  0xb6, 0xde, 0x15, 0xbd, 0x0c, 0x18, 0xc8, 0x3d, 0x22, 0x21, 0x4f, 0xbe,
  0xb5, 0x8e, 0x46, 0x3d, 0xe1, 0x29, 0x97, 0x3d, 0x2f, 0x90, 0xb5, 0x3e,
  0x87, 0x3f, 0x56, 0xbd, 0x8c, 0x34, 0xad, 0xbe, 0x51, 0x0b, 0xa8, 0xbd,
  0x1f, 0xe0, 0xe2, 0xbb, 0x15, 0x39, 0x28, 0xbe, 0x34, 0xdb, 0xe4, 0xbd,
  0xfc, 0x6e, 0x85, 0xbd, 0x35, 0xf5, 0xd0, 0xbd, 0x3e, 0xdd, 0x33, 0xbd,
  0xdd, 0x7d, 0x21, 0xbe, 0x27, 0xb9, 0x0e, 0xbf, 0xa7, 0x44, 0x99, 0x3e,
  0x57, 0x08, 0x91, 0x3e, 0xe4, 0xbf, 0x59, 0xbe, 0x30, 0x12, 0x10, 0xbe,
  0x11, 0x59, 0x88, 0xbe, 0xc8, 0xaf, 0xdd, 0x3e, 0x21, 0x49, 0x03, 0x3e,
  0x0f, 0xd2, 0xc1, 0x3e, 0xf2, 0x24, 0x78, 0xbf, 0xe2, 0x32, 0x1a, 0xbf,
  0xf0, 0x9e, 0xe1, 0xbd, 0x6a, 0x84, 0x19, 0x3e, 0x1a, 0xb4, 0x92, 0xbe,
  0x36, 0x34, 0x54, 0xbe, 0xb7, 0x21, 0x3c, 0xbf, 0x5a, 0x8d, 0x66, 0xbe,
  0x6b, 0xb1, 0xb9, 0x3e, 0x4f, 0x1f, 0xe9, 0xbd, 0xaa, 0xcc, 0xac, 0xbd,
  0x6e, 0x8c, 0x20, 0xbe, 0x51, 0xab, 0x01, 0xbf, 0x89, 0xc0, 0xb0, 0x3e,
  0xae, 0xa7, 0xee, 0xbc, 0x0d, 0xc8, 0x01, 0x3f, 0x87, 0x19, 0x2b, 0xbe,
  0x67, 0x6d, 0xc1, 0xbd, 0xc6, 0x9f, 0xa0, 0xbe, 0xae, 0x5b, 0x0f, 0xbe,
  0x8c, 0x90, 0xc1, 0xbd, 0x55, 0x41, 0xac, 0x3d, 0x29, 0x03, 0x6f, 0xbf,
  0x7c, 0x4e, 0x30, 0x3d, 0xaa, 0x76, 0x57, 0xbe, 0x4d, 0x2a, 0xb0, 0xbe,
  0xcf, 0x05, 0xe1, 0xbc, 0x1e, 0x98, 0xb1, 0xbd, 0x72, 0xaa, 0xdb, 0x3d,
  0x6a, 0x21, 0xe8, 0x3d, 0xd7, 0x39, 0x81, 0xbd, 0x00, 0x8a, 0x00, 0x3f,
  0xc4, 0xd0, 0xb0, 0x3d, 0x63, 0xa1, 0x5c, 0x3c, 0x39, 0x21, 0xc4, 0x3d,
  0xe3, 0xfe, 0xc6, 0xbc, 0x8a, 0x55, 0xaf, 0xbe, 0x49, 0x52, 0x17, 0x3e,
  0x3f, 0x36, 0x86, 0xbf, 0xf4, 0x4a, 0x1e, 0x3e, 0xd6, 0xe5, 0xca, 0xbe,
  0xf1, 0x6e, 0x40, 0x3e, 0xcc, 0xa9, 0x82, 0x3c, 0xaf, 0x0f, 0x0c, 0x3c,
  0xb1, 0x02, 0x8b, 0xbe, 0xb4, 0x55, 0xbd, 0x3d, 0xb3, 0x21, 0x9d, 0xbd,
  0xc0, 0xde, 0xa1, 0x3e, 0x76, 0xe2, 0xf0, 0x3d, 0x07, 0x60, 0xcd, 0x3d,
  0x6c, 0xbb, 0x9f, 0x3c, 0x29, 0xb7, 0x15, 0xbc, 0x80, 0xcb, 0xd2, 0xbe,
  0x4b, 0xf1, 0xd4, 0xbd, 0x03, 0x4e, 0x38, 0xbf, 0xfe, 0x9c, 0x18, 0xbe,
  0xd3, 0xbd, 0x7c, 0xbe, 0x63, 0xf9, 0x81, 0xbd, 0x5b, 0x41, 0xd2, 0xbd,
  0x07, 0x72, 0x8a, 0xbc, 0x85, 0x6b, 0xed, 0xbe, 0xf3, 0x0f, 0x38, 0x3e,
  0xe7, 0x48, 0x93, 0xbd, 0xcc, 0xd1, 0xf0, 0x3e, 0xfc, 0x38, 0xb2, 0x3d,
  0x74, 0xae, 0xcf, 0x3d, 0x70, 0x1e, 0x3f, 0x3c, 0xee, 0xcc, 0x61, 0xbd,
  0x2e, 0xd0, 0xa3, 0xbe, 0xb1, 0xf2, 0x9b, 0xbd, 0xc0, 0x78, 0x64, 0xbf,
  0xd9, 0xaa, 0xb0, 0x3d, 0x34, 0x12, 0x0a, 0xbe, 0x85, 0xf1, 0x18, 0x3e,
  0x5a, 0xd1, 0x94, 0x3c, 0x97, 0xfb, 0x42, 0x3c, 0xab, 0x1d, 0xf4, 0xbe,
  0x2b, 0xf2, 0xa8, 0x3e, 0xfb, 0x1d, 0x05, 0xbd, 0xb2, 0x42, 0x1f, 0x3f,
  0x90, 0xa5, 0xb2, 0x3d, 0x92, 0x42, 0x14, 0x3e, 0x9b, 0x3f, 0x98, 0x3d,
  0x8c, 0xab, 0x4a, 0xbb, 0x57, 0xda, 0xdb, 0xbe, 0x1a, 0x9e, 0xfe, 0x3c,
  0x44, 0xc1, 0xb3, 0xbe, 0x19, 0x09, 0x1b, 0x3e, 0xd4, 0xca, 0xca, 0x3e,
  0x0c, 0xf2, 0xcc, 0x3d, 0xc0, 0x7b, 0x6a, 0x3d, 0xda, 0x26, 0x39, 0x3a,
  0x6d, 0xa1, 0x93, 0xbe, 0x8d, 0xe4, 0xd3, 0x3e, 0x55, 0xf1, 0x85, 0x3b,
  0x53, 0x68, 0x1d, 0x3f, 0x33, 0x88, 0xe3, 0x3d, 0xc7, 0x03, 0xbc, 0xbc,
  0x83, 0x2f, 0x03, 0x3d, 0x3a, 0x94, 0x48, 0xbd, 0xe5, 0x26, 0x00, 0xbe,
  0x3b, 0xc2, 0x2c, 0x3e, 0x2a, 0xce, 0x36, 0xbe, 0x5e, 0x94, 0xbf, 0xbe,
  0xf0, 0x6f, 0x8a, 0xbd, 0xbf, 0xca, 0x67, 0xbd, 0xd1, 0x41, 0x86, 0x3d,
  0x1b, 0xe4, 0xff, 0x3d, 0x5d, 0xa8, 0x15, 0x3d, 0x22, 0x74, 0x49, 0xbe,
  0xdd, 0xfc, 0x36, 0x3d, 0x68, 0xe0, 0x02, 0x3e, 0xcb, 0xb6, 0x1c, 0x3e,
  0xf0, 0x7d, 0x68, 0x3a, 0xe3, 0x4e, 0xd8, 0xbe, 0x05, 0x58, 0xae, 0xbc,
  0x70, 0xf9, 0xc0, 0x3d, 0x05, 0xc1, 0x83, 0xbe, 0x51, 0x01, 0x0e, 0x3f,
  0x87, 0x81, 0xad, 0xbd, 0x3b, 0x06, 0xe7, 0xbd, 0xc5, 0x66, 0xfa, 0xbd,
  0x26, 0x31, 0x81, 0x3c, 0xad, 0x07, 0x86, 0x3d, 0x28, 0xfb, 0x21, 0x3c,
  0x02, 0xad, 0x67, 0xbe, 0x2f, 0x5b, 0x71, 0x3d, 0x1f, 0x90, 0x71, 0x3e,
  0x1c, 0xcf, 0x4a, 0x3e, 0x83, 0x55, 0xe6, 0xbd, 0xcc, 0xaa, 0x60, 0xbe,
  0xba, 0x35, 0x1d, 0x3d, 0xd3, 0xba, 0xb5, 0x3e, 0xf0, 0x0d, 0x08, 0xbf,
  0xbc, 0x67, 0xc9, 0x3e, 0xcd, 0x85, 0xda, 0xbd, 0xe2, 0x96, 0x84, 0xbd,
  0xe3, 0x10, 0x88, 0xbe, 0xda, 0x49, 0x86, 0xbc, 0x56, 0x32, 0xa7, 0x3c,
  0xf9, 0xa3, 0xa2, 0x3e, 0xc7, 0x80, 0xb7, 0xbd, 0x2d, 0xdb, 0xb0, 0x3d,
  0x64, 0x2c, 0x81, 0x3e, 0x01, 0x78, 0xc0, 0x3d, 0x93, 0xd9, 0x4b, 0xbd,
  0x5c, 0x10, 0x26, 0xbe, 0x18, 0x70, 0x9e, 0x3d, 0x71, 0xaa, 0x74, 0x3e,
  0x5c, 0x8a, 0xbf, 0xbe, 0xb1, 0x77, 0xa4, 0x3e, 0xbb, 0x80, 0xb2, 0xbe,
  0x7f, 0x1f, 0x4c, 0xbc, 0xbd, 0x4b, 0xa2, 0xbe, 0x25, 0x77, 0xa3, 0x3c,
  0x37, 0x11, 0x1a, 0x3d, 0xce, 0x29, 0x84, 0x3d, 0x3e, 0x2d, 0x19, 0xbd,
  0xe8, 0x16, 0xcd, 0x3d, 0x79, 0x44, 0xa6, 0x3e, 0xd6, 0x01, 0x16, 0x3e,
  0x03, 0x59, 0xfc, 0x3c, 0x85, 0x9f, 0xb6, 0xbe, 0xe3, 0x0c, 0x89, 0x3d,
  0x85, 0x29, 0x24, 0x3d, 0xa1, 0x1c, 0x09, 0xbf, 0x4f, 0x7c, 0xb7, 0x3e,
  0x4c, 0x0e, 0x63, 0xbe, 0x39, 0x2b, 0x3a, 0x3e, 0x13, 0x6d, 0xca, 0xbe,
  0x9b, 0x14, 0x0d, 0xbe, 0x6e, 0xa4, 0x05, 0x3c, 0x2d, 0xb8, 0x21, 0x3d,
  0xc5, 0xc2, 0x80, 0xbe, 0x66, 0x48, 0x91, 0x3d, 0xd9, 0x11, 0x19, 0x3e,
  0x84, 0x0d, 0xfb, 0x3d, 0xfe, 0x94, 0x17, 0x3d, 0xa0, 0xfa, 0xb4, 0xbe,
  0xf1, 0xde, 0xe5, 0x3b, 0x65, 0x41, 0xe3, 0x3d, 0xef, 0xf8, 0xca, 0xbe,
  0x41, 0x80, 0x82, 0xbc, 0x7b, 0x42, 0x26, 0xbe, 0xb5, 0x01, 0x99, 0x3d,
  0x96, 0xf7, 0x3a, 0xbe, 0x6a, 0x9f, 0x9f, 0x3d, 0xe9, 0xb3, 0x8b, 0x3c,
  0x56, 0x4b, 0xf7, 0x3e, 0x69, 0x1b, 0xcd, 0xbd, 0x09, 0x21, 0xdb, 0x3d,
  0x11, 0x2e, 0xcd, 0x3d, 0x9f, 0x93, 0x1d, 0x3e, 0x8b, 0x54, 0x11, 0xbc,
  0xad, 0x3e, 0x70, 0xbe, 0xb2, 0x3e, 0xa8, 0xbd, 0x1f, 0xd0, 0x06, 0x3f,
  0xca, 0xcd, 0xb0, 0xbe, 0x03, 0x8b, 0x1d, 0x3e, 0x75, 0x3e, 0xc7, 0xbc,
  0xa9, 0x81, 0x05, 0x3e, 0x40, 0xcb, 0x32, 0x3d, 0xf2, 0xcb, 0xa8, 0x3d,
  0x25, 0xb7, 0x87, 0x3d, 0xb7, 0x55, 0xa8, 0x3e, 0xfd, 0x78, 0x64, 0x3a,
  0x9c, 0x05, 0x69, 0xbc, 0x3e, 0xe0, 0x06, 0xbe, 0x94, 0xa1, 0xc8, 0x3d,
  0x5f, 0xe8, 0x87, 0x3d, 0xaf, 0x2c, 0xd1, 0xbd, 0x72, 0xf1, 0x32, 0x3a,
  0x48, 0x40, 0x40, 0x3b, 0x36, 0x37, 0x6d, 0xbe, 0x1f, 0xf1, 0x00, 0x3e,
  0x80, 0x86, 0x43, 0x3d, 0x93, 0xa7, 0x41, 0xbe, 0x98, 0x02, 0x19, 0xbe,
  0x4f, 0xe5, 0x08, 0xbe, 0x49, 0x10, 0x18, 0x3c, 0xc7, 0x81, 0x0e, 0x3f,
  0x60, 0x0e, 0x88, 0xbe, 0x1a, 0x40, 0x13, 0xbe, 0x12, 0x67, 0x97, 0xbc,
  0x7b, 0x6d, 0xb3, 0x3e, 0xce, 0xc9, 0xa7, 0x3b, 0x08, 0xa5, 0xe9, 0xbd,
  0x80, 0x09, 0xfb, 0xbd, 0x8e, 0xfc, 0x49, 0x3e, 0x22, 0x34, 0x1b, 0xbe,
  0xc4, 0x12, 0x22, 0x3e, 0x02, 0xbe, 0xda, 0xbd, 0x8a, 0x9c, 0xa6, 0xbe,
  0xdc, 0x09, 0x96, 0xbe, 0x8c, 0x8e, 0xef, 0x3d, 0x5c, 0xa9, 0xd3, 0xbd,
  0xf2, 0xe3, 0xa3, 0x3e, 0xa6, 0x01, 0x6b, 0xbe, 0x68, 0xda, 0xad, 0xbd,
  0x79, 0xa3, 0x04, 0x3e, 0xee, 0x93, 0x25, 0x3e, 0x3c, 0x1f, 0x47, 0x3e,
  0x08, 0xd1, 0x4c, 0xbc, 0xa6, 0x72, 0x6a, 0xbc, 0x8d, 0x5b, 0x22, 0x3e,
  0x0e, 0xb1, 0x0a, 0xbe, 0xa6, 0xc3, 0x15, 0x3f, 0x36, 0x0a, 0xa1, 0x3d,
  0x7c, 0x95, 0xf9, 0x3d, 0xdf, 0xb0, 0x53, 0xbe, 0x71, 0x48, 0x37, 0x3c,
  0x80, 0xa6, 0x6b, 0x3d, 0x7d, 0xfb, 0x66, 0x3e, 0x6e, 0xc8, 0x03, 0xbe,
  0x6a, 0xda, 0xb7, 0xbd, 0x8c, 0xa8, 0x07, 0x3e, 0xe9, 0x99, 0x0e, 0xbe,
  0x7b, 0x0c, 0xa6, 0xbd, 0x2d, 0x41, 0x30, 0xbd, 0xbb, 0x1c, 0x0c, 0x3d,
  0x96, 0xb6, 0x11, 0x3f, 0xce, 0x9a, 0x52, 0x3c, 0xd1, 0x6e, 0x03, 0x3f,
  0xb5, 0xd6, 0xb1, 0x3d, 0xf5, 0x74, 0xba, 0x3d, 0x6b, 0x34, 0x3a, 0xbd,
  0x1d, 0x84, 0x7c, 0xbe, 0x66, 0x78, 0xc7, 0xbb, 0x60, 0x17, 0x76, 0xbd,
  0x4e, 0x14, 0xa5, 0xbc, 0x6c, 0xbe, 0x8e, 0x3b, 0xe7, 0x08, 0xd0, 0x3d,
  0xd8, 0x8f, 0x15, 0x3b, 0xc8, 0x12, 0x88, 0xbe, 0x71, 0xf0, 0x60, 0xbd,
  0x30, 0x90, 0x74, 0x3c, 0xb9, 0x51, 0x86, 0x3e, 0x9a, 0xc4, 0x72, 0x3d,
  0x39, 0xd1, 0xf1, 0x3e, 0xae, 0x29, 0x10, 0x3d, 0x7a, 0x47, 0xcd, 0xbc,
  0xd3, 0xff, 0xbc, 0xbe, 0xc2, 0x07, 0x62, 0xbe, 0xd4, 0xb2, 0x65, 0xbb,
  0xc0, 0x98, 0x93, 0x3d, 0xd4, 0x1d, 0x92, 0x3d, 0x7a, 0x24, 0x00, 0xbe,
  0x9c, 0x14, 0x67, 0x3d, 0xbd, 0x67, 0xf1, 0x3d, 0x01, 0x23, 0xb5, 0xbd,
  0x37, 0x70, 0x1f, 0xbc, 0x62, 0x8a, 0x0c, 0x3e, 0xad, 0x0a, 0x7d, 0x3c,
  0x76, 0x80, 0x12, 0xbe, 0x40, 0xfb, 0x4b, 0x3e, 0x78, 0xdb, 0x53, 0xbd,
  0x7a, 0xd1, 0xc3, 0x3d, 0x79, 0x2c, 0x2f, 0xbd, 0x14, 0x04, 0xed, 0x3c,
  0xaf, 0x7a, 0x2b, 0x3d, 0x73, 0xc3, 0x03, 0x3e, 0x2d, 0xf4, 0x85, 0xbc,
  0x16, 0x48, 0xdd, 0xbd, 0x05, 0x90, 0xcf, 0xbc, 0x9b, 0x9b, 0x92, 0xbd,
  0xa2, 0x85, 0xf1, 0xbd, 0xbb, 0x2e, 0x94, 0xbc, 0x7e, 0x99, 0x1d, 0xbc,
  0x05, 0x92, 0x90, 0x3e, 0x96, 0x90, 0x55, 0xbd, 0x6b, 0x00, 0xbe, 0x3e,
  0x11, 0xed, 0x01, 0x3e, 0x76, 0x45, 0xa6, 0xbe, 0xa0, 0x8c, 0xc4, 0xbc,
  0x6d, 0x04, 0x12, 0xbe, 0xfd, 0xba, 0x65, 0x3c, 0x68, 0xf1, 0xc0, 0x3d,
  0x69, 0xc8, 0x92, 0xbc, 0xca, 0xa7, 0x2d, 0x3e, 0xd8, 0x3a, 0x67, 0xbe,
  0x82, 0x58, 0x12, 0xbe, 0x89, 0x32, 0xa4, 0xbd, 0xbb, 0xbf, 0x83, 0xbd,
  0x1a, 0x44, 0x9c, 0x3d, 0x49, 0xd1, 0x49, 0x3d, 0x94, 0x83, 0xdd, 0xb9,
  0x93, 0x2d, 0x0e, 0x3e, 0x26, 0x60, 0x52, 0xbe, 0xb3, 0x2e, 0x07, 0xbf,
  0x44, 0x01, 0x6a, 0xbe, 0x0c, 0x9a, 0x36, 0x3d, 0xd7, 0x56, 0x22, 0xbd,
  0x9e, 0x59, 0x0e, 0x3f, 0x14, 0xfe, 0xf0, 0xbe, 0xed, 0xf9, 0xb4, 0x3a,
  0x05, 0x67, 0x08, 0x3e, 0x3c, 0xe8, 0xca, 0x3e, 0x8b, 0xcb, 0x46, 0x3e,
  0x4b, 0x5d, 0x8c, 0xbe, 0xc5, 0xfd, 0x2a, 0xbd, 0x2a, 0x70, 0xd4, 0x3d,
  0xcb, 0x3e, 0x50, 0xbe, 0x0b, 0xfa, 0x85, 0x3f, 0x38, 0x39, 0xda, 0xbd,
  0x09, 0x01, 0x20, 0xbf, 0x32, 0x8f, 0x39, 0xbf, 0x90, 0xa1, 0x1e, 0x3c,
  0x4b, 0xdb, 0xb4, 0x3d, 0xf8, 0x6e, 0xbd, 0x3e, 0xe9, 0x4f, 0xea, 0xbe,
  0x1d, 0x66, 0x04, 0x3e, 0xca, 0xc7, 0xbe, 0x3d, 0x15, 0xfe, 0x68, 0x3d,
  0x05, 0xa5, 0xf7, 0x3d, 0xba, 0x12, 0xe0, 0xbd, 0x88, 0xfe, 0x99, 0xbd,
  0x9d, 0x5c, 0x49, 0x3f, 0x0b, 0x61, 0x4c, 0xbe, 0x4e, 0xd9, 0x0d, 0x3f,
  0x4d, 0x05, 0xb8, 0xbd, 0x17, 0xae, 0xdd, 0xbc, 0x2a, 0xc2, 0x11, 0xbf,
  0x6e, 0xd7, 0x35, 0xbd, 0xbf, 0x40, 0x14, 0x3c, 0x43, 0xd1, 0x90, 0x3e,
  0x03, 0x3b, 0x8f, 0xbe, 0x7b, 0xef, 0x61, 0x3d, 0xa2, 0x9e, 0xb3, 0x3d,
  0xdf, 0xb1, 0xd5, 0x3c, 0x8f, 0x22, 0xa7, 0xbd, 0xa8, 0x33, 0xc4, 0xba,
  0x9f, 0xdc, 0x78, 0x3d, 0xe3, 0x3f, 0x2a, 0x3f, 0x9c, 0x65, 0x15, 0xbe,
  0x97, 0x1b, 0x18, 0x3f, 0xfe, 0x36, 0x3b, 0xbe, 0x88, 0x12, 0x89, 0xbe,
  0xbf, 0xcd, 0xf5, 0xbe, 0x20, 0x3a, 0x39, 0x3c, 0x1c, 0x70, 0x8c, 0x3d,
  0x1b, 0x18, 0x6f, 0x3e, 0x1d, 0x0e, 0xed, 0xbd, 0x3a, 0x07, 0x97, 0x3d,
  0x2e, 0x44, 0xd3, 0x3d, 0x65, 0x7d, 0x60, 0x3d, 0x23, 0xec, 0x94, 0xbc,
  0x3d, 0xed, 0x8a, 0xbd, 0xd8, 0xd1, 0x6b, 0xbd, 0x48, 0xf6, 0xb5, 0x3e,
  0x0d, 0xd7, 0x54, 0xbb, 0xc8, 0x36, 0x32, 0x3f, 0xb5, 0x5b, 0x6d, 0x3c,
  0x14, 0x4b, 0x59, 0xbe, 0x1f, 0x1e, 0x09, 0xbf, 0x7d, 0xd9, 0x1f, 0xbd,
  0xd8, 0x94, 0xad, 0xbd, 0x79, 0x83, 0xe4, 0x3d, 0x93, 0x46, 0xde, 0xbc,
  0xc0, 0x2f, 0x09, 0x3e, 0xeb, 0x05, 0x64, 0x3e, 0x07, 0xb9, 0x7e, 0x3d,
  0xcc, 0xee, 0x24, 0x3e, 0x6b, 0x0c, 0xec, 0xbd, 0x8c, 0xe2, 0x14, 0x3e,
  0x3a, 0x45, 0xb5, 0x3e, 0x4e, 0x2f, 0xac, 0x3c, 0x5b, 0x19, 0xbe, 0x3e,
  0x3e, 0x67, 0x89, 0xbe, 0x18, 0xea, 0x81, 0xbe, 0x44, 0xad, 0xc5, 0x3d,
  0x63, 0x5a, 0xc3, 0xbd, 0xc6, 0x57, 0xc2, 0xbb, 0x75, 0x8c, 0x90, 0x3e,
  0x85, 0xc1, 0x28, 0xbf, 0xde, 0x06, 0x40, 0x3d, 0xac, 0x53, 0xa4, 0x3c,
  0x9f, 0x10, 0x25, 0x3c, 0x52, 0xea, 0xdd, 0xbd, 0xe5, 0x3b, 0xbc, 0xbd,
  0x5e, 0x98, 0xda, 0xbd, 0xdb, 0x08, 0xa1, 0x3e, 0x8a, 0xfd, 0x21, 0xbe,
  0x0c, 0x50, 0x92, 0x3e, 0x20, 0x0b, 0x3e, 0xbd, 0xc1, 0x08, 0x6f, 0xbf,
  0x87, 0x3a, 0x0a, 0xbe, 0x11, 0xa9, 0xc8, 0xbd, 0x80, 0xd0, 0x2f, 0xbc,
  0x1f, 0xd9, 0x96, 0x3e, 0x73, 0xc3, 0x87, 0xbe, 0x9f, 0x53, 0xa4, 0xbd,
  0xe0, 0xdf, 0xa5, 0xbd, 0x25, 0x2c, 0x3f, 0xbe, 0x89, 0x67, 0xeb, 0x3d,
  0xef, 0xe6, 0xee, 0xbd, 0x79, 0x73, 0x82, 0x3e, 0xae, 0x3f, 0x31, 0x3e,
  0xb9, 0x88, 0x5f, 0xbe, 0x74, 0xc8, 0x92, 0x3e, 0xc5, 0x06, 0xa5, 0xbe,
  0x1e, 0x29, 0x34, 0xbe, 0x19, 0xb7, 0x52, 0xbd, 0x58, 0x38, 0x26, 0x3e,
  0xa2, 0x30, 0x9a, 0x3e, 0x04, 0x7e, 0x2f, 0x3d, 0x97, 0x33, 0x82, 0xbe,
  0x4d, 0x2c, 0xf8, 0xbd, 0x9e, 0xd1, 0x3c, 0x3c, 0xbb, 0xb7, 0x6d, 0x3e,
  0x05, 0x0f, 0x91, 0x3e, 0x70, 0x7e, 0x9b, 0xbe, 0xe5, 0x9e, 0x96, 0xbe,
  0x13, 0x18, 0xc2, 0xbd, 0x82, 0xac, 0xb8, 0xbd, 0xc0, 0xca, 0x1e, 0x3f,
  0xf9, 0x99, 0xa6, 0xbe, 0x25, 0xa2, 0x3c, 0xbe, 0x26, 0xab, 0xb8, 0x3d,
  0x1b, 0x25, 0xf0, 0x3d, 0xc4, 0xf5, 0x96, 0xbb, 0x5a, 0x5a, 0x10, 0xbe,
  0x3a, 0x30, 0xb8, 0xbd, 0xa9, 0xbe, 0x2b, 0xbd, 0xb8, 0xec, 0x23, 0x3c,
  0xd9, 0xb9, 0x98, 0x3e, 0x91, 0xe1, 0xff, 0x3d, 0xc6, 0xbf, 0x3b, 0xbe,
  0xf6, 0x96, 0xbb, 0xbe, 0xbe, 0x1a, 0x7e, 0x3e, 0x67, 0x63, 0xf6, 0x3c,
  0xa8, 0xd6, 0x87, 0x3e, 0x9a, 0x26, 0x11, 0xbe, 0xa9, 0xe5, 0x94, 0x3e,
  0xba, 0xd9, 0x09, 0x3d, 0xca, 0xb1, 0x8e, 0x3d, 0xb4, 0x5f, 0xff, 0xbc,
  0xeb, 0xa8, 0xa1, 0x3e, 0x51, 0x30, 0xf6, 0x3d, 0x6e, 0x87, 0xf6, 0xbc,
  0x3f, 0xf1, 0x63, 0x3d, 0xe3, 0x9d, 0x2b, 0x3d, 0xf2, 0x84, 0xbc, 0xbd,
  0xd1, 0xe2, 0x22, 0xbe, 0xa7, 0x7f, 0xe9, 0xbe, 0x33, 0xd9, 0xc1, 0x3c,
  0xe0, 0x6c, 0x23, 0xbc, 0x7f, 0x7a, 0xad, 0x3e, 0xf8, 0x91, 0x5f, 0xbd,
  0x4e, 0x26, 0x77, 0x3e, 0xf8, 0xa1, 0x03, 0xbd, 0x53, 0xd6, 0x5d, 0xbd,
  0x1e, 0x23, 0x01, 0xbe, 0x85, 0xfe, 0x9d, 0x3d, 0x5e, 0xd1, 0x13, 0x3d,
  0xb5, 0xa1, 0x90, 0xbe, 0x11, 0xed, 0x17, 0x3e, 0x6d, 0x3f, 0x68, 0x3e,
  0xb9, 0x54, 0x0e, 0xbc, 0x8c, 0x95, 0x50, 0xbe, 0xa0, 0x8c, 0xe0, 0xbe,
  0x9a, 0x3c, 0xb3, 0x3d, 0x65, 0x23, 0x58, 0xbd, 0x84, 0xf6, 0xf8, 0x3e,
  0x64, 0xfc, 0x49, 0xbe, 0x5b, 0x7d, 0x7a, 0x3e, 0xd2, 0xe0, 0x8e, 0xbe,
  0x1a, 0xbd, 0x2c, 0xbb, 0xd6, 0xb6, 0xa0, 0x3c, 0x69, 0xf3, 0xa7, 0x3e,
  0x80, 0x94, 0x9b, 0xbc, 0xa5, 0x83, 0x0d, 0xbd, 0x0c, 0x04, 0x1f, 0x3c,
  0xe5, 0xd8, 0x2c, 0xbe, 0x82, 0xb4, 0xd8, 0x3d, 0x2a, 0x0d, 0xa9, 0xbd,
  0xe5, 0x93, 0x62, 0xbe, 0x16, 0xa6, 0xd2, 0xbc, 0x93, 0xca, 0x1c, 0x3d,
  0x4d, 0xd3, 0x24, 0x3e, 0x99, 0x51, 0xa3, 0xbd, 0x15, 0xc5, 0x10, 0x3e,
  0xee, 0x04, 0x92, 0xbd, 0x93, 0x52, 0x36, 0xbd, 0x02, 0x13, 0x61, 0x3d,
  0xf1, 0x9d, 0xa4, 0x3e, 0xbc, 0x1f, 0x80, 0xbc, 0x4a, 0x29, 0x94, 0x3d,
  0x47, 0xbc, 0xb1, 0x3d, 0x36, 0xe4, 0x45, 0x3b, 0xef, 0x65, 0x22, 0x3e,
  0x66, 0x87, 0xdd, 0xbd, 0xda, 0x2a, 0xe0, 0xbe, 0xc4, 0xa0, 0x92, 0x3e,
  0xe1, 0xed, 0xef, 0xbd, 0x85, 0xf0, 0xaa, 0x3e, 0xc7, 0x49, 0xd5, 0xbb,
  0x62, 0xec, 0x68, 0xbe, 0xdb, 0xbd, 0xad, 0xbe, 0xff, 0x12, 0x42, 0xbe,
  0x3a, 0x04, 0x4b, 0x3b, 0x44, 0x6f, 0x9b, 0x3e, 0x60, 0xb5, 0x58, 0xbe,
  0xea, 0x7d, 0x4f, 0x3e, 0x41, 0xe6, 0x63, 0xbe, 0x38, 0x32, 0x61, 0xbd,
  0xc1, 0xee, 0x30, 0x3e, 0x0b, 0x09, 0x57, 0x3d, 0xc4, 0x74, 0x4d, 0xbd,
  0x6d, 0x58, 0x20, 0x3e, 0x4f, 0xa0, 0x04, 0xbe, 0xf1, 0x0f, 0x5c, 0xbd,
  0x76, 0x34, 0xd0, 0x3d, 0xa5, 0x1e, 0xc6, 0x3c, 0x43, 0xef, 0x18, 0x3d,
  0xf8, 0x69, 0x64, 0xbe, 0x17, 0x8c, 0x77, 0xbe, 0x52, 0x18, 0x77, 0xbd,
  0xdf, 0x95, 0xc3, 0xbd, 0x8d, 0x3c, 0x6d, 0xbe, 0xd8, 0xaf, 0x93, 0xbe,
  0x3c, 0xd0, 0xb4, 0xbd, 0xb3, 0x77, 0x42, 0x3e, 0x72, 0xbd, 0x70, 0x3e,
  0x70, 0x6d, 0x51, 0x3e, 0x50, 0xa6, 0x97, 0xbd, 0xcf, 0xac, 0x0b, 0x3e,
  0x1a, 0x0d, 0x03, 0xbe, 0xbc, 0xc0, 0x5d, 0x3e, 0x95, 0xd9, 0x55, 0x3e,
  0x99, 0x21, 0x22, 0x3e, 0x8f, 0x22, 0x80, 0xbe, 0x74, 0xe7, 0x9a, 0xbd,
  0x8c, 0x81, 0x50, 0xbd, 0xb5, 0x98, 0xdf, 0x3d, 0xb5, 0x39, 0x06, 0xbe,
  0x5e, 0xc7, 0xa5, 0xbe, 0x45, 0x15, 0x02, 0xbf, 0x3d, 0xb4, 0x31, 0xbe,
  0x75, 0xe6, 0x8a, 0x3c, 0x5c, 0xd1, 0x8f, 0x3d, 0x5a, 0xb2, 0xa8, 0xbd,
  0x7a, 0x81, 0x81, 0x3d, 0x59, 0xdd, 0xbc, 0xbd, 0xee, 0x49, 0x03, 0x3e,
  0x92, 0xc6, 0x9a, 0x3e, 0x40, 0x69, 0x9f, 0x3e, 0x55, 0x34, 0xf6, 0xbe,
  0x43, 0x4d, 0x24, 0xbc, 0x3f, 0x5f, 0x11, 0xbe, 0x70, 0x0f, 0x01, 0x3e,
  0x11, 0x5c, 0x78, 0xbd, 0x40, 0xef, 0x03, 0xbf, 0xee, 0x45, 0xfe, 0xbd,
  0xf2, 0x4f, 0xd6, 0xbe, 0x8f, 0x06, 0xff, 0x3c, 0x32, 0x32, 0x07, 0x3e,
  0x0c, 0x48, 0x54, 0xbe, 0x86, 0xdc, 0xe0, 0x3d, 0xca, 0x14, 0x07, 0xbe,
  0xcf, 0xc2, 0x96, 0x3e, 0x96, 0xb8, 0x9d, 0x3e, 0xbd, 0x8d, 0xaa, 0x3e,
  0x36, 0xf8, 0xe7, 0xbe, 0x6e, 0x5d, 0xb5, 0xbe, 0xc5, 0xd0, 0x00, 0xbe,
  0x2d, 0xc9, 0x72, 0x3e, 0x56, 0xe4, 0x4f, 0xbc, 0x95, 0xe7, 0x14, 0xbf,
  0x24, 0x7c, 0xab, 0xbe, 0x2f, 0x1b, 0x06, 0xbe, 0xfd, 0x78, 0xa5, 0x3d,
  0xa0, 0xd0, 0xef, 0x3d, 0x22, 0xa9, 0x0a, 0xbd, 0xcb, 0x27, 0x60, 0x3d,
  0x66, 0xce, 0x9a, 0xbd, 0x62, 0x0d, 0x03, 0x3e, 0xb4, 0xcf, 0xa6, 0x3e,
  0x60, 0x42, 0xe2, 0x3e, 0x44, 0x66, 0x64, 0x3c, 0x0d, 0xee, 0x69, 0xbe,
  0xe0, 0xe3, 0xd0, 0xbb, 0xe3, 0x7e, 0x73, 0x3e, 0x1c, 0xf2, 0xa6, 0xbc,
  0xc6, 0x75, 0xeb, 0xbe, 0x3a, 0xf0, 0x38, 0xbe, 0x7f, 0x85, 0xa2, 0xbe,
  0xdb, 0xbb, 0x5a, 0x3e, 0xef, 0x71, 0x39, 0x3b, 0x16, 0xa5, 0x8d, 0x3d,
  0xa6, 0xf5, 0x86, 0x3d, 0x40, 0x98, 0x35, 0x3e, 0xb8, 0x46, 0x4b, 0xbf,
  0xc9, 0xdb, 0xa8, 0x3e, 0xd1, 0xee, 0xcc, 0x3e, 0x04, 0xc1, 0x97, 0x3d,
  0x8d, 0xd5, 0xa9, 0xbd, 0xda, 0x8e, 0xfa, 0x3c, 0xb2, 0xf6, 0x4e, 0xbf,
  0xc5, 0x23, 0x4e, 0x3d, 0x4c, 0x26, 0xa5, 0xbe, 0xab, 0xe3, 0x59, 0xbe,
  0x47, 0x25, 0x80, 0xbe, 0x68, 0x5f, 0x45, 0xbe, 0x42, 0xee, 0x9b, 0xbe,
  0x05, 0x15, 0x45, 0xbe, 0x4e, 0x30, 0x15, 0xbf, 0x17, 0xb0, 0x92, 0x3e,
  0xdc, 0x25, 0x11, 0xbf, 0x44, 0x34, 0x99, 0xbe, 0xf2, 0x9e, 0x02, 0xbf,
  0x91, 0x88, 0x9b, 0xbe, 0x51, 0x4b, 0x76, 0xbe, 0x50, 0x22, 0x60, 0xbe,
  0x9e, 0x18, 0x58, 0xbe, 0x62, 0x7b, 0xe3, 0xbc, 0x66, 0x52, 0xf8, 0xbe,
  0x96, 0xfb, 0xf9, 0xbe, 0xa5, 0xaf, 0x06, 0xbd, 0x08, 0x26, 0xfa, 0xbe,
  0xd3, 0x19, 0xad, 0xbd, 0x73, 0xc0, 0xa5, 0xbb, 0xa7, 0x55, 0x13, 0xbf,
  0x6a, 0x74, 0x29, 0x3e, 0x01, 0xad, 0x41, 0x3e, 0xfe, 0x4a, 0x67, 0xbe,
  0xd2, 0x00, 0x1f, 0x3e, 0x45, 0x27, 0x0d, 0xbe, 0xfb, 0xcb, 0x9f, 0xbd,
  0x89, 0x32, 0x02, 0xbe, 0x6c, 0x98, 0xe8, 0x3c, 0x8a, 0x32, 0x72, 0xbe,
  0x90, 0x45, 0xfc, 0xbd, 0x7c, 0xf6, 0x7b, 0x3e, 0x15, 0xb7, 0x50, 0x3e,
  0x06, 0x82, 0x36, 0x3d, 0x6b, 0x7c, 0x05, 0xbe, 0x37, 0xea, 0x5e, 0xbd,
  0xf0, 0x8e, 0xc3, 0x3d, 0xe0, 0x78, 0xf0, 0x3e, 0x98, 0xb3, 0xc5, 0x3c,
  0x27, 0x91, 0x35, 0xbe, 0xbe, 0x7a, 0x6f, 0x3e, 0x30, 0x7a, 0x81, 0xbe,
  0x43, 0x5a, 0x10, 0xbe, 0x56, 0xf1, 0x52, 0xbe, 0xf6, 0xb8, 0xed, 0x3d,
  0xac, 0xff, 0x47, 0xbe, 0x11, 0x0d, 0x0b, 0xbd, 0xc7, 0x30, 0x23, 0xbe,
  0x37, 0x04, 0x8c, 0xbe, 0xba, 0xdd, 0x25, 0x3c, 0x21, 0xb2, 0x73, 0xbb,
  0xad, 0x16, 0x54, 0x3c, 0xfb, 0x2e, 0x8c, 0xbc, 0xd8, 0xa0, 0xc0, 0x3e,
  0x5d, 0x84, 0x91, 0xbd, 0x5f, 0xfa, 0xe1, 0x3e, 0x82, 0xbc, 0x08, 0x3e,
  0xf7, 0x82, 0x54, 0xbe, 0xc4, 0x0e, 0xad, 0x3c, 0xd2, 0xbf, 0x60, 0xbe,
  0xbf, 0xe8, 0x42, 0xbd, 0xb5, 0x7a, 0x79, 0xbd, 0x7f, 0x2b, 0x8a, 0x3d,
  0x88, 0xfd, 0x2a, 0xbd, 0x14, 0xbe, 0xdc, 0xbe, 0x85, 0xe1, 0x0a, 0x3c,
  0xbb, 0x7d, 0x3b, 0xbd, 0x20, 0x81, 0x03, 0xbe, 0xeb, 0xf2, 0x76, 0x3c,
  0x9c, 0x17, 0x0a, 0x3f, 0x6d, 0x67, 0xf2, 0xbd, 0x6f, 0xb0, 0xf9, 0x3e,
  0xb1, 0xac, 0x6f, 0x3e, 0xf2, 0x0a, 0x91, 0xbe, 0x8c, 0xe1, 0x9d, 0xbe,
  0x5e, 0x6a, 0x4f, 0xbe, 0x75, 0x6e, 0x5e, 0x3c, 0x06, 0x69, 0xc9, 0xbd,
  0xce, 0xee, 0x62, 0x3e, 0xe8, 0xe0, 0x47, 0xbe, 0xde, 0x03, 0xad, 0xbe,
  0xa2, 0x85, 0xa8, 0xbd, 0xda, 0x34, 0x9e, 0xbc, 0xab, 0x20, 0x28, 0x3e,
  0x94, 0x75, 0x9e, 0xbd, 0x14, 0xc4, 0xe4, 0x3d, 0x3d, 0x30, 0xa3, 0xbc,
  0x8d, 0xce, 0xb8, 0x3e, 0x37, 0xdb, 0xb3, 0x3e, 0xdb, 0x8f, 0x26, 0xbe,
  0xe9, 0xa4, 0x42, 0xbe, 0x89, 0x9d, 0x98, 0x3d, 0x2d, 0x79, 0x48, 0xbc,
  0x13, 0xf1, 0x4a, 0xbd, 0x0c, 0x90, 0x07, 0x3e, 0x78, 0x78, 0xed, 0xbc,
  0xd2, 0x73, 0xca, 0xbc, 0x6c, 0x70, 0xf5, 0xbc, 0x50, 0x04, 0xa9, 0xbb,
  0x22, 0x34, 0x27, 0x3e, 0x9f, 0xd1, 0x2c, 0x3d, 0x3c, 0xf9, 0x8f, 0x3e,
  0x6d, 0x88, 0x9a, 0x3d, 0x28, 0x1b, 0xf6, 0x3e, 0x3b, 0x65, 0xf6, 0x3d,
  0x7b, 0x91, 0xa5, 0xbe, 0xdf, 0x4e, 0xb3, 0xbe, 0x84, 0xe0, 0x98, 0x3e,
  0x22, 0x2d, 0x7c, 0xbb, 0x70, 0x37, 0x12, 0x3c, 0xb8, 0x5a, 0x1b, 0x3c,
  0x2b, 0x62, 0x3f, 0xbe, 0x67, 0x1c, 0x9a, 0xbe, 0xf8, 0xf9, 0xc0, 0x3c,
  0xec, 0xc8, 0xa0, 0x3d, 0x25, 0xe4, 0xbf, 0x3d, 0xb8, 0x10, 0x3f, 0xbc,
  0xf6, 0xb5, 0x0b, 0xbe, 0x71, 0xa9, 0x8d, 0x3c, 0xad, 0x8b, 0x18, 0x3d,
  0xec, 0x7d, 0x13, 0x3d, 0x7f, 0xc2, 0x6e, 0xbe, 0x86, 0x61, 0x94, 0xbe,
  0xf6, 0xf5, 0x44, 0x3e, 0x5d, 0x79, 0xda, 0x3d, 0xc2, 0x0f, 0x11, 0x3d,
  0x53, 0xc0, 0x69, 0xbe, 0x29, 0xed, 0xcb, 0xbe, 0xfe, 0x09, 0x9f, 0xbe,
  0xa5, 0x5d, 0x2a, 0x3d, 0x13, 0x4a, 0x0b, 0x3e, 0xfa, 0x04, 0xa5, 0xbd,
  0x15, 0x23, 0x86, 0xbc, 0x78, 0xa4, 0xa0, 0x3e, 0x71, 0x0f, 0x09, 0xbf,
  0x16, 0x55, 0xde, 0x3e, 0x50, 0xee, 0x99, 0xbe, 0x99, 0xde, 0xd2, 0xbe,
  0x05, 0x32, 0xe7, 0xbe, 0x42, 0x4c, 0xcd, 0xbe, 0x5f, 0xb8, 0xda, 0x3e,
  0x8b, 0x7b, 0x12, 0x3f, 0x10, 0x38, 0x11, 0x3f, 0x8b, 0xeb, 0x64, 0xbf,
  0x25, 0x75, 0xd5, 0xbe, 0x48, 0xf5, 0x44, 0xbf, 0x36, 0x9e, 0x99, 0xbd,
  0xa2, 0x9b, 0x64, 0xbe, 0x4f, 0x14, 0x27, 0x3d, 0x85, 0x4e, 0x33, 0xbf,
  0x7e, 0x35, 0x1b, 0xbe, 0x7d, 0xfb, 0x81, 0x3e, 0x24, 0x60, 0x5d, 0xbd,
  0x32, 0x76, 0x65, 0xbc, 0x65, 0xe6, 0xb1, 0xbd, 0x74, 0xc7, 0x58, 0xbe,
  0x46, 0x9c, 0x35, 0x3e, 0x11, 0xd1, 0xe9, 0xbd, 0xa3, 0xcf, 0x21, 0x3f,
  0xc1, 0xf4, 0x9c, 0x3e, 0xe1, 0x6b, 0x69, 0x3e, 0x67, 0xaf, 0xae, 0x3d,
  0x61, 0xe1, 0x1d, 0xbf, 0x7e, 0xdc, 0x3e, 0xbe, 0x97, 0x12, 0x92, 0x3e,
  0x6a, 0xcf, 0xdf, 0xbe, 0x9a, 0x1e, 0x30, 0x3d, 0x42, 0x6c, 0x15, 0xbe,
  0x48, 0x89, 0x51, 0x3e, 0xbf, 0x85, 0x2f, 0x3c, 0xb4, 0x23, 0x28, 0xbd,
  0x80, 0x3e, 0xf3, 0xbb, 0x34, 0x5e, 0x88, 0x3e, 0xc1, 0xa5, 0x2e, 0xbe,
  0x03, 0xca, 0x3d, 0x3f, 0x64, 0x7e, 0x2b, 0x3e, 0xf8, 0x42, 0x78, 0xbc,
  0x27, 0x92, 0xb9, 0x3d, 0x6b, 0x63, 0xea, 0xbe, 0xed, 0xbb, 0xef, 0xbe,
  0xa2, 0x00, 0x99, 0x3d, 0x0d, 0xc1, 0x90, 0xbe, 0xb3, 0x9c, 0x61, 0x3d,
  0xb5, 0x7a, 0xc5, 0xbe, 0x77, 0xa9, 0x74, 0xbc, 0x0d, 0x6a, 0x96, 0x3c,
  0xc5, 0xb6, 0x02, 0xbd, 0x40, 0x59, 0x49, 0x3c, 0x5b, 0x92, 0x76, 0x3e,
  0xcc, 0x39, 0x3e, 0xbe, 0xf7, 0xee, 0x16, 0x3f, 0xb1, 0x4d, 0x99, 0x3a,
  0x3d, 0x9d, 0x34, 0x3d, 0x8e, 0xdd, 0xbf, 0xbc, 0x62, 0x67, 0x88, 0xbe,
  0x4d, 0xb0, 0xdc, 0xbe, 0x58, 0xae, 0x3d, 0x3d, 0x89, 0xc6, 0x1a, 0xbe,
  0xa5, 0xb3, 0x5e, 0x3d, 0xbf, 0xb4, 0xc1, 0xbc, 0x2a, 0xc4, 0xde, 0xbd,
  0xfa, 0x11, 0x65, 0x3d, 0xcd, 0x16, 0x90, 0x3c, 0x86, 0x72, 0x9c, 0x3e,
  0x1b, 0xed, 0x82, 0x3e, 0x26, 0x35, 0x30, 0xbe, 0x85, 0x36, 0x2c, 0x3f,
  0xb2, 0x41, 0x79, 0xbd, 0x92, 0xa4, 0x99, 0x3d, 0x77, 0xc4, 0xde, 0x3c,
  0xd7, 0xb8, 0xa1, 0xbe, 0xd1, 0xe0, 0xfc, 0xbe, 0x11, 0x67, 0x96, 0x3d,
  0x23, 0x63, 0x59, 0xbe, 0xd4, 0x1b, 0xb8, 0xbc, 0x28, 0x9d, 0x86, 0x3d,
  0x35, 0x45, 0xa1, 0xbd, 0xd1, 0xdc, 0xb5, 0x3c, 0xd9, 0xa4, 0x2f, 0x3d,
  0x7f, 0x69, 0x13, 0x3e, 0xb5, 0x1e, 0x64, 0x3e, 0xcb, 0x41, 0x2f, 0xbe,
  0xc4, 0xc6, 0x5a, 0x3f, 0x61, 0x3e, 0x2e, 0x3d, 0x31, 0x9a, 0x01, 0x3e,
  0xde, 0x18, 0xce, 0x3d, 0xfd, 0x30, 0x03, 0xbf, 0xf9, 0xc0, 0x4f, 0xbe,
  0x17, 0x9b, 0x1f, 0x3e, 0xb4, 0xfa, 0x00, 0x3e, 0x60, 0xd6, 0xae, 0xbc,
  0x7d, 0xa1, 0xd4, 0xbe, 0x6b, 0x68, 0x35, 0xbc, 0xd9, 0xa1, 0xcd, 0x3c,
  0x1d, 0x7f, 0x8b, 0x3b, 0xdb, 0xc9, 0x26, 0xbe, 0xdf, 0x85, 0x93, 0x3e,
  0x2b, 0x9a, 0x00, 0xbe, 0x91, 0x2e, 0x3e, 0x3f, 0xcc, 0x8c, 0x4c, 0x3d,
  0x06, 0xf6, 0xd0, 0x3d, 0xcd, 0x29, 0x91, 0x3d, 0x04, 0xc3, 0x2f, 0xbe,
  0xdc, 0xc5, 0x8d, 0xbc, 0x7a, 0xde, 0x67, 0x3c, 0xe8, 0x8f, 0xf6, 0xbd,
  0x9c, 0xff, 0x0f, 0x3e, 0x57, 0x2b, 0xe1, 0xbe, 0x03, 0xf5, 0xae, 0x3c,
  0x10, 0xf2, 0xfb, 0xbd, 0x19, 0x2a, 0x81, 0x3c, 0x40, 0xcc, 0xaa, 0x3b,
  0xb9, 0x8c, 0xcb, 0x3e, 0xe8, 0x2a, 0x97, 0xbe, 0x86, 0x7e, 0x04, 0xbe,
  0x44, 0x6a, 0x8a, 0x3e, 0xc4, 0x9d, 0x59, 0xbd, 0x85, 0xd9, 0x9e, 0xbd,
  0xf6, 0xf2, 0x39, 0xbe, 0xe3, 0xc6, 0x1e, 0xbf, 0x2f, 0x2f, 0xfa, 0x3c,
  0x8c, 0x27, 0x04, 0xbf, 0xc8, 0xe8, 0x95, 0x3d, 0xbe, 0x32, 0xc5, 0xbd,
  0xc5, 0xe6, 0xaa, 0x3e, 0x5a, 0xb6, 0xcb, 0xbe, 0x6b, 0xdd, 0x15, 0xbd,
  0x18, 0xd6, 0x93, 0xbc, 0x07, 0x52, 0xb1, 0x3e, 0x4a, 0x06, 0xc4, 0xbd,
  0x5e, 0x83, 0xd6, 0xbd, 0xa6, 0x98, 0x9e, 0xbe, 0x22, 0x83, 0xa3, 0xbe,
  0xb2, 0x7f, 0x34, 0x3e, 0x1f, 0x01, 0x8e, 0x3d, 0x2b, 0x68, 0xc8, 0xbe,
  0x7a, 0xb9, 0xc3, 0x3d, 0x9d, 0x67, 0x66, 0xbe, 0xc0, 0x4e, 0x40, 0xbe,
  0xf2, 0x99, 0x92, 0x3e, 0x30, 0xc5, 0x67, 0x3e, 0xf6, 0x4e, 0xf2, 0xbe,
  0x64, 0xe9, 0x2f, 0xbe, 0xb3, 0x97, 0xb7, 0xbe, 0x08, 0x8e, 0x8b, 0xbb,
  0xf4, 0xf9, 0x36, 0xbc, 0x55, 0x64, 0xc9, 0xbe, 0x78, 0x21, 0xdf, 0xbe,
  0x65, 0xb9, 0xda, 0xbe, 0x05, 0x7e, 0x12, 0xbe, 0xc0, 0x23, 0xe7, 0xbd,
  0xe1, 0x4c, 0x0d, 0xbe, 0x61, 0x6b, 0xf2, 0xbd, 0x8c, 0x5d, 0x77, 0xbe,
  0x04, 0xbf, 0xca, 0xbd, 0x47, 0x15, 0xab, 0x3e, 0xf5, 0xd5, 0xb5, 0x3e,
  0xfe, 0xd1, 0xaf, 0xbe, 0xed, 0xb6, 0xa7, 0xbd, 0x04, 0x84, 0x20, 0xbe,
  0xf6, 0xc0, 0x2d, 0x3e, 0x7f, 0x0f, 0x82, 0x3c, 0x9d, 0x32, 0x03, 0xbf,
  0x06, 0x23, 0x8a, 0xbe, 0x76, 0xf6, 0xe3, 0xbd, 0xf1, 0xbf, 0x0c, 0xbd,
  0xd6, 0x29, 0x1e, 0xbe, 0x44, 0x25, 0x7f, 0xbe, 0xc3, 0xe8, 0x72, 0xbd,
  0xa3, 0xa3, 0xbe, 0xbe, 0x4e, 0x74, 0x89, 0xbd, 0x91, 0xc9, 0xa0, 0xbd,
  0x10, 0x06, 0xc9, 0x3e, 0x40, 0x0a, 0x3a, 0xbe, 0xeb, 0x71, 0x8a, 0x3d,
  0x3f, 0xa7, 0x1e, 0xbe, 0xe4, 0x5e, 0x70, 0xbc, 0x80, 0xae, 0xa0, 0xbd,
  0x98, 0x58, 0x74, 0xbe, 0x40, 0x90, 0x6f, 0xbd, 0xbe, 0x75, 0x52, 0xbb,
  0xe4, 0xce, 0x24, 0xbd, 0x87, 0xd4, 0x9c, 0xbc, 0xbc, 0x90, 0x4f, 0xbe,
  0x19, 0x66, 0x06, 0xbd, 0xbf, 0x3e, 0x4a, 0xbe, 0x04, 0x30, 0xba, 0x3e,
  0x2c, 0xbe, 0xb4, 0x3e, 0x17, 0x8d, 0x95, 0x3e, 0xaa, 0x80, 0x34, 0xbc,
  0x8f, 0x7d, 0x39, 0xbe, 0xe4, 0x4f, 0x34, 0x3e, 0x55, 0xcd, 0x93, 0x3e,
  0xcb, 0x48, 0x35, 0x3e, 0xde, 0x90, 0xba, 0xbe, 0x6e, 0x68, 0x5d, 0xbe,
  0x90, 0xa3, 0x8e, 0xbe, 0x19, 0x44, 0xa0, 0xbc, 0x51, 0xfa, 0xaf, 0x3d,
  0xa3, 0x67, 0x2d, 0xbe, 0xdf, 0xe2, 0xae, 0x3d, 0x90, 0x5e, 0x8e, 0xbd,
  0x5e, 0x3f, 0x77, 0xbe, 0x3b, 0x35, 0x18, 0x3f, 0xda, 0xf1, 0x93, 0x3d,
  0x66, 0xe5, 0xa4, 0xbe, 0xeb, 0x11, 0x13, 0xbf, 0x43, 0x1e, 0x0b, 0x3d,
  0x78, 0x1d, 0x60, 0xbc, 0xbd, 0x2f, 0x90, 0xba, 0x61, 0x63, 0xa2, 0xbe,
  0x58, 0x9e, 0x10, 0xbf, 0x7a, 0xcc, 0x80, 0xbe, 0x9e, 0x6a, 0xaf, 0xbd,
  0x8b, 0x58, 0xb0, 0xbb, 0x5d, 0x86, 0x23, 0xbe, 0x2a, 0x2d, 0x01, 0xbd,
  0xec, 0x0a, 0x09, 0x3d, 0xc6, 0x41, 0x46, 0x3e, 0x3f, 0xaa, 0x20, 0x3c,
  0xb2, 0xc0, 0xd7, 0x3e, 0x79, 0x27, 0x5d, 0x3b, 0x97, 0xef, 0x37, 0xbe,
  0xca, 0xf7, 0x94, 0xbe, 0xdc, 0xcf, 0x1b, 0x3e, 0xbd, 0x2b, 0xce, 0xbe,
  0x90, 0x9e, 0x1f, 0x3f, 0xe0, 0xad, 0x1c, 0xbd, 0x00, 0x63, 0x43, 0x3e,
  0x79, 0x27, 0x5c, 0x3e, 0xa6, 0x54, 0xa1, 0x3c, 0xb3, 0xc7, 0x2b, 0xbe,
  0x4f, 0x4c, 0x1e, 0x3e, 0x9e, 0xc4, 0x5c, 0xbe, 0xc5, 0x15, 0x03, 0xbc,
  0x4e, 0x2d, 0xbb, 0x3e, 0x30, 0x37, 0xd2, 0x3e, 0xa1, 0x64, 0xdf, 0xbe,
  0x82, 0xa5, 0x11, 0xbe, 0x82, 0x68, 0x98, 0xbe, 0xc7, 0xb9, 0x08, 0x3e,
  0xea, 0xa9, 0x6e, 0xbe, 0xb0, 0x39, 0x95, 0x3e, 0x34, 0x62, 0x25, 0xbf,
  0x38, 0x47, 0xb5, 0xbe, 0x9c, 0x92, 0xe7, 0x3c, 0x84, 0x4c, 0xe4, 0xbc,
  0x42, 0xab, 0x9f, 0xbe, 0xd8, 0x1b, 0x9d, 0xbc, 0x2b, 0xf0, 0xb4, 0xbe,
  0x13, 0x69, 0xc5, 0x3d, 0xe4, 0x9f, 0xbf, 0x3e, 0x32, 0x19, 0x8b, 0x3e,
  0x65, 0x50, 0xc5, 0xbe, 0xcd, 0x36, 0x0c, 0xbe, 0x93, 0xc1, 0xd5, 0xbd,
  0x1b, 0xb6, 0x80, 0x3e, 0x67, 0x81, 0x04, 0xbe, 0x8e, 0xdb, 0xc0, 0x3e,
  0x5a, 0x10, 0x73, 0xbe, 0xd3, 0x45, 0x62, 0xbe, 0xab, 0x87, 0x4c, 0xbd,
  0xb3, 0x95, 0x83, 0xbc, 0xe7, 0x51, 0x19, 0xbe, 0x1d, 0xdb, 0xd3, 0x3d,
  0x0a, 0xe3, 0xda, 0xbe, 0x7f, 0x31, 0x85, 0x3d, 0xde, 0x03, 0xf3, 0x3e,
  0x9d, 0x2b, 0x6f, 0x3e, 0x0e, 0x5a, 0xa6, 0xbe, 0x04, 0xfd, 0x64, 0xbe,
  0x7e, 0x19, 0xbe, 0xbd, 0xa7, 0x61, 0x4a, 0x3e, 0xef, 0xb1, 0x07, 0xbe,
  0x1f, 0xdb, 0x09, 0x3e, 0x54, 0x24, 0x45, 0xbe, 0x4c, 0xef, 0x94, 0xbe,
  0x89, 0xa7, 0xd9, 0xbc, 0x3f, 0x99, 0x09, 0xbc, 0x85, 0xb9, 0xe8, 0xbd,
  0x01, 0xaf, 0x58, 0x3d, 0x1a, 0xdd, 0x4a, 0xbe, 0xcb, 0xe9, 0xc8, 0x3d,
  0x99, 0x06, 0xdb, 0x3e, 0x89, 0xdb, 0xc4, 0x3e, 0x1c, 0xe6, 0x2a, 0xbe,
  0x2b, 0x41, 0xb5, 0xbe, 0xf3, 0x9c, 0x11, 0xbe, 0x17, 0xea, 0x8e, 0x3e,
  0xdc, 0x9d, 0xf1, 0xbc, 0x60, 0x06, 0xbb, 0x3e, 0xba, 0xb0, 0x9b, 0xbe,
  0xd4, 0x72, 0x23, 0xbe, 0xf1, 0x73, 0x2c, 0x3d, 0xbb, 0x1b, 0xce, 0x3c,
  0x01, 0x65, 0x85, 0xbd, 0xd8, 0x20, 0xb3, 0x3d, 0x42, 0x6a, 0x26, 0xbe,
  0xcd, 0x79, 0x02, 0xbd, 0xc3, 0xd6, 0xf6, 0x3e, 0x34, 0x1d, 0xd2, 0x3e,
  0x29, 0x0e, 0x87, 0xbd, 0x77, 0xa2, 0x43, 0xbe, 0x1d, 0xfc, 0x24, 0xbe,
  0x5d, 0x9d, 0x5a, 0x3e, 0x3d, 0x6d, 0x96, 0x3d, 0x12, 0x4c, 0xd6, 0x3e,
  0x07, 0x14, 0xe7, 0xbd, 0x74, 0xbb, 0x5c, 0xbe, 0xb8, 0xb6, 0xa5, 0x3e,
  0xd0, 0x6d, 0xb3, 0x3d, 0xc2, 0x91, 0x0f, 0xbe, 0x17, 0x5b, 0xb3, 0xbc,
  0xaa, 0xd7, 0x53, 0x3d, 0x75, 0x91, 0xe0, 0xbe, 0xee, 0x77, 0x23, 0x3e,
  0xa5, 0x3d, 0x79, 0xbd, 0x2a, 0x35, 0x00, 0xbf, 0x6b, 0x61, 0xe6, 0xbe,
  0x29, 0xb3, 0x8e, 0xbe, 0x22, 0x6e, 0x10, 0xbf, 0x35, 0x1c, 0x1e, 0xbd,
  0x29, 0x84, 0x20, 0x3e, 0x6c, 0x77, 0xe4, 0xbe, 0xbc, 0x12, 0xd5, 0xbe,
  0x24, 0xbc, 0xc9, 0xbe, 0x65, 0xfe, 0xf8, 0xbd, 0x32, 0x86, 0x64, 0xbd,
  0xff, 0xc0, 0x4e, 0xbf, 0x1b, 0x08, 0x11, 0x3d, 0x60, 0xed, 0x2c, 0xbe,
  0x13, 0x91, 0x27, 0xbe, 0xcf, 0xa0, 0xec, 0xbc, 0x9f, 0xab, 0x89, 0xbd,
  0x48, 0x2e, 0x9c, 0xbe, 0x03, 0x63, 0xee, 0xbc, 0xc7, 0x75, 0x57, 0x3c,
  0x66, 0xb3, 0xa5, 0xbe, 0xec, 0xc8, 0xe7, 0xbd, 0x46, 0x4d, 0x2e, 0xbe,
  0x50, 0x88, 0x4b, 0xbe, 0xc8, 0x54, 0x57, 0xbd, 0xa8, 0x84, 0xa3, 0xbe,
  0x45, 0x84, 0x4b, 0xbe, 0x0f, 0x13, 0x7d, 0xbe, 0x7c, 0x9c, 0x6a, 0xbe,
  0xf4, 0xc4, 0x29, 0xbe, 0x90, 0xf1, 0x07, 0x3e, 0x6d, 0x7f, 0xe2, 0xbc,
  0x5f, 0xaa, 0x00, 0xbd, 0x1f, 0x4e, 0x38, 0xbe, 0x9d, 0xa2, 0x20, 0xbd,
  0x32, 0x20, 0x4c, 0xbe, 0x1c, 0x2f, 0x80, 0xbe, 0x69, 0x82, 0x36, 0xbe,
  0x7d, 0xcb, 0xed, 0x3c, 0x52, 0x6e, 0xf0, 0x3d, 0x50, 0x31, 0xc1, 0xbc,
  0xf9, 0x79, 0xa8, 0xbe, 0xa8, 0xb7, 0x09, 0x3e, 0xeb, 0x0c, 0x64, 0xbd,
  0x0b, 0x14, 0x11, 0xbe, 0xa1, 0x7a, 0x02, 0xbe, 0x90, 0x70, 0xd1, 0xbd,
  0xf1, 0x47, 0x08, 0x3e, 0xf5, 0x35, 0xab, 0xbd, 0x0e, 0xee, 0x5f, 0x3d,
  0x53, 0x34, 0x05, 0x3e, 0xf4, 0x1a, 0x6f, 0xbe, 0xf9, 0xbc, 0x89, 0xbe,
  0x7e, 0xa4, 0xec, 0xbc, 0x79, 0xb8, 0x98, 0x3d, 0xbe, 0xbd, 0x2a, 0xbe,
  0x74, 0x2f, 0x08, 0x3e, 0x01, 0xd2, 0xb3, 0x3d, 0x2c, 0xb9, 0x05, 0x3d,
  0xa5, 0x5c, 0x22, 0xbe, 0x8a, 0x37, 0x7f, 0xbe, 0x4e, 0x8c, 0x78, 0xbe,
  0x01, 0xa4, 0x41, 0xbe, 0xd5, 0xb5, 0x3d, 0xbe, 0x94, 0xaa, 0xaa, 0x3d,
  0x99, 0x06, 0x20, 0xbe, 0x9f, 0x19, 0x9a, 0x3d, 0x53, 0xe2, 0x50, 0x3d,
  0x8b, 0x5d, 0x06, 0xbd, 0xcb, 0x55, 0x12, 0xbd, 0x09, 0xed, 0xeb, 0x3d,
  0x5c, 0x1e, 0x0a, 0xbe, 0x14, 0x59, 0x81, 0x3d, 0x6b, 0x51, 0x68, 0xbe,
  0xe8, 0x16, 0x7a, 0xbe, 0x3c, 0xef, 0x8f, 0xbe, 0xae, 0x86, 0xf6, 0x3d,
  0xaf, 0x6f, 0xba, 0x3d, 0x2a, 0x83, 0x52, 0xbe, 0xaa, 0x65, 0xd6, 0x3d,
  0x55, 0x98, 0x8d, 0xbd, 0x42, 0x72, 0x80, 0xbe, 0xdd, 0x66, 0x81, 0xbd,
  0x1f, 0xd8, 0x84, 0xbe, 0x1b, 0x20, 0xc8, 0xbe, 0xf5, 0x53, 0x13, 0xbe,
  0x97, 0x70, 0x31, 0xbe, 0xd8, 0x87, 0x1a, 0xbe, 0xa5, 0xe1, 0x91, 0x3d,
  0x46, 0x2f, 0xa1, 0x3d, 0xdd, 0xf4, 0x3d, 0xbe, 0xd7, 0xc4, 0x0b, 0xbe,
  0x37, 0xf6, 0x41, 0xbe, 0x19, 0x75, 0x55, 0xbe, 0xe7, 0x39, 0x95, 0xbe,
  0x60, 0x9e, 0x83, 0xbe, 0xe8, 0x94, 0x0e, 0xbe, 0x8d, 0x42, 0xc4, 0xbd,
  0x4d, 0xd0, 0xa3, 0x3c, 0xcb, 0x5a, 0x8d, 0x3c, 0x55, 0x60, 0xfc, 0xbb,
  0x02, 0xb4, 0x1f, 0xbc, 0x2a, 0xc1, 0x06, 0xbe, 0x68, 0x7b, 0xf8, 0xbd,
  0xad, 0xb1, 0x1d, 0xbe, 0xcc, 0x91, 0x3d, 0xbe, 0xc9, 0x3b, 0x7c, 0xbe,
  0x82, 0x4f, 0x6a, 0xbd, 0x43, 0x11, 0x93, 0xbd, 0x30, 0xa8, 0x51, 0xbe,
  0xe4, 0x6e, 0x36, 0xbc, 0x8c, 0xa1, 0xd0, 0xbc, 0x9f, 0x4a, 0x1b, 0xbc,
  0x05, 0xe4, 0x8f, 0xbe, 0xd2, 0xf1, 0x4b, 0xbc, 0xac, 0x7a, 0x30, 0xbe,
  0x46, 0xdb, 0x7d, 0xbe, 0x78, 0xec, 0xeb, 0x3b, 0x18, 0x40, 0x03, 0x3d,
  0xae, 0x20, 0x43, 0xbe, 0x8f, 0x57, 0x93, 0x3d, 0xfd, 0xad, 0x26, 0xbe,
  0xa4, 0x2d, 0x97, 0xbd, 0xbd, 0x8b, 0x75, 0xbe, 0x04, 0xd7, 0x54, 0xbe,
  0x66, 0xfd, 0xff, 0xff, 0x10, 0x00, 0x00, 0x00, 0x07, 0x00, 0x00, 0x00,
  0x14, 0x00, 0x00, 0x00, 0x2c, 0x00, 0x00, 0x00, 0x02, 0x00, 0x00, 0x00,
  0x10, 0x00, 0x00, 0x00, 0x70, 0x00, 0x00, 0x00, 0x17, 0x00, 0x00, 0x00,
  0x73, 0x65, 0x71, 0x75, 0x65, 0x6e, 0x74, 0x69, 0x61, 0x6c, 0x2f, 0x64,
  0x65, 0x6e, 0x73, 0x65, 0x2f, 0x4d, 0x61, 0x74, 0x4d, 0x75, 0x6c, 0x00,
  0xd0, 0xfc, 0xff, 0xff, 0xda, 0xfd, 0xff, 0xff, 0x04, 0x00, 0x00, 0x00,
  0x08, 0x00, 0x00, 0x00, 0xff, 0xff, 0xff, 0xff, 0x70, 0x00, 0x00, 0x00,
  0x00, 0x00, 0x0e, 0x00, 0x18, 0x00, 0x08, 0x00, 0x07, 0x00, 0x0c, 0x00,
  0x10, 0x00, 0x14, 0x00, 0x0e, 0x00, 0x00, 0x00, 0x00, 0x00, 0x00, 0x02,
  0x10, 0x00, 0x00, 0x00, 0x06, 0x00, 0x00, 0x00, 0x10, 0x00, 0x00, 0x00,
  0x2c, 0x00, 0x00, 0x00, 0x01, 0x00, 0x00, 0x00, 0x02, 0x00, 0x00, 0x00,
  0x18, 0x00, 0x00, 0x00, 0x73, 0x65, 0x71, 0x75, 0x65, 0x6e, 0x74, 0x69,
  0x61, 0x6c, 0x2f, 0x66, 0x6c, 0x61, 0x74, 0x74, 0x65, 0x6e, 0x2f, 0x43,
  0x6f, 0x6e, 0x73, 0x74, 0x00, 0x00, 0x00, 0x00, 0x38, 0xfd, 0xff, 0xff,
  0x42, 0xfe, 0xff, 0xff, 0x04, 0x00, 0x00, 0x00, 0x0c, 0x00, 0x00, 0x00,
  0x7b, 0x63, 0x1b, 0xbf, 0x0b, 0x38, 0xd4, 0xbf, 0x53, 0x22, 0xa6, 0x3f,
  0x26, 0xfe, 0xff, 0xff, 0x10, 0x00, 0x00, 0x00, 0x05, 0x00, 0x00, 0x00,
  0x10, 0x00, 0x00, 0x00, 0x44, 0x00, 0x00, 0x00, 0x01, 0x00, 0x00, 0x00,
  0x03, 0x00, 0x00, 0x00, 0x32, 0x00, 0x00, 0x00, 0x73, 0x65, 0x71, 0x75,
  0x65, 0x6e, 0x74, 0x69, 0x61, 0x6c, 0x2f, 0x64, 0x65, 0x6e, 0x73, 0x65,
  0x5f, 0x31, 0x2f, 0x42, 0x69, 0x61, 0x73, 0x41, 0x64, 0x64, 0x2f, 0x52,
  0x65, 0x61, 0x64, 0x56, 0x61, 0x72, 0x69, 0x61, 0x62, 0x6c, 0x65, 0x4f,
  0x70, 0x2f, 0x72, 0x65, 0x73, 0x6f, 0x75, 0x72, 0x63, 0x65, 0x00, 0x00,
  0xa8, 0xfd, 0xff, 0xff, 0xb2, 0xfe, 0xff, 0xff, 0x04, 0x00, 0x00, 0x00,
  0x40, 0x00, 0x00, 0x00, 0x70, 0xbd, 0x6e, 0x3c, 0x42, 0x54, 0xd6, 0xbe,
  0xce, 0x5e, 0x20, 0x3c, 0xd2, 0xcf, 0x00, 0xbf, 0x48, 0xa2, 0xa6, 0x3f,
  0x01, 0x20, 0xe0, 0x3f, 0x83, 0x42, 0xb6, 0x3f, 0x9b, 0xaa, 0xa7, 0xbe,
  0x5e, 0x68, 0x86, 0x3e, 0x27, 0x56, 0x90, 0xbe, 0xd8, 0x01, 0x50, 0xbf,
  0x12, 0xbb, 0x50, 0xbf, 0xc9, 0xbc, 0x62, 0x3f, 0x26, 0x7c, 0x3e, 0xbf,
  0xcd, 0x18, 0x99, 0xbf, 0xd4, 0x84, 0x8e, 0xbe, 0xca, 0xfe, 0xff, 0xff,
  0x10, 0x00, 0x00, 0x00, 0x04, 0x00, 0x00, 0x00, 0x10, 0x00, 0x00, 0x00,
  0x44, 0x00, 0x00, 0x00, 0x01, 0x00, 0x00, 0x00, 0x10, 0x00, 0x00, 0x00,
  0x30, 0x00, 0x00, 0x00, 0x73, 0x65, 0x71, 0x75, 0x65, 0x6e, 0x74, 0x69,
  0x61, 0x6c, 0x2f, 0x64, 0x65, 0x6e, 0x73, 0x65, 0x2f, 0x42, 0x69, 0x61,
  0x73, 0x41, 0x64, 0x64, 0x2f, 0x52, 0x65, 0x61, 0x64, 0x56, 0x61, 0x72,
  0x69, 0x61, 0x62, 0x6c, 0x65, 0x4f, 0x70, 0x2f, 0x72, 0x65, 0x73, 0x6f,
  0x75, 0x72, 0x63, 0x65, 0x00, 0x00, 0x00, 0x00, 0x4c, 0xfe, 0xff, 0xff,
  0x56, 0xff, 0xff, 0xff, 0x04, 0x00, 0x00, 0x00, 0x40, 0x00, 0x00, 0x00,
  0xdf, 0xe6, 0xa4, 0xbf, 0x47, 0xee, 0x15, 0x3f, 0xf3, 0x9d, 0xb5, 0xbf,
  0x01, 0xe6, 0x4c, 0xbf, 0xc7, 0x14, 0x84, 0xbf, 0xc1, 0xcb, 0x71, 0xbe,
  0x07, 0x02, 0x84, 0xbf, 0xcb, 0x69, 0xf9, 0xbe, 0x1b, 0x2b, 0xd3, 0x3f,
  0x05, 0x02, 0x24, 0xbf, 0x83, 0xeb, 0x9a, 0xbe, 0x6b, 0x67, 0xdb, 0xbf,
  0x31, 0x34, 0xe4, 0xbf, 0x6d, 0x63, 0xdf, 0xbe, 0x2e, 0x56, 0x14, 0xc0,
  0x9d, 0xcd, 0xb9, 0x3f, 0x6e, 0xff, 0xff, 0xff, 0x10, 0x00, 0x00, 0x00,
  0x03, 0x00, 0x00, 0x00, 0x10, 0x00, 0x00, 0x00, 0x48, 0x00, 0x00, 0x00,
  0x01, 0x00, 0x00, 0x00, 0x10, 0x00, 0x00, 0x00, 0x33, 0x00, 0x00, 0x00,
  0x73, 0x65, 0x71, 0x75, 0x65, 0x6e, 0x74, 0x69, 0x61, 0x6c, 0x2f, 0x63,
  0x6f, 0x6e, 0x76, 0x32, 0x64, 0x5f, 0x31, 0x2f, 0x42, 0x69, 0x61, 0x73,
  0x41, 0x64, 0x64, 0x2f, 0x52, 0x65, 0x61, 0x64, 0x56, 0x61, 0x72, 0x69,
  0x61, 0x62, 0x6c, 0x65, 0x4f, 0x70, 0x2f, 0x72, 0x65, 0x73, 0x6f, 0x75,
  0x72, 0x63, 0x65, 0x00, 0x04, 0x00, 0x06, 0x00, 0x04, 0x00, 0x00, 0x00,
  0x00, 0x00, 0x06, 0x00, 0x08, 0x00, 0x04, 0x00, 0x06, 0x00, 0x00, 0x00,
  0x04, 0x00, 0x00, 0x00, 0x20, 0x00, 0x00, 0x00, 0x89, 0xe9, 0x57, 0x40,
  0x77, 0x3c, 0xdf, 0xbf, 0x8a, 0x86, 0x24, 0xbf, 0xbc, 0xd8, 0xfb, 0xbf,
  0x23, 0xa7, 0x21, 0xbe, 0xc3, 0xf8, 0x7b, 0xbf, 0xb6, 0xe0, 0xe4, 0xbd,
  0xf5, 0x14, 0x44, 0xbe, 0x00, 0x00, 0x0e, 0x00, 0x14, 0x00, 0x04, 0x00,
  0x00, 0x00, 0x08, 0x00, 0x0c, 0x00, 0x10, 0x00, 0x0e, 0x00, 0x00, 0x00,
  0x10, 0x00, 0x00, 0x00, 0x02, 0x00, 0x00, 0x00, 0x10, 0x00, 0x00, 0x00,
  0x44, 0x00, 0x00, 0x00, 0x01, 0x00, 0x00, 0x00, 0x08, 0x00, 0x00, 0x00,
  0x31, 0x00, 0x00, 0x00, 0x73, 0x65, 0x71, 0x75, 0x65, 0x6e, 0x74, 0x69,
  0x61, 0x6c, 0x2f, 0x63, 0x6f, 0x6e, 0x76, 0x32, 0x64, 0x2f, 0x42, 0x69,
  0x61, 0x73, 0x41, 0x64, 0x64, 0x2f, 0x52, 0x65, 0x61, 0x64, 0x56, 0x61,
  0x72, 0x69, 0x61, 0x62, 0x6c, 0x65, 0x4f, 0x70, 0x2f, 0x72, 0x65, 0x73,
  0x6f, 0x75, 0x72, 0x63, 0x65, 0x00, 0x00, 0x00, 0x90, 0xff, 0xff, 0xff,
  0x14, 0x00, 0x18, 0x00, 0x04, 0x00, 0x00, 0x00, 0x08, 0x00, 0x0c, 0x00,
  0x10, 0x00, 0x00, 0x00, 0x00, 0x00, 0x14, 0x00, 0x14, 0x00, 0x00, 0x00,
  0x14, 0x00, 0x00, 0x00, 0x01, 0x00, 0x00, 0x00, 0x20, 0x00, 0x00, 0x00,
  0x44, 0x00, 0x00, 0x00, 0x2c, 0x00, 0x00, 0x00, 0x04, 0x00, 0x00, 0x00,
  0x01, 0x00, 0x00, 0x00, 0x40, 0x00, 0x00, 0x00, 0x03, 0x00, 0x00, 0x00,
  0x01, 0x00, 0x00, 0x00, 0x0c, 0x00, 0x00, 0x00, 0x63, 0x6f, 0x6e, 0x76,
  0x32, 0x64, 0x5f, 0x69, 0x6e, 0x70, 0x75, 0x74, 0x00, 0x00, 0x00, 0x00,
  0x04, 0x00, 0x00, 0x00, 0xff, 0xff, 0xff, 0xff, 0x40, 0x00, 0x00, 0x00,
  0x03, 0x00, 0x00, 0x00, 0x01, 0x00, 0x00, 0x00, 0xfc, 0xff, 0xff, 0xff,
  0x04, 0x00, 0x04, 0x00, 0x04, 0x00, 0x00, 0x00
};

unsigned int model_tflite_len = 13052;// Fill the int in `src/model.cc` here