#include "magic_wand_model_data.h"

// We need to keep the data array aligned on some architectures.
#ifdef __has_attribute
#define HAVE_ATTRIBUTE(x) __has_attribute(x)
#else
#define HAVE_ATTRIBUTE(x) 0
#endif
#if HAVE_ATTRIBUTE(aligned) || (defined(__GNUC__) && !defined(__clang__))
#define DATA_ALIGN_ATTRIBUTE __attribute__((aligned(4)))
#else
#define DATA_ALIGN_ATTRIBUTE
#endif

const unsigned char g_magic_wand_model_data[] DATA_ALIGN_ATTRIBUTE = {
  0x1c, 0x00, 0x00, 0x00, 0x54, 0x46, 0x4c, 0x33, 0x14, 0x00, 0x20, 0x00,
  0x04, 0x00, 0x08, 0x00, 0x0c, 0x00, 0x10, 0x00, 0x14, 0x00, 0x00, 0x00,
  0x18, 0x00, 0x1c, 0x00, 0x14, 0x00, 0x00, 0x00, 0x03, 0x00, 0x00, 0x00,
  0x18, 0x00, 0x00, 0x00, 0x2c, 0x00, 0x00, 0x00, 0xd8, 0x00, 0x00, 0x00,
  0x2c, 0x00, 0x00, 0x00, 0x80, 0x00, 0x00, 0x00, 0x78, 0x00, 0x00, 0x00,
  0x05, 0x00, 0x00, 0x00, 0x28, 0x07, 0x00, 0x00, 0x44, 0x06, 0x00, 0x00,
  0xbc, 0x03, 0x00, 0x00, 0xf8, 0x02, 0x00, 0x00, 0xac, 0x01, 0x00, 0x00,
  0x01, 0x00, 0x00, 0x00, 0xd0, 0x00, 0x00, 0x00, 0x14, 0x00, 0x00, 0x00,
  0x98, 0x32, 0x00, 0x00, 0x94, 0x32, 0x00, 0x00, 0x8c, 0x31, 0x00, 0x00,
  0xd8, 0x30, 0x00, 0x00, 0x30, 0x30, 0x00, 0x00, 0xbc, 0x2f, 0x00, 0x00,
  0x50, 0x2f, 0x00, 0x00, 0x00, 0x13, 0x00, 0x00, 0xec, 0x11, 0x00, 0x00,
  0x10, 0x10, 0x00, 0x00, 0xb4, 0x07, 0x00, 0x00, 0x6c, 0x32, 0x00, 0x00,
  0x68, 0x32, 0x00, 0x00, 0x64, 0x32, 0x00, 0x00, 0x60, 0x32, 0x00, 0x00,
  0x5c, 0x32, 0x00, 0x00, 0x58, 0x32, 0x00, 0x00, 0x54, 0x32, 0x00, 0x00,
  0x50, 0x32, 0x00, 0x00, 0x3c, 0x00, 0x00, 0x00, 0x00, 0x00, 0x00, 0x00,
  0x01, 0x00, 0x00, 0x00, 0x0c, 0x00, 0x00, 0x00, 0x08, 0x00, 0x0c, 0x00,
  0x04, 0x00, 0x08, 0x00, 0x08, 0x00, 0x00, 0x00, 0x08, 0x00, 0x00, 0x00,
  0x13, 0x00, 0x00, 0x00, 0x13, 0x00, 0x00, 0x00, 0x6d, 0x69, 0x6e, 0x5f,
  0x72, 0x75, 0x6e, 0x74, 0x69, 0x6d, 0x65, 0x5f, 0x76, 0x65, 0x72, 0x73,
  0x69, 0x6f, 0x6e, 0x00, 0xfa, 0xce, 0xff, 0xff, 0x04, 0x00, 0x00, 0x00,
  0x10, 0x00, 0x00, 0x00, 0x31, 0x2e, 0x35, 0x2e, 0x30, 0x00, 0x00, 0x00,
  0x00, 0x00, 0x00, 0x00, 0x00, 0x00, 0x00, 0x00, 0x0f, 0x00, 0x00, 0x00,
  0x4d, 0x4c, 0x49, 0x52, 0x20, 0x43, 0x6f, 0x6e, 0x76, 0x65, 0x72, 0x74,
  0x65, 0x64, 0x2e, 0x00, 0x00, 0x00, 0x0e, 0x00, 0x18, 0x00, 0x04, 0x00,
  0x08, 0x00, 0x0c, 0x00, 0x10, 0x00, 0x14, 0x00, 0x0e, 0x00, 0x00, 0x00,
  0x14, 0x00, 0x00, 0x00, 0x5c, 0x00, 0x00, 0x00, 0x60, 0x00, 0x00, 0x00,
  0x64, 0x00, 0x00, 0x00, 0x84, 0x00, 0x00, 0x00, 0x12, 0x00, 0x00, 0x00,
  0x58, 0x31, 0x00, 0x00, 0xe8, 0x30, 0x00, 0x00, 0x44, 0x30, 0x00, 0x00,
  0x9c, 0x2f, 0x00, 0x00, 0xf4, 0x2e, 0x00, 0x00, 0x94, 0x2e, 0x00, 0x00,
  0x2c, 0x2e, 0x00, 0x00, 0xd8, 0x11, 0x00, 0x00, 0xbc, 0x10, 0x00, 0x00,
  0xe0, 0x0e, 0x00, 0x00, 0x0c, 0x06, 0x00, 0x00, 0x28, 0x05, 0x00, 0x00,
  0xe8, 0x03, 0x00, 0x00, 0x3c, 0x03, 0x00, 0x00, 0x98, 0x02, 0x00, 0x00,
  0xd4, 0x01, 0x00, 0x00, 0x10, 0x01, 0x00, 0x00, 0x84, 0x00, 0x00, 0x00,
  0x01, 0x00, 0x00, 0x00, 0x00, 0x00, 0x00, 0x00, 0x01, 0x00, 0x00, 0x00,
  0x11, 0x00, 0x00, 0x00, 0x08, 0x00, 0x00, 0x00, 0x74, 0x05, 0x00, 0x00,
  0x94, 0x04, 0x00, 0x00, 0x78, 0x03, 0x00, 0x00, 0xbc, 0x02, 0x00, 0x00,
  0x30, 0x02, 0x00, 0x00, 0x50, 0x01, 0x00, 0x00, 0xa8, 0x00, 0x00, 0x00,
  0x10, 0x00, 0x00, 0x00, 0x04, 0x00, 0x00, 0x00, 0x6d, 0x61, 0x69, 0x6e,
  0x00, 0x00, 0x00, 0x00, 0x7a, 0xff, 0xff, 0xff, 0x00, 0x00, 0x00, 0x09,
  0x04, 0x00, 0x00, 0x00, 0x1c, 0x00, 0x00, 0x00, 0x10, 0x00, 0x00, 0x00,
  0x04, 0x00, 0x00, 0x00, 0xf6, 0xcf, 0xff, 0xff, 0x00, 0x00, 0x80, 0x3f,
  0x01, 0x00, 0x00, 0x00, 0x11, 0x00, 0x00, 0x00, 0x01, 0x00, 0x00, 0x00,
  0x10, 0x00, 0x00, 0x00, 0xa0, 0xfa, 0xff, 0xff, 0x19, 0x00, 0x00, 0x00,
  0x00, 0x00, 0x00, 0x19, 0x01, 0x00, 0x00, 0x00, 0x84, 0xcf, 0xff, 0xff,
  0x14, 0x00, 0x00, 0x00, 0x12, 0x00, 0x00, 0x00, 0x18, 0x00, 0x00, 0x00,
  0x30, 0x00, 0x00, 0x00, 0x20, 0x00, 0x00, 0x00, 0x02, 0x00, 0x00, 0x00,
  0x01, 0x00, 0x00, 0x00, 0x03, 0x00, 0x00, 0x00, 0x08, 0x00, 0x00, 0x00,
  0x49, 0x64, 0x65, 0x6e, 0x74, 0x69, 0x74, 0x79, 0x00, 0x00, 0x00, 0x00,
  0x02, 0x00, 0x00, 0x00, 0xff, 0xff, 0xff, 0xff, 0x03, 0x00, 0x00, 0x00,
  0x68, 0xd0, 0xff, 0xff, 0x00, 0x00, 0x0e, 0x00, 0x18, 0x00, 0x08, 0x00,
  0x0c, 0x00, 0x10, 0x00, 0x07, 0x00, 0x14, 0x00, 0x0e, 0x00, 0x00, 0x00,
  0x00, 0x00, 0x00, 0x08, 0x03, 0x00, 0x00, 0x00, 0x18, 0x00, 0x00, 0x00,
  0x0c, 0x00, 0x00, 0x00, 0x04, 0x00, 0x00, 0x00, 0x84, 0xcf, 0xff, 0xff,
  0x01, 0x00, 0x00, 0x00, 0x10, 0x00, 0x00, 0x00, 0x03, 0x00, 0x00, 0x00,
  0x0f, 0x00, 0x00, 0x00, 0x07, 0x00, 0x00, 0x00, 0x04, 0x00, 0x00, 0x00,
  0x0c, 0xd0, 0xff, 0xff, 0x14, 0x00, 0x00, 0x00, 0x11, 0x00, 0x00, 0x00,
  0x18, 0x00, 0x00, 0x00, 0x5c, 0x00, 0x00, 0x00, 0x4c, 0x00, 0x00, 0x00,
  0x02, 0x00, 0x00, 0x00, 0x01, 0x00, 0x00, 0x00, 0x03, 0x00, 0x00, 0x00,
  0x34, 0x00, 0x00, 0x00, 0x73, 0x65, 0x71, 0x75, 0x65, 0x6e, 0x74, 0x69,
  0x61, 0x6c, 0x2f, 0x64, 0x65, 0x6e, 0x73, 0x65, 0x5f, 0x31, 0x2f, 0x4d,
  0x61, 0x74, 0x4d, 0x75, 0x6c, 0x3b, 0x73, 0x65, 0x71, 0x75, 0x65, 0x6e,
  0x74, 0x69, 0x61, 0x6c, 0x2f, 0x64, 0x65, 0x6e, 0x73, 0x65, 0x5f, 0x31,
  0x2f, 0x42, 0x69, 0x61, 0x73, 0x41, 0x64, 0x64, 0x00, 0x00, 0x00, 0x00,
  0x02, 0x00, 0x00, 0x00, 0xff, 0xff, 0xff, 0xff, 0x03, 0x00, 0x00, 0x00,
  0x0c, 0xd0, 0xff, 0xff, 0xda, 0xfc, 0xff, 0xff, 0x00, 0x00, 0x00, 0x08,
  0x03, 0x00, 0x00, 0x00, 0x24, 0x00, 0x00, 0x00, 0x18, 0x00, 0x00, 0x00,
  0x0c, 0x00, 0x00, 0x00, 0x00, 0x00, 0x06, 0x00, 0x08, 0x00, 0x07, 0x00,
  0x06, 0x00, 0x00, 0x00, 0x00, 0x00, 0x00, 0x01, 0x01, 0x00, 0x00, 0x00,
  0x0f, 0x00, 0x00, 0x00, 0x03, 0x00, 0x00, 0x00, 0x0e, 0x00, 0x00, 0x00,
  0x06, 0x00, 0x00, 0x00, 0x03, 0x00, 0x00, 0x00, 0xe8, 0xfb, 0xff, 0xff,
  0x09, 0x00, 0x00, 0x00, 0x00, 0x00, 0x00, 0x09, 0x01, 0x00, 0x00, 0x00,
  0xcc, 0xd0, 0xff, 0xff, 0x14, 0x00, 0x00, 0x00, 0x10, 0x00, 0x00, 0x00,
  0x18, 0x00, 0x00, 0x00, 0x6c, 0x00, 0x00, 0x00, 0x5c, 0x00, 0x00, 0x00,
  0x02, 0x00, 0x00, 0x00, 0x01, 0x00, 0x00, 0x00, 0x10, 0x00, 0x00, 0x00,
  0x46, 0x00, 0x00, 0x00, 0x73, 0x65, 0x71, 0x75, 0x65, 0x6e, 0x74, 0x69,
  0x61, 0x6c, 0x2f, 0x64, 0x65, 0x6e, 0x73, 0x65, 0x2f, 0x4d, 0x61, 0x74,
  0x4d, 0x75, 0x6c, 0x3b, 0x73, 0x65, 0x71, 0x75, 0x65, 0x6e, 0x74, 0x69,
  0x61, 0x6c, 0x2f, 0x64, 0x65, 0x6e, 0x73, 0x65, 0x2f, 0x52, 0x65, 0x6c,
  0x75, 0x3b, 0x73, 0x65, 0x71, 0x75, 0x65, 0x6e, 0x74, 0x69, 0x61, 0x6c,
  0x2f, 0x64, 0x65, 0x6e, 0x73, 0x65, 0x2f, 0x42, 0x69, 0x61, 0x73, 0x41,
  0x64, 0x64, 0x00, 0x00, 0x02, 0x00, 0x00, 0x00, 0xff, 0xff, 0xff, 0xff,
  0x10, 0x00, 0x00, 0x00, 0xec, 0xd1, 0xff, 0xff, 0x00, 0x00, 0x0a, 0x00,
  0x10, 0x00, 0x04, 0x00, 0x08, 0x00, 0x0c, 0x00, 0x0a, 0x00, 0x00, 0x00,
  0x02, 0x00, 0x00, 0x00, 0x10, 0x00, 0x00, 0x00, 0x04, 0x00, 0x00, 0x00,
  0x01, 0x00, 0x00, 0x00, 0x0e, 0x00, 0x00, 0x00, 0x02, 0x00, 0x00, 0x00,
  0x0d, 0x00, 0x00, 0x00, 0x05, 0x00, 0x00, 0x00, 0xa8, 0xfc, 0xff, 0xff,
  0x16, 0x00, 0x00, 0x00, 0x00, 0x00, 0x00, 0x16, 0x01, 0x00, 0x00, 0x00,
  0x8c, 0xd1, 0xff, 0xff, 0x14, 0x00, 0x00, 0x00, 0x0f, 0x00, 0x00, 0x00,
  0x18, 0x00, 0x00, 0x00, 0x40, 0x00, 0x00, 0x00, 0x30, 0x00, 0x00, 0x00,
  0x02, 0x00, 0x00, 0x00, 0x01, 0x00, 0x00, 0x00, 0x70, 0x00, 0x00, 0x00,
  0x1a, 0x00, 0x00, 0x00, 0x73, 0x65, 0x71, 0x75, 0x65, 0x6e, 0x74, 0x69,
  0x61, 0x6c, 0x2f, 0x66, 0x6c, 0x61, 0x74, 0x74, 0x65, 0x6e, 0x2f, 0x52,
  0x65, 0x73, 0x68, 0x61, 0x70, 0x65, 0x00, 0x00, 0x02, 0x00, 0x00, 0x00,
  0xff, 0xff, 0xff, 0xff, 0x70, 0x00, 0x00, 0x00, 0x70, 0xd1, 0xff, 0xff,
  0x3e, 0xfe, 0xff, 0xff, 0x00, 0x00, 0x00, 0x05, 0x01, 0x00, 0x00, 0x00,
  0x38, 0x00, 0x00, 0x00, 0x2c, 0x00, 0x00, 0x00, 0x14, 0x00, 0x00, 0x00,
  0x00, 0x00, 0x0e, 0x00, 0x14, 0x00, 0x00, 0x00, 0x10, 0x00, 0x0c, 0x00,
  0x08, 0x00, 0x04, 0x00, 0x0e, 0x00, 0x00, 0x00, 0x03, 0x00, 0x00, 0x00,
  0x01, 0x00, 0x00, 0x00, 0x03, 0x00, 0x00, 0x00, 0x01, 0x00, 0x00, 0x00,
  0x01, 0x00, 0x00, 0x00, 0x0d, 0x00, 0x00, 0x00, 0x01, 0x00, 0x00, 0x00,
  0x0c, 0x00, 0x00, 0x00, 0x2c, 0xd2, 0xff, 0xff, 0x14, 0x00, 0x00, 0x00,
  0x0e, 0x00, 0x00, 0x00, 0x20, 0x00, 0x00, 0x00, 0x58, 0x00, 0x00, 0x00,
  0x40, 0x00, 0x00, 0x00, 0x04, 0x00, 0x00, 0x00, 0x01, 0x00, 0x00, 0x00,
  0x07, 0x00, 0x00, 0x00, 0x01, 0x00, 0x00, 0x00, 0x10, 0x00, 0x00, 0x00,
  0x22, 0x00, 0x00, 0x00, 0x73, 0x65, 0x71, 0x75, 0x65, 0x6e, 0x74, 0x69,
  0x61, 0x6c, 0x2f, 0x6d, 0x61, 0x78, 0x5f, 0x70, 0x6f, 0x6f, 0x6c, 0x69,
  0x6e, 0x67, 0x32, 0x64, 0x5f, 0x31, 0x2f, 0x4d, 0x61, 0x78, 0x50, 0x6f,
  0x6f, 0x6c, 0x00, 0x00, 0x04, 0x00, 0x00, 0x00, 0xff, 0xff, 0xff, 0xff,
  0x07, 0x00, 0x00, 0x00, 0x01, 0x00, 0x00, 0x00, 0x10, 0x00, 0x00, 0x00,
  0x28, 0xd2, 0xff, 0xff, 0x1a, 0xfe, 0xff, 0xff, 0x00, 0x00, 0x00, 0x01,
  0x24, 0x00, 0x00, 0x00, 0x18, 0x00, 0x00, 0x00, 0x04, 0x00, 0x00, 0x00,
  0x0c, 0xfe, 0xff, 0xff, 0x01, 0x00, 0x00, 0x00, 0x01, 0x00, 0x00, 0x00,
  0x00, 0x00, 0x00, 0x01, 0x01, 0x00, 0x00, 0x00, 0x0c, 0x00, 0x00, 0x00,
  0x03, 0x00, 0x00, 0x00, 0x0b, 0x00, 0x00, 0x00, 0x09, 0x00, 0x00, 0x00,
  0x02, 0x00, 0x00, 0x00, 0xd4, 0xd2, 0xff, 0xff, 0x14, 0x00, 0x00, 0x00,
  0x0d, 0x00, 0x00, 0x00, 0x20, 0x00, 0x00, 0x00, 0xb8, 0x00, 0x00, 0x00,
  0xa0, 0x00, 0x00, 0x00, 0x04, 0x00, 0x00, 0x00, 0x01, 0x00, 0x00, 0x00,
  0x15, 0x00, 0x00, 0x00, 0x01, 0x00, 0x00, 0x00, 0x10, 0x00, 0x00, 0x00,
  0x83, 0x00, 0x00, 0x00, 0x73, 0x65, 0x71, 0x75, 0x65, 0x6e, 0x74, 0x69,
  0x61, 0x6c, 0x2f, 0x63, 0x6f, 0x6e, 0x76, 0x32, 0x64, 0x5f, 0x31, 0x2f,
  0x52, 0x65, 0x6c, 0x75, 0x3b, 0x73, 0x65, 0x71, 0x75, 0x65, 0x6e, 0x74,
  0x69, 0x61, 0x6c, 0x2f, 0x63, 0x6f, 0x6e, 0x76, 0x32, 0x64, 0x5f, 0x31,
  0x2f, 0x42, 0x69, 0x61, 0x73, 0x41, 0x64, 0x64, 0x3b, 0x73, 0x65, 0x71,
  0x75, 0x65, 0x6e, 0x74, 0x69, 0x61, 0x6c, 0x2f, 0x63, 0x6f, 0x6e, 0x76,
  0x32, 0x64, 0x5f, 0x31, 0x2f, 0x43, 0x6f, 0x6e, 0x76, 0x32, 0x44, 0x3b,
  0x73, 0x65, 0x71, 0x75, 0x65, 0x6e, 0x74, 0x69, 0x61, 0x6c, 0x2f, 0x63,
  0x6f, 0x6e, 0x76, 0x32, 0x64, 0x5f, 0x31, 0x2f, 0x42, 0x69, 0x61, 0x73,
  0x41, 0x64, 0x64, 0x2f, 0x52, 0x65, 0x61, 0x64, 0x56, 0x61, 0x72, 0x69,
  0x61, 0x62, 0x6c, 0x65, 0x4f, 0x70, 0x2f, 0x72, 0x65, 0x73, 0x6f, 0x75,
  0x72, 0x63, 0x65, 0x00, 0x04, 0x00, 0x00, 0x00, 0xff, 0xff, 0xff, 0xff,
  0x15, 0x00, 0x00, 0x00, 0x01, 0x00, 0x00, 0x00, 0x10, 0x00, 0x00, 0x00,
  0x40, 0xd4, 0xff, 0xff, 0x00, 0x00, 0x0e, 0x00, 0x1a, 0x00, 0x08, 0x00,
  0x0c, 0x00, 0x10, 0x00, 0x07, 0x00, 0x14, 0x00, 0x0e, 0x00, 0x00, 0x00,
  0x00, 0x00, 0x00, 0x05, 0x01, 0x00, 0x00, 0x00, 0x3c, 0x00, 0x00, 0x00,
  0x30, 0x00, 0x00, 0x00, 0x14, 0x00, 0x00, 0x00, 0x00, 0x00, 0x0e, 0x00,
  0x18, 0x00, 0x17, 0x00, 0x10, 0x00, 0x0c, 0x00, 0x08, 0x00, 0x04, 0x00,
  0x0e, 0x00, 0x00, 0x00, 0x03, 0x00, 0x00, 0x00, 0x03, 0x00, 0x00, 0x00,
  0x03, 0x00, 0x00, 0x00, 0x03, 0x00, 0x00, 0x00, 0x00, 0x00, 0x00, 0x01,
  0x01, 0x00, 0x00, 0x00, 0x0b, 0x00, 0x00, 0x00, 0x01, 0x00, 0x00, 0x00,
  0x0a, 0x00, 0x00, 0x00, 0x2c, 0xff, 0xff, 0xff, 0x11, 0x00, 0x00, 0x00,
  0x00, 0x00, 0x00, 0x11, 0x01, 0x00, 0x00, 0x00, 0x10, 0xd4, 0xff, 0xff,
  0x14, 0x00, 0x00, 0x00, 0x0c, 0x00, 0x00, 0x00, 0x20, 0x00, 0x00, 0x00,
  0x58, 0x00, 0x00, 0x00, 0x40, 0x00, 0x00, 0x00, 0x04, 0x00, 0x00, 0x00,
  0x01, 0x00, 0x00, 0x00, 0x15, 0x00, 0x00, 0x00, 0x01, 0x00, 0x00, 0x00,
  0x08, 0x00, 0x00, 0x00, 0x20, 0x00, 0x00, 0x00, 0x73, 0x65, 0x71, 0x75,
  0x65, 0x6e, 0x74, 0x69, 0x61, 0x6c, 0x2f, 0x6d, 0x61, 0x78, 0x5f, 0x70,
  0x6f, 0x6f, 0x6c, 0x69, 0x6e, 0x67, 0x32, 0x64, 0x2f, 0x4d, 0x61, 0x78,
  0x50, 0x6f, 0x6f, 0x6c, 0x00, 0x00, 0x00, 0x00, 0x04, 0x00, 0x00, 0x00,
  0xff, 0xff, 0xff, 0xff, 0x15, 0x00, 0x00, 0x00, 0x01, 0x00, 0x00, 0x00,
  0x08, 0x00, 0x00, 0x00, 0x1c, 0xd5, 0xff, 0xff, 0x00, 0x00, 0x0e, 0x00,
  0x14, 0x00, 0x00, 0x00, 0x08, 0x00, 0x0c, 0x00, 0x07, 0x00, 0x10, 0x00,
  0x0e, 0x00, 0x00, 0x00, 0x00, 0x00, 0x00, 0x01, 0x30, 0x00, 0x00, 0x00,
  0x24, 0x00, 0x00, 0x00, 0x10, 0x00, 0x00, 0x00, 0x0c, 0x00, 0x10, 0x00,
  0x00, 0x00, 0x04, 0x00, 0x08, 0x00, 0x0f, 0x00, 0x0c, 0x00, 0x00, 0x00,
  0x01, 0x00, 0x00, 0x00, 0x01, 0x00, 0x00, 0x00, 0x00, 0x00, 0x00, 0x01,
  0x01, 0x00, 0x00, 0x00, 0x0a, 0x00, 0x00, 0x00, 0x03, 0x00, 0x00, 0x00,
  0x00, 0x00, 0x00, 0x00, 0x08, 0x00, 0x00, 0x00, 0x01, 0x00, 0x00, 0x00,
  0x0c, 0x00, 0x10, 0x00, 0x0b, 0x00, 0x00, 0x00, 0x0c, 0x00, 0x04, 0x00,
  0x0c, 0x00, 0x00, 0x00, 0x03, 0x00, 0x00, 0x00, 0x00, 0x00, 0x00, 0x03,
  0x01, 0x00, 0x00, 0x00, 0xf0, 0xd4, 0xff, 0xff, 0x14, 0x00, 0x00, 0x00,
  0x0b, 0x00, 0x00, 0x00, 0x20, 0x00, 0x00, 0x00, 0xb0, 0x00, 0x00, 0x00,
  0x98, 0x00, 0x00, 0x00, 0x04, 0x00, 0x00, 0x00, 0x01, 0x00, 0x00, 0x00,
  0x40, 0x00, 0x00, 0x00, 0x03, 0x00, 0x00, 0x00, 0x08, 0x00, 0x00, 0x00,
  0x7b, 0x00, 0x00, 0x00, 0x73, 0x65, 0x71, 0x75, 0x65, 0x6e, 0x74, 0x69,
  0x61, 0x6c, 0x2f, 0x63, 0x6f, 0x6e, 0x76, 0x32, 0x64, 0x2f, 0x52, 0x65,
  0x6c, 0x75, 0x3b, 0x73, 0x65, 0x71, 0x75, 0x65, 0x6e, 0x74, 0x69, 0x61,
  0x6c, 0x2f, 0x63, 0x6f, 0x6e, 0x76, 0x32, 0x64, 0x2f, 0x42, 0x69, 0x61,
  0x73, 0x41, 0x64, 0x64, 0x3b, 0x73, 0x65, 0x71, 0x75, 0x65, 0x6e, 0x74,
  0x69, 0x61, 0x6c, 0x2f, 0x63, 0x6f, 0x6e, 0x76, 0x32, 0x64, 0x2f, 0x43,
  0x6f, 0x6e, 0x76, 0x32, 0x44, 0x3b, 0x73, 0x65, 0x71, 0x75, 0x65, 0x6e,
  0x74, 0x69, 0x61, 0x6c, 0x2f, 0x63, 0x6f, 0x6e, 0x76, 0x32, 0x64, 0x2f,
  0x42, 0x69, 0x61, 0x73, 0x41, 0x64, 0x64, 0x2f, 0x52, 0x65, 0x61, 0x64,
  0x56, 0x61, 0x72, 0x69, 0x61, 0x62, 0x6c, 0x65, 0x4f, 0x70, 0x2f, 0x72,
  0x65, 0x73, 0x6f, 0x75, 0x72, 0x63, 0x65, 0x00, 0x04, 0x00, 0x00, 0x00,
  0xff, 0xff, 0xff, 0xff, 0x40, 0x00, 0x00, 0x00, 0x03, 0x00, 0x00, 0x00,
  0x08, 0x00, 0x00, 0x00, 0x44, 0xd5, 0xff, 0xff, 0x4e, 0xd6, 0xff, 0xff,
  0x04, 0x00, 0x00, 0x00, 0x00, 0x08, 0x00, 0x00, 0xe6, 0xf1, 0x2f, 0x3d,
  0xdb, 0x8f, 0x56, 0xbe, 0xaf, 0x5c, 0x93, 0xbe, 0x73, 0xb0, 0x6d, 0xbe,
  0x27, 0xb1, 0x49, 0xbe, 0x5d, 0x1c, 0xd9, 0xbd, 0x91, 0x29, 0xd7, 0x3d,
  0x51, 0x26, 0xdb, 0x3e, 0xb9, 0xe1, 0x13, 0x3e, 0x21, 0x7e, 0x07, 0x3e,
  0xed, 0x36, 0x0d, 0x3e, 0xf3, 0x82, 0xf1, 0x3d, 0x10, 0xbb, 0x84, 0xbe,
  0x79, 0x24, 0xaa, 0xbe, 0xed, 0x65, 0xb4, 0xbe, 0x26, 0x02, 0x7f, 0x3e,
  0x78, 0x64, 0xca, 0xbd, 0x51, 0x75, 0x3d, 0x3e, 0xf2, 0x82, 0x39, 0x3d,
  0xa3, 0x5a, 0xc2, 0xbd, 0xe6, 0xe2, 0xd9, 0xbd, 0x79, 0x71, 0xcf, 0xbd,
  0x9b, 0xbb, 0x5a, 0x3d, 0xef, 0xd1, 0xa7, 0x3d, 0xb8, 0x9a, 0x58, 0xbd,
  0xa5, 0x53, 0xb0, 0xbd, 0x53, 0xdd, 0xde, 0x3c, 0xa0, 0x61, 0x32, 0x3d,
  0xba, 0x30, 0x13, 0x3d, 0xda, 0xc9, 0x04, 0x3e, 0x37, 0x4b, 0x27, 0x3e,
  0x36, 0x79, 0x13, 0x3e, 0xc5, 0xf7, 0x21, 0xbe, 0xb4, 0x91, 0x5a, 0xbe,
  0x03, 0xd6, 0x79, 0xbe, 0x9c, 0x9d, 0x1a, 0x3c, 0x27, 0xf3, 0x14, 0xbe,
  0xbb, 0xd6, 0x05, 0xbe, 0xdc, 0x65, 0xf8, 0xbd, 0xee, 0x9e, 0x63, 0xbe,
  0x7f, 0x47, 0x2f, 0x3d, 0xb1, 0x66, 0x99, 0x3e, 0x8f, 0x87, 0x7e, 0xbe,
  0xf2, 0x02, 0x0e, 0xbd, 0x8b, 0xc1, 0xea, 0xbd, 0x4e, 0x5b, 0x83, 0xbd,
  0xc9, 0xa0, 0x0d, 0xbd, 0x8c, 0x40, 0x41, 0xbd, 0x8e, 0x5d, 0xc5, 0xbc,
  0xb4, 0xa8, 0x5c, 0x3e, 0xa7, 0x35, 0x6b, 0xbe, 0x6b, 0xae, 0x23, 0xbc,
  0x95, 0xe9, 0x31, 0x3e, 0xd2, 0x1d, 0x74, 0x3e, 0x1e, 0x4c, 0x03, 0xbe,
  0x31, 0x1e, 0xc2, 0x3e, 0x63, 0x70, 0xd7, 0xbb, 0x99, 0xd5, 0x4b, 0xbe,
  0x35, 0x70, 0x53, 0xbb, 0xb9, 0xcc, 0x29, 0xbe, 0x45, 0x67, 0x25, 0xbc,
  0xee, 0xc1, 0xe5, 0xbc, 0xbb, 0x7f, 0x3f, 0xbe, 0xff, 0xa0, 0x9f, 0x3e,
  0xa4, 0x96, 0x44, 0x3f, 0x84, 0x5a, 0x90, 0x3e, 0x15, 0x89, 0xd0, 0xbd,
  0x04, 0x3b, 0x0c, 0x3c, 0x5d, 0x88, 0xeb, 0xbd, 0x9e, 0x20, 0x0d, 0xbe,
  0xfb, 0x4d, 0xee, 0x3d, 0x42, 0xac, 0xe3, 0xbd, 0xc6, 0xac, 0xe6, 0xbd,
  0xbb, 0x90, 0x25, 0x3e, 0xcd, 0x86, 0xc0, 0xbd, 0x32, 0x32, 0x82, 0x3b,
  0xb6, 0xac, 0x0a, 0xbd, 0xc4, 0xfe, 0x09, 0xbe, 0xc3, 0x50, 0xdb, 0x3d,
  0x97, 0x9e, 0x0a, 0xbe, 0x6d, 0x99, 0x4a, 0xbd, 0xf7, 0x94, 0x03, 0x3d,
  0x7f, 0x46, 0x16, 0xbc, 0x7e, 0xc8, 0xfc, 0x3c, 0x1d, 0x4c, 0xb7, 0xbc,
  0xc8, 0xd6, 0x5e, 0xbb, 0x01, 0x80, 0xad, 0x3d, 0xe1, 0xfa, 0x4f, 0xbe,
  0xfc, 0x08, 0xba, 0x3c, 0x41, 0x9b, 0x8f, 0xbe, 0x33, 0x38, 0xa3, 0xbd,
  0x6e, 0xa4, 0xaa, 0xbd, 0xd2, 0xad, 0x92, 0xbd, 0x8d, 0x70, 0xe4, 0x3c,
  0x35, 0xf7, 0x0f, 0xbe, 0xc1, 0xe5, 0x19, 0xbe, 0x1a, 0x80, 0x9c, 0xbc,
  0x35, 0xee, 0x63, 0x3e, 0x9a, 0xdb, 0xff, 0x3c, 0x9d, 0xa3, 0x18, 0xbe,
  0x38, 0x6d, 0x74, 0xbe, 0x17, 0x70, 0xb1, 0xbd, 0x18, 0xfc, 0x22, 0x3d,
  0xc6, 0xf2, 0x89, 0x3d, 0x36, 0x09, 0xdd, 0x3e, 0x8e, 0x00, 0x07, 0x3e,
  0x03, 0xfa, 0x5a, 0xbd, 0x42, 0x93, 0x4d, 0xbe, 0xa7, 0x9a, 0x9d, 0xbe,
  0x0c, 0xc3, 0xa4, 0xbd, 0x5c, 0x9e, 0x05, 0x3e, 0xe8, 0x7a, 0x8f, 0xbd,
  0x1c, 0xe0, 0xfe, 0x3d, 0xa9, 0xcd, 0xf4, 0x3d, 0xbf, 0x44, 0x67, 0x3e,
  0xdd, 0x71, 0xe9, 0xbd, 0x56, 0x5c, 0x3a, 0xbe, 0xa2, 0x40, 0xd9, 0xbd,
  0xcd, 0x28, 0x02, 0x3e, 0xaa, 0x89, 0xcf, 0x3e, 0xbb, 0x3e, 0x3b, 0x3e,
  0x8c, 0x8e, 0x21, 0x3d, 0xc8, 0x39, 0xdc, 0xbc, 0x17, 0x64, 0xe5, 0xbd,
  0x88, 0x00, 0xa5, 0xbe, 0x1c, 0x40, 0x3f, 0xbc, 0x95, 0x65, 0x36, 0xbe,
  0x98, 0xea, 0x0f, 0xbd, 0xf7, 0x65, 0xb2, 0x3e, 0x42, 0x2d, 0xc0, 0xbd,
  0xd8, 0xc1, 0x7a, 0xbd, 0x27, 0x15, 0x4c, 0xbe, 0xb6, 0xde, 0xc9, 0xbe,
  0x8c, 0xca, 0x0a, 0xbf, 0x9e, 0xbe, 0x04, 0x3d, 0x37, 0x3c, 0xb4, 0x3d,
  0x44, 0x9c, 0x64, 0x3e, 0xd5, 0x3a, 0x9c, 0x3e, 0x61, 0x55, 0xb9, 0x3d,
  0xaa, 0xe1, 0x88, 0x3d, 0x62, 0xb8, 0x9b, 0xbe, 0xea, 0xcc, 0x33, 0xbf,
  0x11, 0x97, 0x10, 0xbf, 0xfa, 0x56, 0x86, 0xbc, 0x69, 0xd7, 0xe8, 0xbe,
  0xe3, 0xc4, 0x47, 0x3d, 0x38, 0x4c, 0x07, 0x3e, 0xaf, 0x09, 0x63, 0x3e,
  0xf2, 0x29, 0xa4, 0xbd, 0x40, 0x82, 0xba, 0xbd, 0xa9, 0x1f, 0x3d, 0x3e,
  0x99, 0x7f, 0x5b, 0x3e, 0x89, 0xda, 0x72, 0xbe, 0x8f, 0xd7, 0xf5, 0xbe,
  0x86, 0x72, 0xb1, 0xbe, 0xdb, 0x9f, 0x29, 0xbe, 0xe1, 0xf2, 0x2c, 0x3d,
  0x6e, 0x67, 0xc1, 0x3d, 0xe3, 0x8c, 0xa2, 0x3b, 0x81, 0x75, 0xab, 0xbd,
  0x6c, 0x13, 0x82, 0xbe, 0xf3, 0x9c, 0x44, 0xbe, 0x49, 0x5b, 0x88, 0xbe,
  0x99, 0x22, 0xcc, 0xbd, 0xb3, 0xa4, 0xa0, 0xbe, 0xa8, 0x63, 0xe7, 0xbd,
  0x6a, 0x23, 0xbb, 0xbd, 0x85, 0x9a, 0xe3, 0xbe, 0xc4, 0x70, 0x03, 0xbe,
  0x47, 0xfc, 0x7e, 0xbc, 0xbb, 0x19, 0xd6, 0x3c, 0x6e, 0xbc, 0xdb, 0x3b,
  0x68, 0xef, 0x74, 0xbe, 0x4b, 0x96, 0x64, 0xbe, 0x0d, 0xeb, 0xf5, 0xbd,
  0x65, 0x13, 0x20, 0x3e, 0x23, 0xc3, 0x6c, 0x3e, 0xf5, 0x79, 0xdc, 0x3b,
  0x04, 0x5a, 0x44, 0x3a, 0x56, 0x1d, 0xe3, 0xbd, 0x10, 0xb7, 0x91, 0xbe,
  0x9e, 0xf1, 0x38, 0xbe, 0x1f, 0x99, 0x66, 0x3e, 0xcb, 0xf5, 0xda, 0x3d,
  0x38, 0x32, 0x05, 0x3f, 0xf6, 0xde, 0x7d, 0x3d, 0x3f, 0x1b, 0x02, 0x3e,
  0xaf, 0x32, 0x19, 0xbd, 0x4c, 0xe6, 0x6e, 0xbe, 0x0c, 0xcf, 0x6d, 0xbe,
  0x01, 0xcd, 0x3b, 0x3e, 0x57, 0xdd, 0x09, 0x3f, 0xa0, 0x23, 0x95, 0x3d,
  0xc2, 0xad, 0xa8, 0x3e, 0xd9, 0xae, 0x13, 0xbe, 0x70, 0x26, 0x54, 0x3d,
  0x5e, 0x82, 0x1e, 0xbd, 0x58, 0xdf, 0x68, 0xbc, 0x6f, 0x15, 0x9b, 0xbd,
  0x2c, 0x9f, 0x81, 0xbd, 0x5f, 0x55, 0x9c, 0xbd, 0x4a, 0x1b, 0x0e, 0x3f,
  0x73, 0x1f, 0x30, 0xbe, 0x7d, 0xc3, 0x85, 0x3c, 0x39, 0x17, 0xfc, 0x3c,
  0x28, 0xf6, 0xfc, 0xbc, 0x9c, 0xaa, 0x41, 0xbd, 0x3c, 0xcf, 0xcf, 0x3d,
  0xf4, 0x4a, 0x18, 0xbe, 0x63, 0x16, 0xba, 0xbe, 0xbc, 0x13, 0x25, 0x3c,
  0x09, 0x3b, 0x34, 0xbd, 0x7c, 0xc2, 0xaa, 0x3c, 0x5d, 0x7a, 0xe2, 0x3c,
  0xd4, 0x30, 0xcc, 0xbd, 0xa6, 0xc4, 0x84, 0x3e, 0xee, 0x90, 0x63, 0xbd,
  0x19, 0x48, 0xe3, 0xbe, 0x61, 0x17, 0xee, 0xbd, 0x87, 0x09, 0x30, 0xbe,
  0x62, 0xd8, 0xa0, 0xbc, 0x1b, 0xeb, 0xf2, 0xbc, 0x63, 0xbc, 0x84, 0xbb,
  0x4b, 0xb2, 0xe3, 0x3c, 0x10, 0xc2, 0xfe, 0x3d, 0x17, 0x33, 0xbe, 0x3d,
  0xad, 0x8c, 0x13, 0xbe, 0x92, 0xc3, 0x23, 0xbd, 0x3c, 0xc0, 0xd8, 0x3d,
  0x29, 0x7d, 0x5e, 0xbd, 0x26, 0xd8, 0x25, 0x3e, 0x2f, 0xd2, 0xd6, 0xbc,
  0xfd, 0xc7, 0xaa, 0x3e, 0xf7, 0xb9, 0x27, 0x3e, 0xea, 0x10, 0xcf, 0xbd,
  0x45, 0x81, 0xa4, 0xbd, 0x8c, 0x66, 0x37, 0x3e, 0x8a, 0xfc, 0xc3, 0xbc,
  0x44, 0xfc, 0x37, 0xbe, 0xc8, 0x98, 0xcf, 0x3d, 0xc6, 0x7b, 0x0e, 0xbe,
  0xcd, 0xa6, 0xf8, 0xbc, 0xbb, 0x7e, 0x1d, 0x3e, 0x63, 0x20, 0x31, 0xbd,
  0x31, 0xc1, 0x8c, 0xbd, 0x52, 0x7e, 0x6a, 0x3e, 0x7e, 0x57, 0x81, 0xbe,
  0x19, 0x7c, 0x37, 0x3d, 0x1f, 0x11, 0xfa, 0xbc, 0xed, 0x69, 0x6a, 0x3c,
  0x30, 0x75, 0xf8, 0x3d, 0x5c, 0xb7, 0x17, 0xbe, 0xf1, 0xfa, 0xb0, 0xbd,
  0x80, 0x49, 0x08, 0xbe, 0x09, 0x77, 0xc2, 0xbb, 0x23, 0x34, 0xac, 0x3c,
  0xa0, 0xcf, 0x49, 0x3e, 0x2e, 0x4c, 0x34, 0x3e, 0x26, 0xf5, 0x3f, 0xbe,
  0xb9, 0x8b, 0x7a, 0xbe, 0xd5, 0xa0, 0xad, 0x3e, 0xb7, 0x2d, 0xfc, 0x3d,
  0xe1, 0x47, 0xc4, 0xbd, 0xcc, 0xb8, 0x95, 0x3e, 0x74, 0x85, 0x88, 0xbe,
  0x4f, 0x39, 0x84, 0xbe, 0xde, 0x2a, 0x80, 0xbe, 0x86, 0xdb, 0x94, 0xbe,
  0x23, 0xd9, 0xe7, 0xbd, 0x17, 0x22, 0x15, 0xbe, 0xa1, 0x2b, 0x2f, 0xbe,
  0x4b, 0x63, 0xa4, 0x3e, 0x66, 0x37, 0x1a, 0xbe, 0x1f, 0x29, 0x23, 0xbe,
  0x5a, 0x19, 0x28, 0xbe, 0x31, 0x5a, 0x04, 0x3d, 0xc7, 0xfc, 0x3b, 0xbe,
  0x8e, 0x6b, 0xc4, 0xbe, 0x15, 0x61, 0xfa, 0x3c, 0x43, 0x51, 0x9d, 0x3e,
  0x0b, 0xa3, 0x8a, 0xbc, 0x76, 0x50, 0x11, 0xbe, 0xa1, 0x8b, 0xea, 0xbd,
  0xb0, 0xc7, 0x5e, 0x3e, 0x85, 0xfc, 0x72, 0xbe, 0x00, 0x65, 0xdf, 0xbe,
  0x5a, 0xb1, 0x11, 0x3e, 0x66, 0x9e, 0x92, 0x3e, 0x89, 0x5c, 0xfb, 0x3e,
  0x7b, 0x53, 0x89, 0xbd, 0xb5, 0x46, 0x37, 0xbe, 0xa0, 0x77, 0x86, 0xbd,
  0xf7, 0x85, 0x98, 0xbe, 0x0b, 0x2b, 0xe7, 0xbe, 0x2e, 0xf8, 0x22, 0xbe,
  0x35, 0xdc, 0xd2, 0x3c, 0x3d, 0xf8, 0xbe, 0xbe, 0x47, 0x81, 0x32, 0x3e,
  0x51, 0xba, 0xc5, 0xbc, 0xef, 0x48, 0xda, 0xbd, 0xc1, 0x13, 0x46, 0xbe,
  0x6b, 0xd9, 0x8f, 0xbe, 0x32, 0x42, 0x28, 0xbe, 0x87, 0x9e, 0x09, 0x3e,
  0x7c, 0x3d, 0xb5, 0xbe, 0x13, 0x81, 0xf1, 0xbd, 0xfd, 0xd6, 0x86, 0x3d,
  0x97, 0x09, 0xc8, 0x3e, 0x82, 0xdd, 0x79, 0xbc, 0x5d, 0x03, 0x8c, 0xbd,
  0xdc, 0x5d, 0x48, 0xbd, 0xeb, 0x00, 0x82, 0x3e, 0x4b, 0x7f, 0xb4, 0xbe,
  0x01, 0x2d, 0x01, 0x3e, 0xa0, 0x98, 0x41, 0xbe, 0x46, 0xd3, 0xd2, 0xbd,
  0x9f, 0xaa, 0x16, 0xbd, 0xae, 0x72, 0xee, 0x3d, 0x4c, 0xc1, 0x8a, 0xbd,
  0xde, 0x67, 0x11, 0x3d, 0xa4, 0x7b, 0xe7, 0xbd, 0x74, 0x36, 0xe1, 0xbe,
  0xc5, 0x29, 0x08, 0xbe, 0xe0, 0x5e, 0xf3, 0xbe, 0x54, 0xa6, 0xc9, 0xbe,
  0x9c, 0xfc, 0x4a, 0xbe, 0xc7, 0x3d, 0x00, 0xbf, 0xd8, 0x19, 0x44, 0xbe,
  0x7a, 0x55, 0x3c, 0x3c, 0xd5, 0xe5, 0x82, 0xbe, 0xc5, 0x02, 0x98, 0xbe,
  0x9d, 0x22, 0x88, 0x3e, 0xad, 0xc0, 0xb3, 0xbc, 0x54, 0x4d, 0x33, 0xbd,
  0xae, 0x3d, 0x84, 0xbd, 0x17, 0x33, 0xfa, 0x3d, 0xce, 0xdb, 0x91, 0xbe,
  0x12, 0x07, 0x32, 0xbd, 0x0a, 0xbd, 0x38, 0xbd, 0xe3, 0xfc, 0x9a, 0xbd,
  0xa8, 0x39, 0x3a, 0x3d, 0x56, 0x39, 0xd3, 0xbd, 0x44, 0x6b, 0x30, 0xbe,
  0x99, 0xcc, 0xd1, 0xbe, 0xba, 0x5e, 0xb3, 0x3c, 0x74, 0x0a, 0xf3, 0x3d,
  0xba, 0x72, 0x34, 0x3e, 0xbd, 0xde, 0x50, 0xbc, 0x3b, 0x41, 0xed, 0x3d,
  0x95, 0xba, 0x08, 0x3c, 0x07, 0x6f, 0x02, 0xbe, 0x59, 0xa9, 0xae, 0xbd,
  0xe1, 0xdc, 0x47, 0xbd, 0x90, 0x4e, 0x81, 0xbe, 0xfe, 0x7f, 0x39, 0xbd,
  0x10, 0xc5, 0x86, 0xbc, 0x7d, 0xb3, 0x8a, 0xbe, 0x23, 0x1c, 0x90, 0xbe,
  0x1c, 0x39, 0xbd, 0xbd, 0x69, 0x8f, 0xb7, 0xbe, 0x1c, 0x70, 0x05, 0xbe,
  0x0f, 0xf4, 0x14, 0x3e, 0xca, 0xeb, 0x00, 0xbe, 0x51, 0xa4, 0x84, 0x3c,
  0x23, 0x35, 0x8d, 0x3d, 0xb0, 0xf0, 0xb4, 0xbc, 0x69, 0x25, 0x0c, 0x3d,
  0x7a, 0x54, 0xe1, 0xbd, 0x56, 0x14, 0xa0, 0x3d, 0xd8, 0x7e, 0xb6, 0xbe,
  0x6c, 0x25, 0x20, 0xbe, 0x89, 0xd3, 0xe2, 0xbd, 0xbe, 0x0b, 0x14, 0xbe,
  0x35, 0xe6, 0xee, 0x3d, 0xc1, 0x28, 0xc2, 0xbd, 0xed, 0x30, 0xb4, 0x3d,
  0x8f, 0x1e, 0xff, 0x3e, 0x0b, 0xea, 0xa4, 0x3c, 0x3f, 0xe2, 0x05, 0xbd,
  0x65, 0x2e, 0xf4, 0x3d, 0x2a, 0x62, 0xbd, 0xbd, 0xfd, 0x1f, 0x14, 0xbe,
  0x0d, 0xc4, 0x0e, 0xbc, 0x80, 0x7c, 0xb8, 0x3d, 0xca, 0xa1, 0x22, 0xbd,
  0x0d, 0xf8, 0x28, 0x3e, 0xa0, 0x24, 0x46, 0x3e, 0xd2, 0x42, 0x96, 0x3e,
  0xfa, 0xfc, 0xd2, 0xbd, 0x8b, 0x63, 0x19, 0xbe, 0xa0, 0x89, 0x13, 0xbe,
  0x22, 0x34, 0x7f, 0xbd, 0x62, 0x29, 0x90, 0xbe, 0xc6, 0x87, 0x09, 0xbc,
  0xbb, 0x25, 0x29, 0xbe, 0x7a, 0x61, 0x79, 0xbe, 0x17, 0xa8, 0xe5, 0x3c,
  0x9f, 0xff, 0xe0, 0xbd, 0x5a, 0xd5, 0xba, 0x3e, 0x63, 0x1d, 0x49, 0x3e,
  0x7a, 0xfc, 0x4b, 0x3d, 0x12, 0x5b, 0xdd, 0xbe, 0xac, 0x26, 0xc7, 0xbe,
  0x12, 0x8e, 0x0a, 0xbe, 0x6c, 0x35, 0x2b, 0xbd, 0xf7, 0xfa, 0xf9, 0xbd,
  0x8b, 0xce, 0x89, 0xbd, 0xfd, 0x2e, 0x0a, 0x3b, 0x9e, 0x7e, 0x9b, 0x3e,
  0x3b, 0x99, 0xae, 0xbd, 0xbe, 0xcf, 0xe7, 0xbe, 0x95, 0xf8, 0x03, 0xbe,
  0xed, 0xff, 0xde, 0xbd, 0xc4, 0x72, 0x52, 0x3d, 0x97, 0x49, 0xec, 0xbd,
  0x7b, 0x9d, 0x25, 0x3e, 0x3d, 0x80, 0x38, 0xbb, 0x0a, 0xda, 0x10, 0xbc,
  0x20, 0xe4, 0xd7, 0x3c, 0x21, 0x70, 0xc5, 0x3d, 0x97, 0x6b, 0x8a, 0x3d,
  0xaa, 0xce, 0x45, 0x3c, 0x79, 0x73, 0xbc, 0x3d, 0x1d, 0x5f, 0x8f, 0x3d,
  0x91, 0x12, 0x93, 0x3b, 0xe4, 0x90, 0xbd, 0x3d, 0x0e, 0x1b, 0x36, 0x3e,
  0x80, 0xd2, 0x07, 0x3e, 0x95, 0xd4, 0x4a, 0xbd, 0x20, 0x4f, 0x81, 0xbd,
  0x48, 0x77, 0xe1, 0x3d, 0x57, 0x22, 0xb6, 0xbd, 0x3e, 0xd6, 0xa2, 0x3d,
  0xad, 0x54, 0x66, 0xbe, 0xde, 0x32, 0xc1, 0x3d, 0x76, 0xe9, 0x04, 0x3d,
  0x7d, 0x43, 0xb1, 0x3d, 0x0e, 0x67, 0x3c, 0xbd, 0x3e, 0x62, 0xa8, 0xbd,
  0x9d, 0xd4, 0x7b, 0xbe, 0x38, 0x4d, 0x8a, 0xbb, 0x7a, 0xb5, 0x38, 0xbe,
  0x6f, 0x2a, 0x48, 0xbd, 0xdf, 0xa1, 0x3e, 0x3d, 0xe6, 0x82, 0x5a, 0x3e,
  0x51, 0x4c, 0x96, 0x3d, 0xa6, 0xb3, 0xac, 0xbd, 0x20, 0xe0, 0xd5, 0xbe,
  0x0a, 0x88, 0xa8, 0x3e, 0x9d, 0x53, 0x4c, 0x3e, 0x67, 0xd4, 0x0d, 0xbe,
  0x67, 0x54, 0x81, 0xbd, 0x6e, 0xd4, 0x5d, 0x3e, 0x4e, 0x20, 0x81, 0x3e,
  0x1a, 0x75, 0xc9, 0xbd, 0xcc, 0x38, 0xae, 0x3e, 0xbd, 0xf1, 0x30, 0xbe,
  0x02, 0xe4, 0x6f, 0xbe, 0xae, 0x91, 0x02, 0xbe, 0x82, 0x98, 0x96, 0xbe,
  0x37, 0x3e, 0xcc, 0xbc, 0x69, 0xd2, 0x83, 0xbd, 0xdf, 0x3f, 0x2e, 0xbe,
  0x0c, 0x91, 0xb8, 0x3e, 0xc4, 0x1f, 0x31, 0xbd, 0xda, 0x2c, 0x52, 0xbd,
  0x9a, 0x8a, 0xfa, 0xbd, 0xa4, 0x42, 0x4d, 0xbe, 0x7c, 0xde, 0x7b, 0xbd,
  0xa6, 0x3a, 0x3f, 0xbe, 0xe6, 0x4d, 0x77, 0x3d, 0x66, 0x82, 0x1f, 0x3e,
  0x58, 0xc1, 0x57, 0xbe, 0x30, 0xa5, 0xbf, 0xbd, 0x7a, 0x37, 0x07, 0xbe,
  0xfd, 0x0e, 0x14, 0xbc, 0x22, 0xc9, 0x1e, 0xbe, 0x70, 0x94, 0x8a, 0xbe,
  0x9a, 0xca, 0x4d, 0xbe, 0xac, 0x43, 0x5d, 0x3e, 0x46, 0x03, 0x87, 0x3c,
  0x34, 0x7f, 0x5a, 0xbe, 0x6c, 0x33, 0xdc, 0xbd, 0x42, 0x4c, 0x73, 0xbe,
  0xf5, 0x88, 0xe6, 0xbe, 0x37, 0x72, 0x97, 0xbe, 0x96, 0x43, 0x19, 0xbd,
  0xaf, 0xed, 0x6c, 0xbe, 0xfa, 0x56, 0xb8, 0x3e, 0xc4, 0x44, 0x07, 0x3e,
  0xe4, 0x95, 0x57, 0xbe, 0x2d, 0xa3, 0x79, 0xbe, 0xbe, 0x1e, 0x09, 0xbf,
  0xa4, 0x0e, 0x0d, 0xbf, 0x94, 0xb6, 0xe4, 0x3c, 0x98, 0x08, 0x65, 0xbd,
  0xc6, 0xf8, 0x0b, 0xbe, 0xb3, 0xcb, 0x2a, 0x3e, 0x35, 0x86, 0x8d, 0x3e,
  0x0b, 0xcf, 0xde, 0x3d, 0x07, 0x41, 0x89, 0xbd, 0xa5, 0x62, 0xb5, 0xbe,
  0x44, 0x95, 0xa9, 0xbe, 0x39, 0x67, 0x74, 0x3e, 0x4a, 0x98, 0xa9, 0xbe,
  0xf6, 0x71, 0x04, 0x3e, 0x9f, 0xe8, 0x28, 0xbc, 0x1a, 0x2c, 0xf5, 0x3d,
  0xa5, 0xcc, 0xd6, 0xba, 0xd0, 0xde, 0xd7, 0x3c, 0xa0, 0xb0, 0x42, 0x3e,
  0xe9, 0x27, 0x31, 0x3e, 0x26, 0xde, 0xff, 0xff, 0x10, 0x00, 0x00, 0x00,
  0x0a, 0x00, 0x00, 0x00, 0x1c, 0x00, 0x00, 0x00, 0x38, 0x00, 0x00, 0x00,
  0x04, 0x00, 0x00, 0x00, 0x10, 0x00, 0x00, 0x00, 0x04, 0x00, 0x00, 0x00,
  0x01, 0x00, 0x00, 0x00, 0x08, 0x00, 0x00, 0x00, 0x1a, 0x00, 0x00, 0x00,
  0x73, 0x65, 0x71, 0x75, 0x65, 0x6e, 0x74, 0x69, 0x61, 0x6c, 0x2f, 0x63,
  0x6f, 0x6e, 0x76, 0x32, 0x64, 0x5f, 0x31, 0x2f, 0x43, 0x6f, 0x6e, 0x76,
  0x32, 0x44, 0x00, 0x00, 0x9c, 0xdd, 0xff, 0xff, 0xa6, 0xde, 0xff, 0xff,
  0x04, 0x00, 0x00, 0x00, 0x80, 0x01, 0x00, 0x00, 0xc8, 0x75, 0x5b, 0xbc,
  0x26, 0x79, 0x4e, 0x3c, 0x78, 0x4a, 0x2f, 0xbd, 0xa7, 0xdb, 0x05, 0xbd,
  0x7e, 0x6c, 0xb3, 0xbe, 0x94, 0x66, 0xc9, 0xbe, 0x30, 0x8c, 0x90, 0xbd,
  0xe9, 0x7e, 0xe0, 0x3e, 0xf8, 0x01, 0x24, 0x3e, 0x1a, 0x43, 0x2a, 0x3e,
  0xdc, 0xb9, 0x62, 0x3c, 0x6f, 0x06, 0xb7, 0x3e, 0xea, 0x25, 0x13, 0x3d,
  0xf9, 0x9b, 0xd4, 0xbb, 0x76, 0xce, 0xf2, 0xbb, 0xcb, 0x23, 0xdf, 0x3e,
  0xc1, 0x58, 0x1b, 0x3e, 0x3c, 0x4b, 0x30, 0x3e, 0x33, 0x85, 0xdb, 0xbd,
  0x91, 0x7b, 0x1c, 0x3d, 0x3d, 0x07, 0xd6, 0x3d, 0x62, 0xf7, 0xab, 0xbe,
  0x64, 0xeb, 0x1e, 0xbe, 0xb9, 0x1e, 0x5f, 0xbe, 0xeb, 0xc5, 0xb7, 0x3d,
  0xc3, 0x58, 0x50, 0x3e, 0x28, 0xb2, 0x4d, 0x3e, 0xfb, 0x17, 0xcc, 0xbc,
  0x0e, 0xaa, 0xca, 0x3d, 0xd5, 0xaa, 0xa8, 0xbd, 0xf3, 0x3a, 0x9b, 0x3c,
  0xb5, 0x8e, 0xb4, 0xbe, 0xde, 0x23, 0x95, 0x3e, 0x7e, 0xad, 0x8b, 0x3d,
  0x5d, 0x43, 0x4a, 0x3e, 0x00, 0x8b, 0x87, 0xbe, 0x34, 0x77, 0x16, 0x3e,
  0xe7, 0xf4, 0x7f, 0x3e, 0x1b, 0x42, 0x87, 0x3e, 0x5f, 0x03, 0xae, 0xbc,
  0x08, 0x90, 0xa1, 0xbd, 0xc2, 0x63, 0x45, 0x3d, 0x38, 0xfc, 0x7d, 0x3d,
  0xeb, 0xaa, 0x5a, 0xbc, 0x9d, 0x6f, 0x94, 0x3d, 0xb8, 0x1d, 0x51, 0x3d,
  0xc5, 0x69, 0x8d, 0xbe, 0x7c, 0x5d, 0x59, 0xbe, 0x9d, 0x58, 0x7a, 0x3d,
  0x7c, 0x50, 0x15, 0xbe, 0xbe, 0xe5, 0x01, 0x3e, 0xf9, 0x50, 0x76, 0xbc,
  0xd7, 0x42, 0x9d, 0xbd, 0x85, 0xa8, 0x12, 0x3e, 0x44, 0x11, 0x0f, 0xbe,
  0x5c, 0xb4, 0x0b, 0x3d, 0xad, 0x36, 0x8d, 0x3d, 0x0d, 0x60, 0xac, 0xbd,
  0x6d, 0x51, 0xab, 0x3d, 0x53, 0x5c, 0x76, 0x3c, 0x96, 0x74, 0x5e, 0xbd,
  0x50, 0x84, 0x43, 0x3e, 0xcb, 0xe7, 0xb0, 0xbe, 0x2e, 0xff, 0x18, 0xbd,
  0x62, 0xa8, 0xe1, 0xbd, 0xa5, 0x97, 0x25, 0x3d, 0x22, 0x36, 0xe3, 0x3d,
  0xaf, 0xc8, 0x14, 0xbe, 0xc4, 0x58, 0x0d, 0x3d, 0x52, 0x43, 0xd6, 0xbd,
  0x0c, 0xdb, 0xdc, 0xbd, 0x94, 0x50, 0x0d, 0x3d, 0x6c, 0xbb, 0x14, 0x3d,
  0x43, 0xe5, 0x5d, 0xbd, 0xe9, 0xd4, 0xb2, 0x3e, 0x9b, 0xf9, 0x3e, 0xbd,
  0x61, 0xb4, 0x66, 0xbd, 0x16, 0xbc, 0x3a, 0xbe, 0x3d, 0xc8, 0x9d, 0xba,
  0xcc, 0x33, 0x8a, 0xbd, 0x81, 0x38, 0x4f, 0xbe, 0x3d, 0x29, 0x39, 0x3e,
  0xb6, 0x79, 0xbc, 0x3d, 0x4e, 0x61, 0xb7, 0xbd, 0x3b, 0x8b, 0xdd, 0xbe,
  0x5a, 0x75, 0x18, 0x3e, 0xd0, 0x1a, 0x39, 0x3e, 0xa6, 0xb6, 0xa2, 0xbd,
  0xc1, 0x56, 0x13, 0x3e, 0xdc, 0x30, 0xa9, 0x3d, 0x6b, 0x9d, 0xd6, 0x3e,
  0x7e, 0x26, 0x88, 0xbe, 0xa5, 0x6e, 0x77, 0xbe, 0xc9, 0x60, 0xbd, 0x3d,
  0x7d, 0x23, 0x1c, 0xbc, 0xee, 0x67, 0x02, 0xbc, 0xfe, 0xdf, 0xff, 0xff,
  0x10, 0x00, 0x00, 0x00, 0x09, 0x00, 0x00, 0x00, 0x1c, 0x00, 0x00, 0x00,
  0x38, 0x00, 0x00, 0x00, 0x04, 0x00, 0x00, 0x00, 0x08, 0x00, 0x00, 0x00,
  0x04, 0x00, 0x00, 0x00, 0x03, 0x00, 0x00, 0x00, 0x01, 0x00, 0x00, 0x00,
  0x18, 0x00, 0x00, 0x00, 0x73, 0x65, 0x71, 0x75, 0x65, 0x6e, 0x74, 0x69,
  0x61, 0x6c, 0x2f, 0x63, 0x6f, 0x6e, 0x76, 0x32, 0x64, 0x2f, 0x43, 0x6f,
  0x6e, 0x76, 0x32, 0x44, 0x00, 0x00, 0x00, 0x00, 0x74, 0xdf, 0xff, 0xff,
  0x7e, 0xe0, 0xff, 0xff, 0x04, 0x00, 0x00, 0x00, 0xc0, 0x00, 0x00, 0x00,
  0x2a, 0xee, 0x01, 0xbe, 0x97, 0x3c, 0x9e, 0x3e, 0x5e, 0x02, 0xa2, 0x3e,
  0xea, 0x87, 0xff, 0x3e, 0x9e, 0x86, 0x7e, 0x3e, 0x1e, 0x5f, 0x58, 0xbe,
  0x9d, 0xc5, 0xa7, 0x3e, 0x5f, 0x9e, 0xa8, 0xbd, 0x73, 0x65, 0xa4, 0x3d,
  0x03, 0x5e, 0x78, 0xbd, 0x9e, 0x87, 0xa9, 0x3d, 0x25, 0x69, 0x9d, 0x3e,
  0xb1, 0xd7, 0x70, 0xbe, 0xd2, 0xfd, 0x08, 0xbf, 0x35, 0x68, 0x90, 0x3e,
  0x18, 0x16, 0x1d, 0x3c, 0x13, 0x43, 0xa0, 0x3e, 0x4a, 0xd5, 0xff, 0xbe,
  0x75, 0xa7, 0xb9, 0x3e, 0x16, 0xd8, 0x3d, 0x3e, 0x81, 0x3c, 0xeb, 0x3d,
  0x0f, 0x1a, 0x47, 0xbe, 0x03, 0xf3, 0xd0, 0xbe, 0xf8, 0x27, 0xea, 0xbd,
  0xee, 0x2a, 0x00, 0x3e, 0xf4, 0x72, 0x7b, 0xbd, 0xd9, 0xde, 0x1b, 0x3e,
  0xd4, 0xa3, 0xa4, 0xbe, 0xb5, 0x10, 0x7e, 0xbe, 0xdb, 0xf4, 0x1b, 0x3e,
  0x5f, 0xac, 0xad, 0x3e, 0x71, 0xf6, 0xf1, 0x3d, 0x6f, 0x23, 0xac, 0x3e,
  0xc4, 0x62, 0x38, 0xbc, 0xc0, 0xc2, 0x81, 0x3e, 0x61, 0xa0, 0x2a, 0xbf,
  0x14, 0x16, 0x2c, 0x3e, 0x22, 0x17, 0xa0, 0xbe, 0xf3, 0x39, 0x51, 0xbf,
  0xd6, 0x7c, 0x23, 0xbe, 0x0f, 0xd0, 0x18, 0x3d, 0x58, 0x7f, 0x0b, 0x3d,
  0xea, 0xe7, 0xdb, 0x3d, 0x8d, 0xe5, 0x58, 0xbf, 0xf5, 0xd4, 0x9a, 0xbe,
  0x98, 0x2d, 0xe3, 0x3e, 0x04, 0x6b, 0xc4, 0x3e, 0xe6, 0x95, 0x91, 0x3d,
  0x16, 0xe1, 0xff, 0xff, 0x10, 0x00, 0x00, 0x00, 0x08, 0x00, 0x00, 0x00,
  0x14, 0x00, 0x00, 0x00, 0x30, 0x00, 0x00, 0x00, 0x02, 0x00, 0x00, 0x00,
  0x03, 0x00, 0x00, 0x00, 0x10, 0x00, 0x00, 0x00, 0x19, 0x00, 0x00, 0x00,
  0x73, 0x65, 0x71, 0x75, 0x65, 0x6e, 0x74, 0x69, 0x61, 0x6c, 0x2f, 0x64,
  0x65, 0x6e, 0x73, 0x65, 0x5f, 0x31, 0x2f, 0x4d, 0x61, 0x74, 0x4d, 0x75,
  0x6c, 0x00, 0x00, 0x00, 0x84, 0xe0, 0xff, 0xff, 0x8e, 0xe1, 0xff, 0xff,
  0x04, 0x00, 0x00, 0x00, 0x00, 0x1c, 0x00, 0x00, 0x7b, 0xe3, 0x35, 0xbe,
  0x31, 0x00, 0x5f, 0xbe, 0x79, 0x3b, 0x98, 0xbd, 0x9a, 0xda, 0xe8, 0x3d,
  0xb7, 0x5c, 0x2a, 0xbe, 0xa6, 0xe0, 0x83, 0xbd, 0x11, 0x9e, 0xa6, 0xbc,
  0xc3, 0xc4, 0x19, 0xbe, 0xfa, 0x65, 0x41, 0xbc, 0x3e, 0x6d, 0x9d, 0xbe,
  0xda, 0xd7, 0x35, 0xbe, 0x04, 0x8c, 0x58, 0x3e, 0x19, 0x57, 0x7d, 0xbd,
  0x30, 0x86, 0x00, 0x3d, 0x73, 0x0e, 0x27, 0xbd, 0x39, 0xea, 0x3f, 0xbd,
  0x29, 0xa8, 0xaf, 0xbd, 0x48, 0x32, 0x07, 0x3d, 0x62, 0x59, 0x01, 0x3f,
  0x69, 0x85, 0xb7, 0x3d, 0x07, 0xde, 0x87, 0x3e, 0xdf, 0x4a, 0xab, 0xbc,
  0x8d, 0x39, 0x45, 0x3e, 0xed, 0x91, 0x7e, 0xbd, 0xad, 0x57, 0x13, 0xbe,
  0x4b, 0xd1, 0x34, 0xbd, 0x38, 0x64, 0xe7, 0xbd, 0x35, 0x5c, 0x3c, 0xbd,
  0x0f, 0x29, 0xf4, 0xbc, 0x27, 0x5e, 0x33, 0xbe, 0x7c, 0x65, 0x13, 0xbe,
  0xe2, 0xd5, 0x2e, 0xbd, 0x08, 0xc3, 0x27, 0x3e, 0xdb, 0x04, 0xd9, 0x3d,
  0x2a, 0x36, 0xab, 0x3e, 0xe8, 0x52, 0xfb, 0x3e, 0x4d, 0x09, 0x42, 0xbd,
  0x22, 0x3b, 0xb2, 0x3d, 0x00, 0x17, 0x93, 0x3d, 0x18, 0x1b, 0x12, 0x3e,
  0x07, 0x66, 0x83, 0xbd, 0x65, 0xf7, 0x57, 0xbd, 0xb8, 0x2e, 0x18, 0x3e,
  0xb2, 0x3f, 0xca, 0x3d, 0x89, 0x01, 0x8a, 0x3e, 0x5f, 0xd0, 0xbb, 0xbd,
  0x52, 0x5f, 0x84, 0xbe, 0xaa, 0x3f, 0xab, 0x3e, 0xc3, 0x5c, 0xbd, 0x3d,
  0x1b, 0x2c, 0xd0, 0xbc, 0x98, 0x92, 0x2d, 0x3e, 0xe9, 0xa7, 0x98, 0x3e,
  0x30, 0xed, 0xfa, 0xbc, 0xba, 0x4a, 0x41, 0x3d, 0xef, 0xea, 0x85, 0x3e,
  0xad, 0x61, 0x33, 0xbe, 0xfd, 0xee, 0xe2, 0xbd, 0x0b, 0xd9, 0x93, 0xbd,
  0xb1, 0x65, 0xee, 0x3d, 0xa4, 0x11, 0x29, 0xbe, 0xe2, 0x07, 0x71, 0x3d,
  0xb3, 0x81, 0xa2, 0xbd, 0xd2, 0x39, 0xfb, 0xbd, 0x6e, 0xad, 0x2f, 0xbe,
  0xf7, 0x6c, 0x48, 0x3e, 0x00, 0x41, 0x5a, 0xbd, 0x78, 0x83, 0x9d, 0x3e,
  0x38, 0x9d, 0x73, 0x3d, 0x32, 0x36, 0x05, 0x3d, 0x0d, 0x07, 0x21, 0x3e,
  0x43, 0x0d, 0xd6, 0x3d, 0xb4, 0xf6, 0x6c, 0xbe, 0x06, 0xe5, 0xc5, 0xbd,
  0x2d, 0x23, 0x18, 0xbc, 0x4f, 0xa9, 0xc0, 0x3d, 0x82, 0x5e, 0xd1, 0xbc,
  0x85, 0x4e, 0xad, 0xbd, 0x4c, 0xe6, 0x3b, 0xbe, 0x70, 0x65, 0x64, 0xbe,
  0xdd, 0xd9, 0x48, 0x3c, 0x2c, 0x94, 0x86, 0xbe, 0x4d, 0x29, 0xdb, 0x3c,
  0xbf, 0x03, 0x99, 0x3e, 0x42, 0x39, 0xa4, 0x3e, 0x82, 0x6c, 0xcb, 0xbd,
  0xd5, 0xec, 0x56, 0x3e, 0xa0, 0x16, 0x7a, 0xbd, 0x9f, 0x6d, 0xc6, 0xbd,
  0xaa, 0xd1, 0x30, 0xbe, 0x4f, 0x13, 0x2b, 0xbe, 0x05, 0xc3, 0x61, 0xbd,
  0x8f, 0x03, 0x1d, 0xbe, 0xeb, 0x3c, 0x37, 0x3c, 0xec, 0x89, 0x65, 0xbe,
  0x68, 0xcf, 0xc6, 0xbd, 0xa6, 0x2d, 0x3a, 0xbe, 0x42, 0xf1, 0xe2, 0xbc,
  0x84, 0x96, 0xdc, 0xbd, 0xcb, 0xfa, 0x2f, 0xbe, 0xb8, 0x31, 0x42, 0x3d,
  0x7b, 0x40, 0xde, 0xbc, 0xd9, 0xda, 0x42, 0x3d, 0xb2, 0x0d, 0xf3, 0xbb,
  0xa1, 0x1a, 0x33, 0xbe, 0xe4, 0x23, 0xac, 0xbd, 0x67, 0x55, 0x8a, 0x3d,
  0x97, 0x96, 0xb1, 0x3c, 0x3d, 0xa3, 0x0b, 0xbe, 0xfb, 0x89, 0x96, 0x3d,
  0x5a, 0x37, 0x79, 0xbe, 0xef, 0xaf, 0xed, 0xbd, 0x30, 0x33, 0xd8, 0xbd,
  0xac, 0x5d, 0x20, 0xbd, 0x8a, 0xa8, 0xba, 0xbc, 0x46, 0x72, 0x29, 0x3c,
  0x23, 0x55, 0xa5, 0xbd, 0x89, 0x4c, 0x25, 0x3d, 0xb8, 0x95, 0x5f, 0xbe,
  0x71, 0xd0, 0x7d, 0xbd, 0x5d, 0x9b, 0x51, 0xbd, 0xe2, 0x55, 0xbe, 0xbd,
  0xc9, 0x31, 0xa6, 0xbe, 0x62, 0xf1, 0xa5, 0x3d, 0x86, 0xa7, 0x9f, 0xbc,
  0xca, 0xce, 0x62, 0x3c, 0x36, 0x8b, 0xf1, 0xbd, 0x01, 0xb6, 0xf2, 0xbc,
  0x9a, 0xa9, 0x24, 0x3e, 0x8c, 0xa9, 0x81, 0xbe, 0xd2, 0x24, 0xfc, 0xbd,
  0xb4, 0x4f, 0xc4, 0xbc, 0x4e, 0x32, 0x79, 0xbe, 0x9b, 0x76, 0xfd, 0xbd,
  0x76, 0x31, 0x2b, 0xbe, 0xd2, 0x4b, 0x7e, 0xbd, 0x63, 0xdc, 0x3e, 0xbe,
  0x30, 0x44, 0x6d, 0x3d, 0x26, 0xcb, 0x9e, 0xbe, 0xc5, 0x64, 0x24, 0x3e,
  0xf8, 0x77, 0xe5, 0xbd, 0x19, 0x74, 0x18, 0xbd, 0xf8, 0x6f, 0x58, 0xbe,
  0xc4, 0x21, 0x34, 0xbd, 0x15, 0x71, 0xf5, 0x3d, 0x23, 0xe9, 0x22, 0x3c,
  0xac, 0xb5, 0xe6, 0xbc, 0x4b, 0x59, 0x1f, 0xbe, 0x60, 0x49, 0x0f, 0xbe,
  0xba, 0x38, 0xe9, 0x3c, 0x8d, 0x68, 0x1c, 0xbe, 0xa0, 0xed, 0x23, 0xbe,
  0x86, 0xf3, 0x1a, 0x3d, 0x84, 0x42, 0x2c, 0xbe, 0x50, 0xf5, 0x3b, 0xbd,
  0x86, 0x3e, 0x9f, 0xbd, 0x9f, 0xf8, 0x00, 0x3e, 0x5f, 0x03, 0xb6, 0x3d,
  0x9e, 0xb9, 0x0b, 0xbe, 0x25, 0x28, 0x92, 0xbc, 0x6d, 0x5f, 0x3a, 0xbe,
  0xc1, 0x25, 0xae, 0xbe, 0x02, 0xe2, 0xf8, 0x3d, 0x02, 0x75, 0x0a, 0xbe,
  0xd2, 0x5b, 0x2e, 0x3d, 0xda, 0xa5, 0xf0, 0x3d, 0xf9, 0x6a, 0x09, 0x3e,
  0x4e, 0xa9, 0x67, 0xbd, 0x55, 0x82, 0xc9, 0xbd, 0xe0, 0xd1, 0xb5, 0x3c,
  0x77, 0x54, 0x4c, 0xbc, 0x46, 0xec, 0x11, 0xbe, 0x13, 0x8a, 0x4f, 0xbe,
  0x6e, 0x96, 0xc5, 0x3c, 0xf4, 0x96, 0x01, 0xbd, 0xae, 0x32, 0x2e, 0xbe,
  0x65, 0x51, 0xba, 0xbc, 0xe6, 0x9c, 0xac, 0xbe, 0x24, 0x83, 0x3a, 0xbc,
  0xc9, 0x84, 0x25, 0x3e, 0x46, 0xfa, 0x64, 0xbe, 0xdd, 0xb6, 0xad, 0x3c,
  0x16, 0x11, 0x9c, 0x3d, 0x86, 0x4c, 0x2f, 0xbe, 0x5c, 0x56, 0x6e, 0xbe,
  0x0f, 0x60, 0x1a, 0xbe, 0x0e, 0x1c, 0x19, 0x3d, 0xe7, 0x6c, 0x19, 0x3d,
  0xb8, 0x81, 0x53, 0xbe, 0x23, 0x61, 0x54, 0xbe, 0x1d, 0xe2, 0x97, 0xbd,
  0xe9, 0xbe, 0x85, 0xbe, 0x6c, 0x90, 0x82, 0xbd, 0x3f, 0xee, 0xe7, 0xbb,
  0x6e, 0x74, 0x35, 0xbe, 0x8b, 0xa0, 0x42, 0xbe, 0x54, 0x5e, 0x5e, 0xbe,
  0xd1, 0xad, 0x7d, 0x3d, 0x98, 0x88, 0x0e, 0xbe, 0xeb, 0x1e, 0xff, 0xbd,
  0xc1, 0xbc, 0xc0, 0xbe, 0x81, 0x7c, 0x16, 0xbe, 0x3d, 0x02, 0x90, 0xbe,
  0xa8, 0x6d, 0xf3, 0xbd, 0xb4, 0xaf, 0xa0, 0xbd, 0xe0, 0x29, 0xb5, 0x3d,
  0x22, 0xfc, 0x58, 0xbe, 0x27, 0x72, 0x1c, 0xbe, 0xf4, 0x67, 0x3f, 0x3d,
  0x54, 0x86, 0xcd, 0xbd, 0x6b, 0xf3, 0x94, 0xbe, 0x50, 0x99, 0x62, 0xbe,
  0xde, 0xdb, 0xa2, 0xbd, 0x57, 0x50, 0x51, 0xbe, 0x67, 0x74, 0x95, 0xbd,
  0x0c, 0x39, 0xb2, 0x3d, 0x93, 0x38, 0x8b, 0xbe, 0x9c, 0xf4, 0xb5, 0xbd,
  0x30, 0xe5, 0x32, 0xbc, 0x33, 0x4a, 0x18, 0xbd, 0xfa, 0xd3, 0xb9, 0x3d,
  0xd1, 0xe2, 0x3f, 0x3b, 0x95, 0xb8, 0x8e, 0xbe, 0x4d, 0x3a, 0xd3, 0x3c,
  0xaa, 0xb7, 0x4a, 0x3e, 0xa6, 0x64, 0xb7, 0xbd, 0x00, 0x2e, 0xac, 0xbd,
  0xda, 0x6b, 0x25, 0xbe, 0x1d, 0x08, 0x84, 0xbd, 0x96, 0x98, 0xaf, 0xbd,
  0x44, 0xea, 0x1c, 0xbc, 0x7b, 0x8c, 0xaa, 0xbe, 0x91, 0x85, 0xa5, 0xbe,
  0x44, 0x8a, 0xa7, 0xbd, 0x08, 0xf9, 0x2c, 0xbe, 0xdb, 0xef, 0xa3, 0xbe,
  0x99, 0xd3, 0x25, 0xbe, 0xc1, 0x85, 0x8b, 0xbe, 0xea, 0xc4, 0x87, 0xbe,
  0xc3, 0x5f, 0xeb, 0xbd, 0xf0, 0xc5, 0x90, 0x3d, 0xd8, 0xc0, 0xdf, 0xbd,
  0x80, 0xd8, 0x4e, 0xbe, 0x93, 0x2a, 0xaf, 0x3d, 0x58, 0x13, 0x58, 0x3d,
  0xcb, 0xca, 0xa1, 0x3d, 0x2c, 0xbf, 0x98, 0xbd, 0x53, 0x47, 0x9a, 0x3d,
  0x30, 0x24, 0xc9, 0xbe, 0x78, 0x08, 0xd2, 0xbd, 0x4e, 0xea, 0xc9, 0xbc,
  0xf5, 0x9c, 0x9a, 0x3e, 0x8a, 0xda, 0xd0, 0x3e, 0x81, 0x5a, 0x55, 0xbd,
  0x07, 0xc3, 0x96, 0xbe, 0x39, 0x89, 0x98, 0xbe, 0xb3, 0x28, 0x5a, 0x3d,
  0x8d, 0xac, 0xb1, 0xbd, 0x5a, 0x55, 0x6e, 0xbe, 0x1e, 0xe8, 0x3f, 0x3a,
  0xeb, 0x1d, 0x30, 0xbe, 0x6f, 0x37, 0x79, 0xbe, 0xf1, 0x05, 0x88, 0xbe,
  0xf6, 0x77, 0x5a, 0xbe, 0xf4, 0x4f, 0xa9, 0xbe, 0x3e, 0xf4, 0x93, 0xbd,
  0xca, 0x92, 0x2e, 0xbd, 0xdb, 0x68, 0x65, 0x3e, 0x40, 0x13, 0xa6, 0x3e,
  0x9b, 0x00, 0x26, 0xbd, 0x50, 0x1b, 0x33, 0xbe, 0xcc, 0x69, 0xb7, 0xbd,
  0xff, 0xec, 0x94, 0x3e, 0x30, 0xfd, 0x17, 0xbe, 0xbb, 0x45, 0xa9, 0xbe,
  0x76, 0xfa, 0x12, 0xbd, 0x9c, 0x2d, 0x62, 0xbe, 0xd7, 0x92, 0xa6, 0xbe,
  0xfb, 0x5a, 0xa0, 0xbe, 0x72, 0xb9, 0xc9, 0xbd, 0xf7, 0x6f, 0xda, 0xbe,
  0xe3, 0x19, 0x5a, 0xbe, 0x45, 0x82, 0xa7, 0xbe, 0xc0, 0x23, 0x0e, 0xbe,
  0x4d, 0xd6, 0x5c, 0xbe, 0x8f, 0x44, 0xcc, 0x3d, 0x6d, 0x07, 0x51, 0xbe,
  0x91, 0xbd, 0xfd, 0xbd, 0xbb, 0xc7, 0x82, 0x3d, 0xb3, 0xe5, 0x1e, 0xbe,
  0x7d, 0x9b, 0x07, 0x3d, 0xbc, 0x03, 0xc0, 0xbc, 0x50, 0x65, 0xb1, 0xbd,
  0x94, 0x08, 0x3b, 0xbe, 0x23, 0x13, 0x32, 0x3e, 0x58, 0xc0, 0xcb, 0xbe,
  0x27, 0xfa, 0x09, 0xbf, 0xc9, 0x6e, 0x9f, 0xbc, 0xde, 0x1e, 0xa9, 0xbd,
  0x46, 0xc0, 0x07, 0xbe, 0x6f, 0x48, 0x0c, 0x3f, 0x19, 0x3d, 0xdd, 0xbd,
  0xaa, 0xc6, 0x82, 0xbe, 0xdb, 0x5b, 0x7e, 0xbe, 0xc0, 0x8c, 0x00, 0x3e,
  0x5d, 0x72, 0xa0, 0x3e, 0x87, 0x2f, 0xe6, 0xbb, 0xcb, 0xf8, 0xb3, 0xbc,
  0xcf, 0x8d, 0xe4, 0xbd, 0xec, 0x46, 0x83, 0x3e, 0x8d, 0xbf, 0x29, 0x3e,
  0xd0, 0x1a, 0xa0, 0x3d, 0x76, 0x7a, 0x48, 0xbe, 0xc5, 0xf2, 0x28, 0xbe,
  0x92, 0x02, 0x92, 0x3e, 0x7b, 0x6f, 0x09, 0x3e, 0x3d, 0x0d, 0x27, 0x3f,
  0x2e, 0x22, 0xd2, 0xb9, 0x0b, 0xe9, 0xf2, 0xb8, 0xb9, 0xe0, 0x5f, 0xbe,
  0x6b, 0x33, 0xf1, 0x3e, 0x2d, 0xc4, 0x93, 0xbd, 0xad, 0x29, 0x30, 0xbd,
  0x64, 0x96, 0x09, 0x3e, 0xe6, 0xa2, 0x58, 0xbd, 0x33, 0x67, 0x39, 0x3e,
  0x71, 0x53, 0x8d, 0x3e, 0x20, 0x83, 0x8a, 0xbd, 0xd2, 0xf0, 0x3c, 0xbd,
  0x91, 0x79, 0x6a, 0xbd, 0x47, 0x15, 0x95, 0x3c, 0xc7, 0x80, 0x12, 0x3f,
  0xc1, 0x43, 0x9f, 0x3e, 0xbf, 0xc0, 0x1b, 0x3e, 0x3c, 0x99, 0x02, 0x3d,
  0xa0, 0xe2, 0x0f, 0xbd, 0xfa, 0xc2, 0xa8, 0x3e, 0x03, 0x1d, 0xb0, 0xbe,
  0x97, 0x43, 0x6b, 0xbe, 0x11, 0x7a, 0x91, 0x3c, 0x8b, 0xbe, 0xc7, 0x3d,
  0x94, 0x79, 0x1b, 0xbe, 0x80, 0xfd, 0x3a, 0xbd, 0x6f, 0x74, 0xb1, 0xbd,
  0x76, 0x7c, 0x5a, 0xbe, 0x53, 0x68, 0x3d, 0x3e, 0xd1, 0x9a, 0xa8, 0xbd,
  0x5b, 0x0e, 0xc0, 0x3c, 0x3c, 0xfa, 0x0f, 0xbd, 0x9e, 0x39, 0x82, 0x3d,
  0x80, 0xff, 0x4d, 0xbe, 0x01, 0x64, 0x28, 0xbe, 0x2a, 0x40, 0x16, 0x3e,
  0xe5, 0x3c, 0x66, 0xbd, 0xe2, 0x01, 0x72, 0x3d, 0x34, 0x22, 0x81, 0x3e,
  0x88, 0x21, 0x6e, 0xbd, 0xd0, 0x79, 0x5d, 0xbe, 0x42, 0x80, 0x0d, 0xbe,
  0x35, 0x8c, 0xea, 0xbc, 0x19, 0xa7, 0x25, 0xbe, 0x3e, 0x94, 0x66, 0xbe,
  0x96, 0xb3, 0x82, 0xbe, 0xfc, 0xc5, 0x3f, 0x3f, 0x7f, 0x93, 0x05, 0x3f,
  0x58, 0x79, 0xe4, 0x3d, 0x60, 0x99, 0x2c, 0xbe, 0x7e, 0x48, 0x01, 0x3e,
  0x04, 0xba, 0x32, 0xbe, 0x2e, 0xa3, 0x2e, 0x3d, 0x73, 0x9c, 0xf1, 0xbc,
  0x02, 0x22, 0x81, 0x3e, 0x42, 0x41, 0xbd, 0xbd, 0xbe, 0x40, 0x51, 0xbe,
  0x65, 0xd8, 0xd9, 0x3d, 0xb6, 0x77, 0x7f, 0xbe, 0x29, 0x63, 0xa7, 0x3d,
  0x13, 0x4b, 0x55, 0xbd, 0x58, 0xa2, 0xeb, 0xbd, 0xb1, 0x7b, 0x59, 0x3f,
  0x0e, 0xa6, 0x07, 0x3f, 0xcf, 0x85, 0x4e, 0x3d, 0xeb, 0x2a, 0xad, 0xbe,
  0x93, 0x0f, 0x6e, 0xbe, 0x16, 0xde, 0xe7, 0x3d, 0x32, 0x83, 0x44, 0xbe,
  0x88, 0x02, 0x6c, 0x3e, 0x82, 0x8f, 0x83, 0x3d, 0x23, 0x33, 0x65, 0xbe,
  0xfa, 0x7e, 0xbf, 0xbc, 0x81, 0xff, 0x19, 0x3d, 0xa0, 0x51, 0x15, 0xbe,
  0xba, 0x7f, 0x40, 0xbe, 0xf8, 0xf3, 0xf1, 0xbd, 0x31, 0xf5, 0xcc, 0x3d,
  0x5b, 0xad, 0x77, 0x3f, 0x7e, 0xd5, 0x3c, 0x3f, 0x56, 0x49, 0x46, 0xbe,
  0xfa, 0x78, 0xbd, 0xbd, 0xcf, 0xd6, 0x2d, 0xbd, 0x70, 0x5e, 0x4b, 0xbc,
  0x5e, 0xd1, 0x22, 0xbe, 0xd0, 0xb1, 0x9a, 0xbd, 0xe1, 0xb4, 0x6a, 0x3e,
  0x1f, 0x9d, 0x5c, 0xbe, 0xf2, 0x6b, 0x98, 0x3d, 0x6f, 0xb5, 0xa9, 0xbc,
  0xcf, 0xfc, 0x1d, 0xbe, 0x17, 0x5c, 0x93, 0x3d, 0x39, 0xdc, 0x28, 0xbb,
  0x6e, 0x9a, 0x55, 0xbe, 0x17, 0xc0, 0x94, 0x3f, 0x51, 0x78, 0x8a, 0x3f,
  0xaa, 0xba, 0x4a, 0xbe, 0x73, 0xd0, 0xe0, 0xbd, 0xb3, 0x90, 0xc5, 0x3d,
  0xe0, 0xa3, 0x60, 0xbe, 0x45, 0x08, 0x68, 0xbe, 0xdd, 0xbc, 0x12, 0xbe,
  0xa3, 0x06, 0x27, 0xbd, 0x62, 0x9c, 0x3f, 0xbe, 0x90, 0x76, 0xa2, 0xbc,
  0x7a, 0xfa, 0x88, 0xbd, 0xfd, 0x54, 0x11, 0xbe, 0xd8, 0x1e, 0x37, 0xbe,
  0x31, 0x89, 0x13, 0x3e, 0xbe, 0xdb, 0x22, 0xbe, 0x31, 0xd8, 0x0d, 0x3f,
  0x4f, 0x43, 0x00, 0x3f, 0xce, 0xb3, 0x04, 0x3e, 0xa4, 0x68, 0x6d, 0xbe,
  0x80, 0x0f, 0x13, 0x3e, 0xea, 0xdd, 0x37, 0xbe, 0x25, 0xd6, 0x9d, 0xbe,
  0xe7, 0xc9, 0x54, 0xbd, 0x73, 0x4b, 0xc7, 0x3d, 0x50, 0x01, 0xb0, 0xbe,
  0x88, 0x3e, 0x43, 0xbe, 0xf2, 0xea, 0xcb, 0xbc, 0xf4, 0xd7, 0xf3, 0xbd,
  0xcc, 0x82, 0x85, 0xbe, 0xab, 0x29, 0x05, 0xbe, 0xf0, 0xc7, 0xf5, 0x3d,
  0x15, 0xa6, 0x19, 0x3f, 0xac, 0x71, 0x33, 0x3e, 0x13, 0x54, 0xf8, 0x3b,
  0x5c, 0x43, 0x01, 0xbe, 0x6f, 0x0a, 0x77, 0xbd, 0x66, 0xd7, 0xe4, 0xbd,
  0x66, 0xbc, 0x9c, 0xbe, 0xcd, 0x92, 0xc6, 0x3d, 0xd5, 0xa2, 0xcd, 0xbd,
  0xb9, 0xc6, 0x38, 0xbe, 0x5a, 0x3b, 0x73, 0xbe, 0x2b, 0x28, 0xba, 0xbe,
  0xb9, 0x72, 0x83, 0x3c, 0xae, 0x1b, 0x6a, 0x3d, 0x65, 0x9e, 0x89, 0x3e,
  0x46, 0x83, 0x36, 0xbe, 0xbb, 0xb7, 0x7d, 0xbc, 0xb4, 0x23, 0x29, 0x3e,
  0xdd, 0xd3, 0x18, 0xbe, 0x60, 0x4d, 0xaf, 0xbb, 0xf5, 0xc2, 0x1e, 0x3e,
  0x7e, 0xcf, 0x93, 0xbd, 0x77, 0x96, 0xf0, 0xbc, 0x3b, 0x0e, 0x4c, 0x3d,
  0x79, 0xff, 0x0c, 0xbe, 0xdc, 0x37, 0x94, 0xbe, 0xc0, 0xc1, 0xae, 0x3c,
  0x30, 0x06, 0x5e, 0xbd, 0x69, 0x07, 0x73, 0x3d, 0xc9, 0xc1, 0xf7, 0xbd,
  0x6d, 0x97, 0x25, 0x3e, 0x99, 0xde, 0xed, 0x3d, 0x93, 0x0a, 0x4d, 0xbd,
  0x31, 0x34, 0x4c, 0xbd, 0x22, 0xb8, 0x84, 0xbe, 0x51, 0x97, 0x66, 0xbd,
  0x55, 0x34, 0x08, 0x3e, 0x4c, 0xdf, 0x9e, 0xbc, 0xb6, 0xb2, 0xb4, 0x3e,
  0x6d, 0x47, 0xbf, 0x3e, 0x4b, 0x14, 0x15, 0xbd, 0x40, 0x10, 0xbc, 0xbe,
  0x96, 0x77, 0x63, 0x3e, 0xa4, 0xea, 0xbc, 0xbc, 0x9d, 0xdd, 0x9c, 0x3e,
  0x14, 0xd1, 0x37, 0xbe, 0xa6, 0xe1, 0x14, 0x3e, 0xd8, 0xef, 0x9d, 0x3e,
  0x4d, 0xb7, 0x4e, 0x3d, 0x23, 0x28, 0x29, 0xbe, 0xa4, 0xcb, 0x20, 0x3d,
  0xf2, 0xb7, 0x07, 0xbd, 0xe7, 0x1f, 0x19, 0xbe, 0xcd, 0x84, 0x46, 0x3e,
  0x5b, 0xbb, 0x5f, 0xbe, 0x64, 0x11, 0xb3, 0x3e, 0x94, 0x4f, 0x11, 0xbd,
  0x1b, 0x58, 0x92, 0xbe, 0x9d, 0xb1, 0x08, 0x3e, 0x99, 0xf5, 0xac, 0xbd,
  0xb8, 0xf0, 0xa5, 0x3e, 0x91, 0x7d, 0x58, 0x3e, 0xb6, 0x4e, 0x58, 0x3e,
  0x47, 0x64, 0xa4, 0x3e, 0xa0, 0x4f, 0x45, 0xbc, 0xff, 0x31, 0x2e, 0x3d,
  0xfc, 0x2c, 0xd3, 0xbc, 0x98, 0x92, 0x8c, 0x3d, 0x2b, 0xed, 0x37, 0x3e,
  0x84, 0xdb, 0xa9, 0xbc, 0xce, 0xde, 0x79, 0xbe, 0xc0, 0xcd, 0xaf, 0x3d,
  0x57, 0xb9, 0xf0, 0x3d, 0xbc, 0xdd, 0x61, 0xbe, 0x84, 0x51, 0x68, 0x3d,
  0x42, 0x93, 0xd6, 0xbd, 0x21, 0x12, 0x8d, 0x3e, 0xf8, 0x00, 0x84, 0x3e,
  0xf6, 0xc9, 0xa1, 0x3e, 0x01, 0xbd, 0x08, 0xbd, 0x4c, 0x8a, 0xfc, 0x3c,
  0x5c, 0x25, 0xce, 0xbc, 0xdb, 0x3e, 0xaf, 0xbd, 0xfb, 0x6c, 0x48, 0xbd,
  0xe0, 0xa3, 0x88, 0x3e, 0x18, 0x8f, 0xab, 0xbd, 0xc8, 0x5c, 0x0c, 0x3e,
  0xce, 0x6f, 0xad, 0xbe, 0xf7, 0x44, 0xb2, 0x3c, 0x74, 0x21, 0x87, 0xbe,
  0x9f, 0xac, 0x29, 0xbe, 0xcf, 0x7d, 0x3f, 0xbe, 0x1e, 0x28, 0x32, 0xbd,
  0x82, 0xd3, 0x97, 0xbd, 0x82, 0x1d, 0xae, 0x3e, 0x67, 0xaa, 0x3b, 0x3b,
  0x20, 0x52, 0x67, 0xbd, 0xf4, 0x86, 0xbd, 0xbe, 0x73, 0x71, 0x3e, 0x3d,
  0x15, 0xee, 0xf6, 0xbd, 0xcc, 0x05, 0x7b, 0x3e, 0xed, 0x89, 0x1a, 0xbc,
  0x43, 0xea, 0xb6, 0xbc, 0x9b, 0x1d, 0x88, 0x3d, 0xa7, 0xe1, 0x74, 0x3a,
  0x08, 0xbe, 0xb5, 0xbd, 0xa6, 0x56, 0xba, 0xbc, 0x6f, 0x57, 0xf2, 0xbb,
  0x07, 0xdc, 0x83, 0x3a, 0x33, 0x9a, 0x23, 0x3b, 0x7d, 0xed, 0x5e, 0xbe,
  0x31, 0xb9, 0xd6, 0x3c, 0x46, 0x28, 0x36, 0xbe, 0x79, 0x45, 0x8d, 0xbe,
  0x64, 0x0c, 0x18, 0xbd, 0xa9, 0xc8, 0x3e, 0xbd, 0xcc, 0x1d, 0x72, 0xbe,
  0xb7, 0x38, 0x1b, 0xbd, 0x83, 0xe9, 0xd1, 0x3c, 0x68, 0xbe, 0xb8, 0x3d,
  0xaf, 0x94, 0xbb, 0x3e, 0x40, 0x8d, 0xd6, 0x3d, 0x96, 0x79, 0x87, 0x3d,
  0xf1, 0x87, 0xce, 0xbd, 0x5b, 0x18, 0x49, 0x3e, 0x16, 0x7a, 0xc9, 0x3d,
  0xeb, 0x91, 0xe8, 0xbc, 0x62, 0xe8, 0xdf, 0x3d, 0x87, 0x8a, 0x95, 0xbd,
  0x58, 0xe6, 0x77, 0x3d, 0x06, 0xee, 0x25, 0x3d, 0xc4, 0xf8, 0xa0, 0xbc,
  0x0d, 0x2e, 0x14, 0x3d, 0x10, 0x39, 0x03, 0x3e, 0x50, 0x11, 0x95, 0xbd,
  0x32, 0x2a, 0xd2, 0xbb, 0x61, 0x11, 0xdd, 0xbd, 0x07, 0xdb, 0x8a, 0xbe,
  0x8c, 0xe0, 0xdc, 0x3d, 0xb0, 0xf5, 0xad, 0xbe, 0x6f, 0xa3, 0x2b, 0x3e,
  0x0f, 0xa1, 0x9f, 0xbc, 0x95, 0x8e, 0xe3, 0x3d, 0x20, 0x5c, 0x93, 0x3d,
  0x0a, 0xa2, 0xcb, 0xbd, 0xe5, 0xf6, 0x4c, 0xbe, 0xf4, 0x9f, 0x17, 0x3e,
  0x98, 0xe3, 0x40, 0xbc, 0xac, 0x5d, 0x1e, 0x3e, 0x04, 0xb7, 0x8d, 0x3d,
  0x9e, 0x35, 0xea, 0xbd, 0x47, 0xea, 0x86, 0xbc, 0x08, 0xb3, 0x85, 0xbd,
  0x08, 0x5b, 0x8b, 0xbe, 0xc1, 0x23, 0x0a, 0xbe, 0x02, 0x55, 0x8e, 0xbd,
  0x4f, 0x54, 0xb1, 0x3d, 0x7c, 0xd7, 0x09, 0xbd, 0xee, 0xa4, 0x04, 0x3e,
  0x0c, 0x12, 0xaf, 0xbd, 0x17, 0x33, 0xdb, 0xbd, 0xeb, 0x02, 0x2d, 0xbe,
  0x39, 0x4a, 0x37, 0xbd, 0x6f, 0x70, 0xe3, 0xbc, 0x3d, 0x97, 0xb1, 0x3d,
  0xc3, 0x58, 0x00, 0x3c, 0x7e, 0xd5, 0x90, 0xbd, 0x13, 0x2d, 0xac, 0x3b,
  0xe6, 0xa7, 0xdc, 0xbd, 0x51, 0x8a, 0x80, 0xbe, 0xc8, 0x17, 0x36, 0xbb,
  0x63, 0x76, 0xeb, 0xbc, 0xa1, 0x22, 0xc5, 0x3c, 0xb2, 0x5d, 0x4e, 0xbd,
  0x31, 0xb4, 0x86, 0x3d, 0xb1, 0xae, 0xc8, 0xbc, 0xeb, 0x5f, 0xc9, 0xbd,
  0x67, 0x43, 0x42, 0x3e, 0xa2, 0x60, 0x9d, 0x3d, 0xba, 0xd5, 0x65, 0xbc,
  0x1a, 0xbf, 0x1c, 0x3c, 0xec, 0x41, 0x3d, 0xbe, 0xbe, 0x4c, 0x8d, 0xbd,
  0x66, 0xaf, 0x27, 0xbd, 0x90, 0x32, 0xe6, 0xbd, 0x03, 0x3b, 0x1a, 0xbe,
  0x44, 0x1a, 0x31, 0x3e, 0xcf, 0x53, 0x00, 0x3e, 0xe1, 0x84, 0xcb, 0x3d,
  0xaa, 0x5b, 0x78, 0xbd, 0x31, 0xc8, 0x01, 0x3e, 0x41, 0x9c, 0x78, 0x3d,
  0x4f, 0x30, 0x07, 0xbe, 0xe2, 0xe1, 0x01, 0x3f, 0x26, 0x85, 0x1d, 0xbc,
  0x08, 0x68, 0xde, 0x3a, 0x78, 0xf5, 0xd5, 0x3c, 0x38, 0x57, 0xd8, 0x3e,
  0xad, 0xc5, 0x0f, 0x3d, 0x8e, 0x70, 0xf4, 0x3c, 0xd1, 0xaf, 0x35, 0xbd,
  0x25, 0x63, 0x20, 0xbe, 0xde, 0x81, 0x1a, 0x3e, 0x10, 0xf8, 0x97, 0x3c,
  0xa3, 0xa1, 0x01, 0x3e, 0xbb, 0x98, 0x08, 0x3d, 0xac, 0xe8, 0x8b, 0x3d,
  0xed, 0x4f, 0x3c, 0x3d, 0x92, 0xac, 0x12, 0xbd, 0xb2, 0x3d, 0xb3, 0x3e,
  0x87, 0x95, 0xf2, 0x3d, 0xa3, 0xef, 0x63, 0xbc, 0x52, 0x00, 0x49, 0xbd,
  0x39, 0x79, 0x6d, 0x3e, 0x7c, 0x23, 0x91, 0x3d, 0xef, 0xf7, 0xc0, 0x3d,
  0x82, 0x20, 0x5d, 0xbd, 0x42, 0x60, 0x1a, 0xba, 0xbc, 0x38, 0x1c, 0xbd,
  0x6e, 0x8d, 0x18, 0x3e, 0xb9, 0x95, 0x31, 0x3d, 0x9a, 0x98, 0x06, 0x3b,
  0xd7, 0xcc, 0x10, 0x3c, 0x58, 0xc0, 0x18, 0xbc, 0x5a, 0x89, 0xd3, 0xba,
  0x26, 0x12, 0x62, 0xbd, 0x38, 0x5f, 0x9a, 0x3d, 0x60, 0xd5, 0x41, 0xbb,
  0x67, 0x2b, 0xab, 0x3c, 0x84, 0x70, 0xec, 0x3c, 0xe5, 0x20, 0xb8, 0xbe,
  0x78, 0x16, 0x6a, 0xbe, 0x88, 0xed, 0x11, 0xbd, 0x5b, 0xd1, 0x9a, 0x3d,
  0x7e, 0xf3, 0x6b, 0xbe, 0x0d, 0xd5, 0xab, 0xbe, 0x37, 0x58, 0xbc, 0xbd,
  0x14, 0xd6, 0x49, 0xbe, 0xdd, 0x90, 0x22, 0xbd, 0xf4, 0x68, 0x99, 0xbe,
  0x2f, 0xa4, 0x83, 0xbd, 0x0d, 0x7a, 0x35, 0x3f, 0xd3, 0x48, 0x52, 0xbe,
  0x87, 0x7d, 0x96, 0xbd, 0x33, 0xc3, 0xb6, 0xbe, 0x4d, 0xfc, 0x67, 0xbd,
  0x01, 0xda, 0xaf, 0xbe, 0x19, 0x08, 0x82, 0x3d, 0x2d, 0x42, 0x3d, 0xbe,
  0xe9, 0xef, 0x3d, 0xbe, 0x56, 0x1e, 0x6e, 0x3d, 0x6f, 0xe2, 0xe8, 0xbd,
  0x19, 0xd6, 0xbb, 0x3b, 0x9d, 0x42, 0xc7, 0xbd, 0x00, 0x49, 0x6f, 0xbd,
  0x82, 0x72, 0x24, 0xbe, 0xb9, 0x8e, 0x38, 0x3f, 0xf8, 0x26, 0x82, 0x3f,
  0xf3, 0x3b, 0x41, 0xbd, 0xb0, 0x6d, 0x40, 0xbe, 0x57, 0x7f, 0x68, 0xbe,
  0x49, 0x53, 0x36, 0xbd, 0xe1, 0x11, 0x65, 0xbd, 0x9a, 0x2e, 0x37, 0xbe,
  0xe4, 0x6e, 0x42, 0xbd, 0x3f, 0x48, 0x40, 0xbe, 0xfe, 0xb6, 0x1c, 0xbe,
  0x4c, 0xa8, 0x19, 0x3e, 0x2d, 0x2b, 0x10, 0x3e, 0xe8, 0x89, 0x48, 0xbe,
  0xde, 0x35, 0x72, 0x3d, 0x7b, 0x88, 0x9a, 0xbe, 0x10, 0x45, 0xfb, 0x3e,
  0x84, 0x9c, 0x74, 0x3f, 0x47, 0x54, 0x74, 0xbb, 0x1c, 0xf3, 0x95, 0xbe,
  0x1b, 0x46, 0x39, 0xbd, 0xc1, 0xe4, 0x9c, 0x3d, 0x4c, 0x8d, 0x01, 0xbe,
  0x4f, 0xf0, 0xcb, 0x3d, 0x08, 0xc2, 0x10, 0x3e, 0xdb, 0x5b, 0xc4, 0xbd,
  0x89, 0x80, 0xc1, 0x3d, 0xc5, 0x5a, 0x83, 0xbd, 0x3d, 0xd1, 0x32, 0xbe,
  0xec, 0xfb, 0x04, 0xbe, 0x6f, 0x3d, 0x77, 0xbe, 0x05, 0x4a, 0xeb, 0x3b,
  0xa5, 0x1d, 0x48, 0x3f, 0x58, 0xce, 0x2e, 0x3f, 0x7a, 0xf5, 0xa0, 0xbe,
  0xd1, 0xdc, 0xbd, 0xbe, 0x43, 0x68, 0x61, 0xbe, 0xb2, 0xd2, 0x8d, 0xbd,
  0x0e, 0x21, 0x14, 0xbe, 0xfb, 0x9e, 0x8e, 0xbe, 0xf1, 0x56, 0xac, 0x3e,
  0x8f, 0x93, 0x9c, 0xbe, 0x53, 0x52, 0xed, 0x3d, 0x99, 0xda, 0x1e, 0xbe,
  0x97, 0x00, 0xdd, 0xbd, 0xab, 0x5d, 0xce, 0xbd, 0xf4, 0xad, 0xc6, 0xbc,
  0xd2, 0x0c, 0x1f, 0x3d, 0x39, 0x28, 0xef, 0x3e, 0x24, 0x3a, 0x1f, 0x3f,
  0xae, 0x68, 0x44, 0xbe, 0xa8, 0x45, 0xf7, 0xbd, 0x56, 0x91, 0x9e, 0xbe,
  0x48, 0x2c, 0x4b, 0xbd, 0xd9, 0xbb, 0x2a, 0xbe, 0x71, 0xa2, 0xd1, 0x3c,
  0x55, 0x0d, 0x1d, 0xbe, 0xd0, 0x90, 0xf5, 0xbd, 0x67, 0x0e, 0x18, 0xbe,
  0xd7, 0xe2, 0x9b, 0xbe, 0x53, 0xec, 0x04, 0x3d, 0xa1, 0x53, 0x8f, 0xbd,
  0x27, 0x30, 0xb8, 0xbd, 0xf0, 0x81, 0x01, 0xbe, 0x3c, 0x72, 0x10, 0x3f,
  0x58, 0xbc, 0x95, 0x3e, 0x95, 0x64, 0x59, 0x3d, 0x5a, 0x71, 0x51, 0xbd,
  0x69, 0x0f, 0x81, 0xbe, 0xcd, 0xc0, 0x19, 0x3e, 0x09, 0x02, 0x84, 0xbe,
  0xb7, 0x1d, 0x16, 0x3d, 0x5f, 0xe9, 0xbf, 0xbc, 0x50, 0x05, 0x7c, 0xbe,
  0x33, 0x49, 0xef, 0x3c, 0xb5, 0xfc, 0x08, 0xbe, 0x27, 0xfb, 0x25, 0xbe,
  0xd8, 0x08, 0x15, 0xbe, 0x24, 0xe7, 0x17, 0xbe, 0x84, 0x0f, 0x11, 0xbe,
  0xb7, 0xd3, 0xb5, 0x3e, 0x0e, 0x39, 0xaf, 0x3e, 0x87, 0xdf, 0x5d, 0xbe,
  0x18, 0x10, 0x2b, 0xbe, 0xfe, 0x04, 0x21, 0xbc, 0xbb, 0x2a, 0xa5, 0xbd,
  0xff, 0xce, 0x8d, 0xbe, 0xcb, 0xed, 0x1f, 0x3d, 0x42, 0x70, 0xb5, 0x3d,
  0x6b, 0x68, 0x5d, 0xbd, 0x39, 0x3a, 0x15, 0xbe, 0x41, 0x96, 0xd9, 0xbe,
  0xd6, 0x60, 0xf8, 0x3d, 0x1d, 0xcc, 0x1d, 0x3d, 0xd8, 0x09, 0xeb, 0x3d,
  0xb3, 0x61, 0x32, 0xbe, 0x31, 0xa1, 0xdb, 0xbd, 0x69, 0x14, 0xb8, 0x3e,
  0x0d, 0x72, 0x96, 0xbe, 0xee, 0x3d, 0x2b, 0xbd, 0xcb, 0x3c, 0x06, 0x3e,
  0xa6, 0x71, 0xa0, 0xbe, 0xc3, 0x11, 0x8f, 0xbd, 0x2d, 0xdb, 0x1d, 0xbd,
  0x23, 0x34, 0xdc, 0xbd, 0x61, 0xd4, 0x00, 0xbe, 0x92, 0x2a, 0x4a, 0xbd,
  0xbf, 0x79, 0x83, 0x3d, 0x4c, 0x31, 0x2d, 0x3d, 0xa4, 0x6f, 0xf1, 0xbd,
  0x59, 0x1f, 0x7b, 0x3e, 0x97, 0x0d, 0x19, 0x3e, 0x10, 0x1c, 0xf3, 0x3e,
  0x6b, 0x38, 0xd4, 0x3e, 0x73, 0x5f, 0xd8, 0xbd, 0x9e, 0x80, 0x77, 0xbd,
  0x2a, 0x16, 0x33, 0x3d, 0x6a, 0xaf, 0xaa, 0x3d, 0xe5, 0x70, 0x42, 0x3e,
  0xa4, 0x3b, 0x71, 0x3e, 0x91, 0xf1, 0x0c, 0xbe, 0x76, 0x6f, 0x8c, 0xbe,
  0xd6, 0xee, 0x25, 0xbe, 0x65, 0x6e, 0x85, 0xbe, 0x9a, 0xea, 0x25, 0x3e,
  0x1d, 0x3e, 0xdb, 0xbd, 0xb1, 0x7b, 0x6a, 0x3e, 0x14, 0x50, 0x5a, 0x3e,
  0x49, 0x90, 0x83, 0x3e, 0x55, 0x7f, 0xf8, 0x3e, 0x3d, 0xe4, 0x16, 0x3e,
  0xde, 0xb6, 0x95, 0xbd, 0x88, 0x8a, 0x05, 0x3e, 0x48, 0x7e, 0xb2, 0x3d,
  0xf3, 0x7a, 0xce, 0x3d, 0x17, 0x02, 0x89, 0x3e, 0x4f, 0x93, 0x11, 0xbc,
  0xc6, 0x5d, 0x8b, 0xbe, 0x76, 0x01, 0x46, 0x3e, 0x76, 0x06, 0xd3, 0xbe,
  0x4f, 0xa6, 0xe3, 0x3e, 0x3c, 0xa1, 0x4a, 0xbd, 0x99, 0x06, 0xdd, 0x3c,
  0xbc, 0x8e, 0xab, 0x3e, 0xce, 0xa7, 0x42, 0x3e, 0xaf, 0x86, 0x68, 0x3c,
  0xa5, 0x48, 0x81, 0xbe, 0x66, 0x6c, 0xd1, 0xbb, 0x9a, 0xf5, 0x1e, 0xbd,
  0xb5, 0x94, 0x03, 0xbd, 0x3d, 0xf8, 0xe5, 0xbd, 0x51, 0x73, 0x2d, 0x3e,
  0xf7, 0xe5, 0x3c, 0x3e, 0xba, 0x6b, 0xc9, 0xbe, 0x45, 0xad, 0x45, 0xbe,
  0x88, 0x14, 0xf7, 0xbe, 0x7e, 0xc8, 0x97, 0x3e, 0x36, 0x28, 0x09, 0xbe,
  0x07, 0x60, 0xc4, 0x3e, 0xdc, 0xd8, 0x87, 0x3d, 0x99, 0xa1, 0xd1, 0x3e,
  0xf6, 0x45, 0x14, 0xbe, 0xa4, 0xf9, 0x20, 0xbc, 0x06, 0x26, 0x3b, 0xbd,
  0x71, 0xef, 0xe3, 0x3d, 0xcb, 0x6d, 0xaa, 0x3b, 0xf2, 0xcc, 0x29, 0xbe,
  0x54, 0x21, 0x2f, 0x3e, 0xdd, 0xfb, 0x92, 0xbe, 0x3a, 0x31, 0xfa, 0xbd,
  0x47, 0xa5, 0xdd, 0xbd, 0xa7, 0xbe, 0x02, 0xbe, 0xc0, 0x44, 0x11, 0x3e,
  0xe6, 0xe8, 0x0c, 0x3e, 0x4c, 0x8c, 0x89, 0x3e, 0x91, 0x64, 0x1f, 0xbe,
  0x88, 0xe4, 0xce, 0x3e, 0x39, 0x89, 0x1b, 0x3e, 0x63, 0xed, 0x93, 0xbe,
  0x18, 0x15, 0xd0, 0x3c, 0x3a, 0x2e, 0xdc, 0x3d, 0x9d, 0xac, 0x73, 0xbe,
  0x8c, 0x56, 0x89, 0x3a, 0xc5, 0xfa, 0x6c, 0x3d, 0xe1, 0x1d, 0x58, 0x3c,
  0x59, 0x08, 0x4a, 0xbc, 0x21, 0xd1, 0xfe, 0x3b, 0xef, 0xc5, 0x7a, 0xbd,
  0x59, 0xaf, 0x60, 0xbd, 0xea, 0x5d, 0x42, 0xbd, 0x95, 0x54, 0x45, 0x3e,
  0x27, 0x06, 0x0b, 0xbd, 0x53, 0xea, 0x1d, 0x3e, 0x0b, 0x52, 0x10, 0x3c,
  0x14, 0x38, 0x57, 0xbe, 0xbb, 0xe9, 0x99, 0x3d, 0x91, 0x1b, 0x44, 0x3d,
  0xdc, 0xb0, 0x04, 0xbe, 0xad, 0x60, 0x78, 0x3d, 0x7a, 0xb5, 0x5c, 0x3d,
  0xcf, 0x2d, 0x9d, 0x3e, 0x24, 0x5c, 0x48, 0x3e, 0xb6, 0x4b, 0x0c, 0x3e,
  0x32, 0xa5, 0xe3, 0x3c, 0xd5, 0x66, 0x74, 0x3c, 0xab, 0x8f, 0x85, 0xbd,
  0x5c, 0x96, 0x8b, 0xbe, 0x04, 0xb8, 0x37, 0x3e, 0x00, 0x0d, 0xec, 0xbe,
  0xe0, 0xbc, 0x4c, 0xbe, 0x86, 0x72, 0x5e, 0x3e, 0xd2, 0x7e, 0xb1, 0xbb,
  0x77, 0x05, 0x1e, 0xbe, 0xfa, 0xb4, 0x88, 0x3e, 0xf0, 0x9d, 0x38, 0xbe,
  0x30, 0x69, 0x42, 0x3e, 0x9b, 0x00, 0x98, 0xbd, 0xcd, 0xf5, 0x99, 0xbd,
  0x69, 0x86, 0x15, 0x3d, 0x99, 0x43, 0x7d, 0xbe, 0xaf, 0x61, 0x45, 0x3d,
  0x85, 0xeb, 0x30, 0x3d, 0x41, 0x7f, 0x70, 0x3d, 0x27, 0x5a, 0x45, 0x3d,
  0xe4, 0x43, 0x3a, 0xbd, 0x60, 0xdd, 0x5d, 0xbe, 0xa4, 0x41, 0x9c, 0x3e,
  0x97, 0x89, 0x24, 0x3d, 0xae, 0x4b, 0x82, 0x3d, 0x0e, 0xa6, 0xbd, 0x3d,
  0xdf, 0xfc, 0x8d, 0xbe, 0x63, 0xa0, 0x82, 0xbe, 0xb6, 0x5d, 0x3d, 0xbe,
  0xa5, 0x9c, 0xcb, 0xbe, 0xc7, 0x4d, 0xac, 0xbe, 0x61, 0xcd, 0x40, 0xbe,
  0xd8, 0xf1, 0xa0, 0x3c, 0xbc, 0xbd, 0x38, 0x3d, 0x04, 0xc1, 0x59, 0xbe,
  0x13, 0x1c, 0xeb, 0xbe, 0xc6, 0x6f, 0x76, 0x3b, 0xab, 0x1f, 0x1b, 0x3c,
  0x07, 0xf7, 0xe2, 0xbd, 0xce, 0x21, 0xa2, 0xbd, 0xb0, 0x71, 0xbe, 0x3d,
  0xf5, 0x79, 0x10, 0x3e, 0xbf, 0xf8, 0xdf, 0xbe, 0x53, 0xad, 0x22, 0xbe,
  0xa9, 0xad, 0xc0, 0xbe, 0x3f, 0x6f, 0x03, 0xbe, 0x28, 0xdc, 0x2d, 0xbe,
  0x69, 0x94, 0x5d, 0xbd, 0xb1, 0xc8, 0xd9, 0xbe, 0x17, 0x75, 0xed, 0xbd,
  0x11, 0x02, 0x8e, 0xbe, 0xca, 0x27, 0xff, 0xbe, 0xd4, 0xf4, 0x67, 0xbd,
  0x7f, 0xc8, 0x38, 0xbe, 0xc2, 0xa4, 0xb8, 0xbe, 0x41, 0x7f, 0x8a, 0xbd,
  0x9c, 0x52, 0x0b, 0xbf, 0xa6, 0x9d, 0x02, 0x3d, 0xe0, 0x23, 0x4d, 0xbe,
  0x4d, 0x94, 0x93, 0xbd, 0xb1, 0x12, 0x41, 0xbe, 0x05, 0x1c, 0x3b, 0x3e,
  0x9c, 0x7f, 0xee, 0xbd, 0xaf, 0xa2, 0xd7, 0x3c, 0x19, 0x91, 0x55, 0xbd,
  0x54, 0x2e, 0x72, 0x3c, 0xd7, 0x1a, 0x46, 0xbe, 0xb6, 0xfa, 0x6b, 0xbe,
  0x26, 0xc7, 0x22, 0xbe, 0x60, 0x4a, 0x30, 0xbe, 0xf9, 0x2b, 0x90, 0xbe,
  0xe1, 0x20, 0x65, 0xbd, 0xb1, 0xc1, 0xf8, 0xbd, 0xec, 0x55, 0x55, 0xbd,
  0x5d, 0x12, 0x53, 0xbd, 0x29, 0xa6, 0x01, 0xbd, 0x75, 0x08, 0x11, 0x3d,
  0x5d, 0x61, 0xe0, 0xbd, 0x40, 0xa5, 0x22, 0xbe, 0x0f, 0x9a, 0x31, 0xbe,
  0x87, 0x7a, 0x28, 0xbe, 0x6d, 0x58, 0x46, 0xbd, 0x5f, 0xa2, 0x61, 0x3d,
  0x89, 0x13, 0x9f, 0xbe, 0xb2, 0xb4, 0x31, 0x3e, 0xe3, 0xaf, 0xfd, 0xbd,
  0x32, 0x94, 0x3c, 0xbe, 0x4c, 0xa3, 0x86, 0xbd, 0x2e, 0x81, 0xbc, 0xbc,
  0x96, 0xd8, 0x2e, 0x3e, 0x30, 0x37, 0xbb, 0xbd, 0xf2, 0x3b, 0x72, 0xbc,
  0xeb, 0x7f, 0xdc, 0xbd, 0x58, 0xab, 0x44, 0xbe, 0xb8, 0x7d, 0x90, 0x3d,
  0x42, 0x2d, 0x0a, 0xbd, 0xb8, 0x30, 0x34, 0xbc, 0xb8, 0xae, 0x64, 0xbd,
  0x24, 0x6f, 0x44, 0xbd, 0xe7, 0x0f, 0x1f, 0x3c, 0xcf, 0x8b, 0xef, 0x3c,
  0x08, 0x12, 0x06, 0xbf, 0x3b, 0x8b, 0xcc, 0xbe, 0x89, 0xd1, 0x2d, 0xbd,
  0x24, 0x40, 0xfe, 0xbc, 0x25, 0xff, 0xc7, 0xbd, 0xda, 0xb0, 0x55, 0xbe,
  0xd0, 0x8e, 0xfe, 0x3d, 0x88, 0x7b, 0xf3, 0xbd, 0x52, 0x86, 0xc5, 0x3d,
  0x5e, 0xdf, 0x4a, 0xbe, 0x35, 0xcd, 0x2c, 0x3e, 0x07, 0xae, 0x3c, 0xbe,
  0x45, 0xd1, 0x97, 0x3d, 0x94, 0xec, 0xf1, 0xbd, 0x52, 0x89, 0xd5, 0xbd,
  0x4e, 0x31, 0x8e, 0xbb, 0x8b, 0xe9, 0xf8, 0x3d, 0x5c, 0x9e, 0x51, 0xbd,
  0xeb, 0x18, 0xb4, 0xbe, 0xea, 0x5c, 0xe0, 0xbd, 0x0a, 0xe4, 0x86, 0x3c,
  0xb9, 0x93, 0x8e, 0x3e, 0xd0, 0xd2, 0x23, 0x3e, 0xc3, 0x37, 0x8a, 0x3e,
  0x34, 0x72, 0xa5, 0x3d, 0x31, 0x1b, 0x16, 0xbe, 0x91, 0xea, 0xba, 0xbd,
  0x44, 0x37, 0xd6, 0xbd, 0xc2, 0x55, 0x83, 0x3d, 0xa2, 0x93, 0x15, 0xbe,
  0xd9, 0x68, 0x4e, 0x3c, 0x39, 0xdc, 0x62, 0x3d, 0x02, 0x7e, 0xae, 0x3e,
  0xad, 0x27, 0xe7, 0xbd, 0x55, 0xd6, 0x9e, 0xbe, 0x60, 0xf9, 0xf4, 0xbd,
  0x6c, 0x55, 0x83, 0x3d, 0xcf, 0xa6, 0x84, 0x3e, 0x9e, 0x28, 0xeb, 0x3d,
  0xa5, 0x99, 0xe3, 0x3d, 0x4d, 0xa3, 0x88, 0x3e, 0xa2, 0x2f, 0xe1, 0x3d,
  0x89, 0xc9, 0x2f, 0x3e, 0xa3, 0x56, 0x17, 0x3e, 0x97, 0x97, 0x15, 0x3e,
  0x65, 0x64, 0x58, 0xbc, 0xba, 0x33, 0xcf, 0xbc, 0x32, 0x42, 0xd3, 0xbb,
  0x10, 0xe6, 0x5b, 0x3e, 0x6b, 0xd2, 0xb9, 0xbd, 0x88, 0xe2, 0x55, 0xbe,
  0xe7, 0x7a, 0x29, 0x3e, 0x6b, 0xba, 0x04, 0x3f, 0xf8, 0xd0, 0x23, 0x3e,
  0xb7, 0xc3, 0xc3, 0xbd, 0xa1, 0xc1, 0xb6, 0x3c, 0xe2, 0x87, 0x92, 0x3e,
  0x9d, 0xcb, 0x86, 0x3e, 0x71, 0xad, 0xbe, 0xbd, 0xf3, 0x85, 0x9e, 0x3d,
  0xa2, 0xa7, 0xd1, 0x3c, 0x78, 0x43, 0x31, 0x3e, 0x1e, 0x74, 0xb2, 0xbc,
  0x1a, 0xa4, 0x8e, 0xbe, 0xad, 0x36, 0xb6, 0xbd, 0x46, 0x70, 0x0a, 0xbd,
  0x3d, 0x49, 0xde, 0xbc, 0xb7, 0x17, 0xc2, 0x3d, 0xd7, 0x20, 0xa6, 0x3e,
  0x1f, 0x09, 0xdc, 0x3c, 0x9f, 0x5f, 0x04, 0xbe, 0x89, 0xce, 0x99, 0x3c,
  0xef, 0x04, 0x7f, 0x3e, 0x63, 0x43, 0x4f, 0xbd, 0x81, 0x45, 0xd2, 0xbc,
  0x06, 0x0d, 0xb2, 0x3d, 0xc6, 0xed, 0xca, 0x3d, 0x50, 0xe7, 0xe1, 0xbd,
  0x50, 0x07, 0x46, 0x3c, 0xbe, 0x85, 0xe3, 0xbb, 0xec, 0x26, 0xdd, 0xbc,
  0xa0, 0x4f, 0x0b, 0xbe, 0x38, 0xdc, 0x30, 0xbe, 0xe7, 0xd2, 0x5d, 0x3e,
  0x5b, 0xc7, 0x27, 0x3c, 0x4e, 0xc4, 0xc2, 0xbc, 0xe1, 0x53, 0xf6, 0xbd,
  0x0c, 0xeb, 0xcf, 0xbd, 0xb0, 0xa2, 0x41, 0x3e, 0x76, 0x81, 0x6a, 0xbe,
  0x97, 0xd3, 0x27, 0x3d, 0x4c, 0x3f, 0xe3, 0xbd, 0x51, 0x7a, 0x12, 0x3e,
  0x62, 0xa1, 0x55, 0xbd, 0xc5, 0x00, 0x9e, 0xbc, 0x5a, 0x98, 0x42, 0xbe,
  0x4e, 0x5d, 0xa1, 0x3c, 0x5e, 0xf6, 0xe3, 0xbc, 0xa1, 0x29, 0x8f, 0xbe,
  0x58, 0x77, 0xd7, 0x3c, 0x4c, 0x2a, 0x05, 0xbe, 0xcc, 0x7d, 0x26, 0xbe,
  0x69, 0x5f, 0x64, 0xbe, 0xd0, 0x11, 0xd8, 0x3d, 0xbf, 0x02, 0x5c, 0x3c,
  0xbc, 0x99, 0xa8, 0xbe, 0xda, 0x22, 0x87, 0xbd, 0x34, 0xb1, 0x3c, 0xbe,
  0x3d, 0x5f, 0x76, 0xbe, 0x9a, 0x23, 0x34, 0xbe, 0xa4, 0x1b, 0x26, 0x3d,
  0x65, 0x9d, 0x23, 0xbd, 0x4a, 0x80, 0x69, 0x3e, 0x0b, 0xe2, 0x37, 0xbd,
  0xff, 0x16, 0x18, 0xbe, 0xf4, 0x9c, 0x96, 0x3b, 0x5e, 0xcd, 0x80, 0xbd,
  0x45, 0x7f, 0x09, 0x3e, 0x71, 0xff, 0xb0, 0xbd, 0x20, 0xda, 0xac, 0x3e,
  0x15, 0xa2, 0x11, 0x3e, 0xa6, 0x86, 0x86, 0x3e, 0xbf, 0x76, 0x00, 0xbc,
  0xf3, 0xad, 0x02, 0xbd, 0x5e, 0xb2, 0x86, 0xbd, 0x5f, 0x4e, 0x05, 0xbe,
  0x28, 0xc3, 0x13, 0x3e, 0x0f, 0xa0, 0x8b, 0xbd, 0xfa, 0xc4, 0xbc, 0xbe,
  0xdc, 0x66, 0x41, 0x3e, 0xb0, 0x69, 0x2c, 0xbc, 0x45, 0x5e, 0xcd, 0xbd,
  0xf6, 0x60, 0x94, 0x3e, 0x8e, 0x7f, 0xc6, 0xbd, 0x62, 0x0c, 0x74, 0x3c,
  0xa4, 0xe7, 0x0e, 0xbe, 0xe7, 0x95, 0x04, 0xbe, 0xe3, 0xe6, 0xba, 0x3a,
  0x57, 0xa9, 0x4c, 0xbe, 0x44, 0xa5, 0xc8, 0x3d, 0xb1, 0x37, 0xaf, 0xbd,
  0x80, 0xc9, 0x74, 0xba, 0x5e, 0xbf, 0x82, 0xbd, 0xe3, 0x21, 0xd2, 0x3d,
  0xa7, 0xdc, 0xf5, 0xbd, 0xa8, 0x02, 0x99, 0x3e, 0x85, 0x08, 0x7c, 0x3b,
  0xd3, 0x1c, 0x99, 0x3c, 0x47, 0x44, 0x71, 0x3d, 0x16, 0xe2, 0x02, 0xbe,
  0xea, 0x56, 0xa3, 0xbe, 0xa0, 0xba, 0x4a, 0xbd, 0xa7, 0x41, 0x6d, 0xbd,
  0x60, 0x6a, 0xa2, 0xbe, 0x61, 0xb4, 0x11, 0xbe, 0xd5, 0x65, 0x50, 0xbe,
  0xaf, 0xa7, 0x55, 0x3d, 0xa3, 0xec, 0x90, 0xbe, 0x19, 0xb5, 0xbd, 0xbe,
  0x2b, 0x49, 0x10, 0x3e, 0x8c, 0x0e, 0x23, 0x3d, 0x14, 0x91, 0xe3, 0xbd,
  0xe7, 0xcf, 0x8c, 0x3c, 0xdf, 0x27, 0x83, 0x3c, 0x72, 0x13, 0x8a, 0xbd,
  0x93, 0x6a, 0x35, 0xbe, 0x12, 0x7f, 0x9d, 0xbe, 0xa7, 0x8d, 0x1b, 0xbe,
  0x94, 0xe9, 0xca, 0xbc, 0xd7, 0xf5, 0xd1, 0xbd, 0x5b, 0x46, 0xbc, 0x3d,
  0xf2, 0x82, 0x0b, 0xbf, 0xe4, 0x6c, 0xbc, 0xbd, 0xf5, 0x2c, 0x19, 0xbe,
  0x72, 0xfd, 0x04, 0xbf, 0x76, 0xcb, 0x1d, 0xbc, 0x33, 0x6c, 0x74, 0x3e,
  0x5b, 0xc9, 0xb5, 0x3c, 0x83, 0x4b, 0x25, 0xbb, 0x5e, 0x91, 0xf9, 0xbe,
  0xd1, 0x8f, 0x06, 0x3e, 0x80, 0x26, 0x44, 0xbc, 0xc8, 0x5a, 0x0d, 0xbe,
  0xb3, 0x03, 0x56, 0xbe, 0xd1, 0xd9, 0x49, 0x3c, 0x3f, 0x5a, 0xf4, 0x3d,
  0xcc, 0x0b, 0xaf, 0x3d, 0xcc, 0xdc, 0x0d, 0xbf, 0xeb, 0xa9, 0xc9, 0xbd,
  0x3e, 0xd6, 0x97, 0xbe, 0x72, 0xdc, 0xaa, 0x3d, 0xc3, 0x79, 0x6b, 0x3d,
  0x25, 0xba, 0x0b, 0x3f, 0x0a, 0x5f, 0x08, 0x3e, 0x81, 0x7f, 0x4c, 0x3b,
  0x2d, 0xe6, 0x26, 0xbe, 0x78, 0xd7, 0xc0, 0x3e, 0xb2, 0xf8, 0x8f, 0x3d,
  0x3c, 0xf2, 0x6b, 0xbd, 0xa6, 0x1a, 0x39, 0xbd, 0xcc, 0xe4, 0x6a, 0xbe,
  0x1e, 0x02, 0x86, 0x3e, 0xe8, 0xa5, 0xc2, 0xbb, 0xb9, 0xe5, 0x70, 0x3d,
  0x39, 0xd6, 0xd5, 0xbd, 0xa2, 0x3b, 0xce, 0xbe, 0xef, 0x0e, 0xc2, 0x3d,
  0xb2, 0xc3, 0xbb, 0xbd, 0x36, 0xb2, 0x85, 0x3e, 0x5d, 0x16, 0xe0, 0x3d,
  0xf4, 0xcd, 0xae, 0x3b, 0xbe, 0x5c, 0x62, 0xbe, 0xb1, 0x89, 0x0d, 0x3f,
  0x37, 0xdc, 0x81, 0x3c, 0x8a, 0x05, 0x27, 0xbd, 0x36, 0x33, 0xa0, 0x3c,
  0xe4, 0x80, 0x3e, 0x3d, 0xda, 0x12, 0xcd, 0x3d, 0xbc, 0x7e, 0x5c, 0x3e,
  0x27, 0xbf, 0x33, 0x3d, 0x93, 0xad, 0x53, 0x3b, 0x23, 0xfd, 0x02, 0xbe,
  0x8e, 0x72, 0xb8, 0x3d, 0xaf, 0xf7, 0x4e, 0x3c, 0xcf, 0x96, 0xaa, 0x3e,
  0x6c, 0xa5, 0x31, 0xbd, 0x6c, 0x42, 0x17, 0x3d, 0x66, 0x48, 0xb3, 0xbd,
  0x67, 0x70, 0xa7, 0x3e, 0x73, 0x7e, 0xd4, 0xbd, 0xfc, 0xad, 0xea, 0x3c,
  0x89, 0x42, 0x1f, 0x3c, 0xc8, 0x75, 0x4a, 0x3d, 0x43, 0xeb, 0x89, 0x3c,
  0xc5, 0xe2, 0x6e, 0xbe, 0x12, 0x7a, 0xd0, 0xbd, 0xe1, 0xba, 0xe3, 0xbc,
  0xf8, 0x61, 0x8e, 0xbe, 0xb0, 0xab, 0x8a, 0xbe, 0x8d, 0xb9, 0x52, 0xbe,
  0xdb, 0xf3, 0x09, 0x3f, 0x34, 0x85, 0x8a, 0x38, 0xe6, 0x4c, 0xa5, 0xbe,
  0x63, 0xb0, 0xff, 0xbb, 0x43, 0x2d, 0xa5, 0x3d, 0x6c, 0xd9, 0x4d, 0xbe,
  0xc9, 0x81, 0x2e, 0x3e, 0x74, 0x42, 0x40, 0x3e, 0x2f, 0x89, 0xf8, 0xbd,
  0x0c, 0x6f, 0x5e, 0xbd, 0x80, 0x49, 0x9a, 0x3d, 0x66, 0xb5, 0x0e, 0xbe,
  0x36, 0x80, 0x10, 0xbe, 0x33, 0x67, 0x97, 0x3d, 0x9a, 0xbd, 0x8d, 0xbe,
  0x36, 0xb4, 0x82, 0x3e, 0x68, 0x42, 0x4f, 0x3f, 0x0e, 0x9c, 0x17, 0xbd,
  0xca, 0x38, 0xa0, 0xbe, 0x42, 0x9c, 0x3d, 0xbe, 0x52, 0x8f, 0x4b, 0xbd,
  0x3d, 0x0a, 0xff, 0xbd, 0xac, 0x54, 0xbf, 0x3d, 0xe3, 0xbb, 0x88, 0x3d,
  0x32, 0xb3, 0x5c, 0xbe, 0xf4, 0x6c, 0x17, 0xbd, 0xf5, 0x5f, 0xe4, 0xbd,
  0x99, 0x3e, 0x57, 0x3d, 0x9a, 0x48, 0x9f, 0xbe, 0xb1, 0x3e, 0xba, 0xbd,
  0x70, 0xa5, 0x8e, 0xbe, 0x79, 0x9a, 0x7d, 0x3f, 0xe2, 0xed, 0x51, 0x3f,
  0xe4, 0x93, 0xc8, 0x3c, 0x08, 0xa4, 0xb1, 0xbe, 0x4e, 0x63, 0x65, 0x3c,
  0xb1, 0x8e, 0x09, 0x3e, 0x22, 0x91, 0x51, 0x3b, 0xe0, 0x94, 0xbb, 0xbd,
  0x25, 0x72, 0xdf, 0x3d, 0x45, 0x06, 0x77, 0x3c, 0x06, 0xb4, 0xc3, 0x3d,
  0x64, 0xf0, 0xb6, 0xbd, 0xb5, 0xa8, 0xaa, 0x3d, 0x2b, 0x2f, 0x8e, 0xbe,
  0x9b, 0x50, 0x90, 0xbd, 0x9c, 0x86, 0x0d, 0xbe, 0x60, 0x54, 0xb4, 0x3e,
  0xc6, 0x38, 0x23, 0x3f, 0x82, 0xd1, 0xae, 0xbd, 0xe1, 0xb1, 0x43, 0xbe,
  0xd3, 0x8c, 0x48, 0xbe, 0x09, 0x95, 0x34, 0xbe, 0xc9, 0xc9, 0x38, 0xbe,
  0x46, 0x16, 0x9a, 0xbe, 0x59, 0x3a, 0x2a, 0xbe, 0x5c, 0xb4, 0xcf, 0xbd,
  0xc6, 0x6c, 0xb2, 0x3d, 0xe0, 0x80, 0xe7, 0x3b, 0xd8, 0xf3, 0xe4, 0x3c,
  0x07, 0xf8, 0xfd, 0x3c, 0xc3, 0x19, 0x19, 0xbe, 0x67, 0xa5, 0x3f, 0xbe,
  0xc5, 0x11, 0x9a, 0x3f, 0xbc, 0xd0, 0x58, 0x3f, 0x97, 0xce, 0xce, 0x3d,
  0xb1, 0x53, 0x20, 0xbe, 0x76, 0xbb, 0x7b, 0x3d, 0x18, 0x2e, 0x38, 0x3e,
  0x27, 0x3f, 0x65, 0xbe, 0xf7, 0xaa, 0x42, 0xbe, 0x7b, 0x28, 0x05, 0xbe,
  0x4a, 0xa2, 0xc4, 0xbd, 0x62, 0xb4, 0x2e, 0xbe, 0x53, 0xbb, 0x77, 0xbe,
  0xe6, 0xc8, 0x64, 0xbe, 0xc5, 0x9c, 0x99, 0xbd, 0xd0, 0x34, 0xda, 0xbd,
  0xc8, 0x71, 0x7a, 0xbe, 0x90, 0xab, 0xbe, 0x3e, 0x80, 0xdc, 0x10, 0x3f,
  0x39, 0xfb, 0xd1, 0xbd, 0x8c, 0xe7, 0x78, 0xbe, 0x0b, 0x8f, 0xdf, 0xbc,
  0x63, 0xdb, 0x29, 0x3e, 0x3b, 0x79, 0x4a, 0xbd, 0x16, 0x57, 0x9a, 0xbe,
  0xd1, 0xc4, 0xc5, 0xbc, 0x48, 0x1b, 0x01, 0xbe, 0x7b, 0x3a, 0x37, 0xbe,
  0x24, 0x7b, 0x08, 0xbe, 0x25, 0x5e, 0x8f, 0xbe, 0x44, 0xbc, 0xb0, 0xbe,
  0x43, 0x00, 0xbe, 0xbd, 0x7e, 0xf6, 0x16, 0xbe, 0x51, 0x44, 0x0c, 0x3f,
  0xa3, 0x00, 0x3e, 0x3e, 0x5a, 0xf8, 0x7a, 0xba, 0x3c, 0xd4, 0x86, 0xbd,
  0x49, 0xbd, 0xa6, 0xbe, 0xc6, 0x31, 0xac, 0x3d, 0x18, 0xec, 0x5d, 0xbe,
  0xc6, 0x41, 0xeb, 0x3d, 0x1f, 0xe5, 0x69, 0xbe, 0x66, 0xf8, 0x80, 0xbe,
  0x88, 0x6b, 0x79, 0xbe, 0xe1, 0xbf, 0x5c, 0xbe, 0x09, 0x8f, 0xe0, 0x3d,
  0xbc, 0x2e, 0xf1, 0x3c, 0xf2, 0xec, 0x3b, 0x3e, 0x8a, 0x1a, 0xd5, 0xbd,
  0x86, 0x16, 0x2e, 0xbd, 0x18, 0xc3, 0xa5, 0x3e, 0x18, 0xe1, 0xb0, 0xbd,
  0x92, 0xdb, 0x54, 0xbc, 0x12, 0xbe, 0xae, 0x3d, 0x23, 0x60, 0xf8, 0xbe,
  0xf1, 0x77, 0xee, 0x3d, 0x02, 0x4a, 0xfc, 0xbc, 0x6b, 0xc8, 0x38, 0xbd,
  0x4a, 0xe2, 0xa6, 0xbe, 0xc1, 0x72, 0x25, 0x3e, 0xec, 0x97, 0x3c, 0xbe,
  0x51, 0x2c, 0xab, 0x3d, 0xf7, 0x30, 0x0b, 0xbd, 0xb6, 0x47, 0x87, 0x3e,
  0xe7, 0x8f, 0x20, 0x3e, 0x51, 0xd0, 0x0e, 0xbf, 0x22, 0xc2, 0x10, 0xbc,
  0x29, 0x81, 0x49, 0xbe, 0xe6, 0xe2, 0x07, 0xbd, 0x03, 0xa3, 0xea, 0x3d,
  0xb4, 0x10, 0x2c, 0x3e, 0xac, 0xcb, 0x05, 0x3e, 0xac, 0xa2, 0xc3, 0x3d,
  0xf3, 0xa0, 0x1f, 0xbe, 0xd0, 0xa2, 0xc2, 0xbe, 0x7b, 0x75, 0xb8, 0x3d,
  0x02, 0xe0, 0x36, 0xbd, 0x35, 0x81, 0xa7, 0x3e, 0xa1, 0x0b, 0x62, 0xbd,
  0xec, 0x8c, 0xcf, 0x3e, 0x1f, 0xcc, 0x3e, 0x3e, 0x8f, 0xe4, 0xb2, 0xbe,
  0x8a, 0x4b, 0x54, 0xbe, 0xe8, 0x2d, 0x14, 0x3e, 0x59, 0x67, 0x91, 0xbc,
  0xdd, 0xda, 0x12, 0x3e, 0x6f, 0x07, 0x44, 0x3d, 0x58, 0x56, 0x87, 0x3d,
  0x55, 0xf1, 0x97, 0x3d, 0xd2, 0xad, 0x9e, 0xbd, 0x22, 0xfe, 0x4e, 0xbe,
  0x18, 0x1a, 0x28, 0x3e, 0x2a, 0x01, 0x34, 0xbe, 0xf6, 0x8c, 0xa1, 0x3e,
  0x6f, 0x71, 0x02, 0x3d, 0xd0, 0xb1, 0xc7, 0x3e, 0xaa, 0x56, 0x1e, 0x3e,
  0xdd, 0xb9, 0x42, 0xbe, 0x89, 0xf9, 0xf7, 0xbe, 0x54, 0xb6, 0x55, 0xbe,
  0x70, 0x11, 0xab, 0xbc, 0x60, 0x52, 0xec, 0x3d, 0x36, 0x01, 0x93, 0x3d,
  0x92, 0x05, 0x18, 0xbd, 0x78, 0xa9, 0xe5, 0xbb, 0xa5, 0xee, 0x08, 0x3e,
  0x4f, 0x60, 0xfa, 0xbe, 0xc0, 0xcc, 0x2c, 0x3d, 0x44, 0x78, 0x2e, 0xbf,
  0x95, 0x50, 0xa5, 0x3e, 0x95, 0x65, 0x82, 0xbd, 0x52, 0x43, 0xa6, 0x3e,
  0x44, 0x42, 0x16, 0xbc, 0x39, 0xa2, 0x49, 0xbd, 0xa5, 0x0d, 0xde, 0xbe,
  0x31, 0xf7, 0xe1, 0x3d, 0x6b, 0xa4, 0xc2, 0xbc, 0xb9, 0xbe, 0x0a, 0x3e,
  0x85, 0xf1, 0xc3, 0xbe, 0xf1, 0x45, 0x07, 0xbe, 0xab, 0x13, 0x3e, 0x3e,
  0x51, 0x48, 0x0c, 0xbe, 0x14, 0x81, 0xe2, 0xbe, 0xdd, 0x73, 0x0e, 0xbe,
  0xf3, 0xa2, 0x94, 0xbe, 0x08, 0x90, 0x88, 0x3e, 0x4a, 0x38, 0x37, 0xbe,
  0xb6, 0xb6, 0x66, 0x3e, 0x81, 0x45, 0x3e, 0xbe, 0xb5, 0x1c, 0xb3, 0xbe,
  0x5f, 0xab, 0x1b, 0xbe, 0x78, 0x08, 0x30, 0xbd, 0xac, 0xc8, 0x1d, 0xbd,
  0xdc, 0x07, 0xef, 0x3d, 0x76, 0x03, 0x3e, 0xbe, 0xfa, 0x95, 0xdc, 0x3d,
  0x89, 0xf9, 0x6a, 0x3e, 0x7e, 0x7c, 0xa0, 0x3d, 0x32, 0x82, 0x9d, 0xbb,
  0x09, 0xf8, 0x47, 0xbe, 0x74, 0xac, 0x38, 0x3e, 0x05, 0x3e, 0x40, 0x3d,
  0x5e, 0xf5, 0x7c, 0x3c, 0xeb, 0x79, 0x9f, 0x3d, 0x02, 0xfe, 0x83, 0x3c,
  0x4e, 0x78, 0x2d, 0xbe, 0x9c, 0x1a, 0xfd, 0x3c, 0x55, 0xd0, 0xed, 0x3b,
  0x96, 0xd1, 0x23, 0x3d, 0xc1, 0x56, 0x8f, 0x3d, 0x24, 0x39, 0x8b, 0xbe,
  0xa4, 0x27, 0x80, 0xbe, 0xd3, 0xac, 0x9e, 0xbd, 0xd1, 0x3e, 0x4c, 0xbe,
  0xaa, 0xbf, 0xa1, 0xbd, 0x91, 0xe2, 0x4a, 0xbd, 0x9d, 0x24, 0xf3, 0x3d,
  0x3c, 0x80, 0x7b, 0xbe, 0x49, 0xc3, 0xfa, 0xbd, 0xdb, 0x37, 0x46, 0x3e,
  0xe5, 0x32, 0x8e, 0x3d, 0xfb, 0xb5, 0xa6, 0xbd, 0xff, 0xd3, 0xf7, 0xbd,
  0x19, 0x05, 0x6b, 0x3e, 0x2d, 0x9f, 0x0b, 0xbe, 0x72, 0xce, 0x07, 0xbe,
  0x7b, 0x15, 0x87, 0xbe, 0xd2, 0xba, 0x2f, 0xbe, 0x12, 0x4e, 0xd9, 0x3d,
  0xd2, 0x54, 0xa5, 0x3c, 0xf0, 0x5f, 0x14, 0x3e, 0xa2, 0xdd, 0x4f, 0xbd,
  0xa0, 0x74, 0xfd, 0xbd, 0x03, 0x5d, 0xbf, 0x3c, 0x2a, 0x20, 0xa0, 0x3d,
  0x64, 0xf9, 0xb9, 0xbd, 0xe2, 0x32, 0xd6, 0xbd, 0x5c, 0xe3, 0x9a, 0xbd,
  0xff, 0x59, 0x33, 0xbd, 0xc9, 0x7b, 0xaa, 0xbd, 0x0e, 0x12, 0x9e, 0xbe,
  0xf6, 0x2d, 0x0d, 0xbd, 0x5b, 0x47, 0x0b, 0xbd, 0x86, 0xcb, 0x4f, 0x3c,
  0x08, 0xdb, 0x2c, 0xbe, 0xc2, 0xb5, 0x36, 0xbe, 0x41, 0xf4, 0xb0, 0xbd,
  0xac, 0xf5, 0xda, 0xbd, 0x58, 0x8f, 0xd0, 0x3d, 0x9b, 0x45, 0x7c, 0xbe,
  0x4e, 0x73, 0x9b, 0xbd, 0x5b, 0x49, 0x47, 0xbd, 0x71, 0xef, 0x2a, 0xbe,
  0xfc, 0x2d, 0xfa, 0x3d, 0x86, 0xa6, 0xf4, 0xbd, 0x8c, 0x4e, 0x6f, 0xbe,
  0x63, 0x16, 0x4d, 0xbb, 0x2c, 0x2d, 0x34, 0xbe, 0x8d, 0xea, 0xdf, 0x3c,
  0xb2, 0x06, 0x79, 0xbd, 0x5d, 0x27, 0xed, 0xbd, 0xc4, 0x60, 0xed, 0xbc,
  0x31, 0x4d, 0x12, 0xbe, 0x86, 0xf0, 0x08, 0x3e, 0x59, 0x71, 0xa2, 0xbc,
  0x61, 0x91, 0x91, 0x3d, 0x12, 0x60, 0x45, 0xbe, 0xe3, 0x3d, 0x88, 0x3a,
  0x91, 0x6f, 0xfd, 0xbc, 0xca, 0x36, 0x1f, 0x3e, 0x99, 0xa4, 0x1c, 0x3d,
  0x36, 0x56, 0x03, 0xbe, 0x20, 0x58, 0xff, 0xbd, 0xf8, 0xd9, 0x7d, 0xbd,
  0x60, 0x00, 0xc2, 0x3d, 0xb7, 0xb6, 0x9b, 0xbd, 0x80, 0xeb, 0xf0, 0xbd,
  0x47, 0x92, 0x37, 0x3d, 0x8c, 0xae, 0xf9, 0x3b, 0xc7, 0xe1, 0xfe, 0x3d,
  0x6d, 0x3f, 0x8d, 0xbd, 0xc2, 0xd2, 0x0a, 0x3c, 0xdb, 0x67, 0x01, 0x3e,
  0x8d, 0x5c, 0x27, 0xbe, 0xfb, 0xc8, 0xd7, 0xbd, 0x78, 0x69, 0x07, 0xbd,
  0x3f, 0xd2, 0xe4, 0xbd, 0x11, 0x99, 0x1a, 0x3e, 0x42, 0x1b, 0x82, 0xbd,
  0x9d, 0xcd, 0x8e, 0xbd, 0x32, 0xa0, 0x9b, 0xbc, 0x56, 0x6e, 0x69, 0xbe,
  0x15, 0x01, 0x87, 0x3d, 0x6d, 0x7f, 0x58, 0xbe, 0xa7, 0x7c, 0x8a, 0xbd,
  0x0b, 0x7a, 0xd0, 0xbd, 0x7d, 0x10, 0x8c, 0xbd, 0x9e, 0x2d, 0xe7, 0xbd,
  0xcc, 0x3a, 0xa2, 0xbd, 0x5d, 0x5f, 0xb5, 0x3d, 0xa3, 0x48, 0x13, 0xbe,
  0x54, 0x89, 0x96, 0xbc, 0xb5, 0xd3, 0xb1, 0x3c, 0xc3, 0x0c, 0x21, 0xbe,
  0xa1, 0x44, 0x97, 0xbd, 0xcf, 0xf6, 0xb7, 0xbd, 0x6b, 0x51, 0x21, 0x3e,
  0x02, 0x24, 0x7d, 0xbe, 0xdb, 0xb2, 0xbb, 0xbd, 0x38, 0x75, 0x81, 0xbe,
  0x02, 0xfc, 0x04, 0x3e, 0x17, 0xda, 0x3a, 0x3d, 0xc3, 0x5d, 0xcc, 0xbd,
  0xd6, 0x44, 0x46, 0x3c, 0xcd, 0x6a, 0x39, 0x3c, 0x17, 0xad, 0x52, 0xbe,
  0x93, 0x95, 0x75, 0xbd, 0x03, 0x2f, 0xd8, 0xbc, 0xe9, 0xd6, 0xcf, 0x3d,
  0xe3, 0xf4, 0x69, 0xbe, 0xfa, 0x3c, 0xca, 0xbb, 0xe5, 0x3c, 0x3e, 0xbe,
  0x7e, 0x67, 0x08, 0x3e, 0x75, 0x89, 0x2a, 0x3c, 0xc1, 0x3f, 0xf0, 0xbe,
  0xef, 0x7c, 0xa2, 0xbe, 0xaf, 0xb9, 0xb6, 0xbe, 0x8f, 0x22, 0x0d, 0xbd,
  0x03, 0xa9, 0x1f, 0x3d, 0x9f, 0x78, 0x3c, 0xbf, 0xb0, 0xab, 0x76, 0xbd,
  0x87, 0xd5, 0x3d, 0x3d, 0x37, 0x0f, 0xf3, 0xbd, 0x5d, 0xb4, 0x35, 0x3e,
  0x5d, 0xbe, 0xb3, 0xbc, 0xd4, 0xec, 0x2d, 0x3e, 0xb6, 0x89, 0x85, 0x3d,
  0x8b, 0x27, 0xab, 0xbd, 0x42, 0x45, 0xb3, 0xbd, 0x99, 0x11, 0x9b, 0xbd,
  0xde, 0xdd, 0x88, 0x3d, 0x3e, 0xf5, 0x7b, 0x3e, 0x90, 0xda, 0x67, 0x3e,
  0x02, 0xa0, 0xf6, 0x3c, 0xd7, 0xd2, 0xbc, 0x3d, 0x47, 0x53, 0x42, 0xbe,
  0xc2, 0xf0, 0xe5, 0x3b, 0xec, 0xc6, 0x5d, 0xbe, 0xfd, 0xfd, 0x2d, 0xbd,
  0x6c, 0x85, 0xb0, 0x3e, 0xc2, 0x67, 0x28, 0xbe, 0x8a, 0x89, 0x40, 0xbd,
  0xe7, 0x9e, 0x44, 0x3d, 0xc3, 0x34, 0xa7, 0xbe, 0x14, 0xb6, 0x95, 0x3e,
  0xc5, 0xa9, 0x50, 0xbe, 0xe9, 0x50, 0xa6, 0x3c, 0xec, 0x8c, 0xa6, 0x3e,
  0x61, 0x4c, 0x70, 0xbd, 0x47, 0x28, 0x55, 0x3e, 0x90, 0xf7, 0x5d, 0x3d,
  0xf0, 0xb9, 0x74, 0xbe, 0xd4, 0xc7, 0x24, 0xbd, 0x35, 0xd0, 0x20, 0xbe,
  0xb3, 0x50, 0x9a, 0xbd, 0x6f, 0xb4, 0x81, 0x3e, 0xc9, 0xcd, 0x71, 0xbd,
  0x1a, 0xaa, 0x85, 0x3e, 0x03, 0x91, 0x98, 0x3d, 0xa9, 0x6f, 0x21, 0xbe,
  0xef, 0x83, 0xa3, 0x3e, 0xbd, 0x99, 0xe7, 0x3b, 0x5f, 0xa2, 0x59, 0xbd,
  0xc3, 0x4b, 0x9e, 0x3d, 0x39, 0x30, 0x64, 0xbe, 0xb3, 0x99, 0x3b, 0x3e,
  0x99, 0x4b, 0x33, 0xbe, 0x80, 0xdb, 0x9f, 0xbe, 0x94, 0x6d, 0x1b, 0xbd,
  0x08, 0x8c, 0xf4, 0xbd, 0x62, 0x8b, 0x22, 0x3d, 0x13, 0x6f, 0xa7, 0x3d,
  0x89, 0x98, 0xb6, 0x3d, 0x03, 0x33, 0xe2, 0xbb, 0x27, 0xdd, 0x18, 0x3d,
  0x46, 0x8f, 0x92, 0xbe, 0xb1, 0x2e, 0x1a, 0x3f, 0x07, 0x96, 0xba, 0xbd,
  0x7b, 0x02, 0x8e, 0xbd, 0xc7, 0x28, 0x89, 0x3d, 0x27, 0x75, 0x10, 0x3d,
  0x9f, 0x06, 0x15, 0x3e, 0xc4, 0xaf, 0x21, 0x3e, 0xad, 0x7e, 0x3e, 0xbd,
  0x3c, 0x9e, 0xa0, 0x3b, 0x22, 0x64, 0x66, 0xbe, 0x7d, 0xb8, 0xf1, 0xbc,
  0x80, 0x2c, 0xa5, 0x3e, 0xc3, 0xad, 0x58, 0xbd, 0x7e, 0x78, 0x9a, 0xbd,
  0x2f, 0xca, 0x90, 0x3d, 0x83, 0x8c, 0x34, 0xbe, 0xc9, 0xc1, 0x6d, 0x3d,
  0x04, 0x65, 0x76, 0xbe, 0xe5, 0x40, 0xdc, 0xbe, 0xc3, 0x83, 0x82, 0x3e,
  0xec, 0x4b, 0x7c, 0x3c, 0x66, 0xbd, 0x07, 0x3e, 0x40, 0x44, 0x53, 0xbe,
  0x5e, 0xb5, 0x63, 0xbe, 0x45, 0xcb, 0xf6, 0x3d, 0x34, 0x35, 0x29, 0xbe,
  0xf8, 0xd8, 0xae, 0xbd, 0xad, 0x0f, 0xb5, 0x3e, 0xfa, 0x0e, 0xdf, 0xbe,
  0x7d, 0xcb, 0x60, 0xbd, 0xd2, 0xbc, 0x1e, 0x3c, 0xad, 0xc6, 0xef, 0xbd,
  0x59, 0x79, 0x92, 0x3e, 0x48, 0xf6, 0x7b, 0xbe, 0x2a, 0x19, 0x86, 0xbe,
  0x64, 0x4a, 0x31, 0x3c, 0x97, 0xde, 0xa5, 0xbd, 0x09, 0x1a, 0x83, 0xbd,
  0xed, 0x2f, 0x83, 0xbe, 0xd9, 0x2b, 0x77, 0xbd, 0xa3, 0xad, 0x43, 0x3d,
  0x7d, 0xd8, 0xcc, 0xbe, 0xb4, 0x2f, 0xc0, 0xbd, 0x9a, 0x6c, 0xb9, 0x3e,
  0x16, 0x3a, 0xf7, 0x3d, 0x24, 0x93, 0xf7, 0xbd, 0xf4, 0x33, 0x62, 0xbc,
  0x61, 0xc1, 0x21, 0xbe, 0x12, 0x1d, 0x8c, 0x3e, 0x57, 0xac, 0xd6, 0xbc,
  0x3a, 0xe9, 0x16, 0xbe, 0xc1, 0xfb, 0x05, 0xbe, 0x03, 0xed, 0xff, 0xbd,
  0xaf, 0xff, 0x37, 0xbe, 0x10, 0x3d, 0x6f, 0xbd, 0x29, 0x3c, 0xbb, 0xbe,
  0x33, 0xb3, 0xf6, 0xbe, 0x2d, 0xb9, 0x1c, 0xbe, 0x89, 0xe2, 0xfa, 0xbb,
  0x5c, 0x6e, 0xaf, 0xbd, 0x4a, 0xdb, 0x88, 0xbe, 0x67, 0x38, 0xcf, 0xbe,
  0x09, 0x97, 0x1e, 0xbe, 0x68, 0x30, 0x7e, 0xbe, 0x2d, 0x2f, 0xc4, 0xbd,
  0xfc, 0x5c, 0x0c, 0x3d, 0x33, 0x1f, 0xc6, 0xbe, 0x4c, 0xa2, 0x07, 0x3e,
  0xfa, 0x58, 0x70, 0xbd, 0x68, 0xad, 0x13, 0x3e, 0xad, 0xc3, 0x6f, 0xbe,
  0x94, 0xc9, 0x4d, 0xbe, 0xb3, 0x8e, 0xc4, 0xbe, 0x98, 0xe8, 0x4a, 0x3e,
  0x67, 0x39, 0xc0, 0xbe, 0xf8, 0x45, 0xfd, 0xbe, 0xae, 0xc4, 0x58, 0xbe,
  0x53, 0x98, 0x3c, 0xbd, 0x0a, 0xd5, 0x19, 0xbe, 0xef, 0xe4, 0xbf, 0xbe,
  0xf4, 0xe3, 0x2d, 0xbe, 0xce, 0x64, 0x51, 0xbd, 0x11, 0x64, 0x8f, 0xbe,
  0x78, 0x00, 0x80, 0x3d, 0x8d, 0x2e, 0x05, 0xbe, 0x81, 0x40, 0x0c, 0x3e,
  0x7f, 0x61, 0x00, 0xbe, 0x65, 0x45, 0x80, 0xbe, 0x9d, 0x7b, 0x10, 0xbe,
  0xf6, 0x5f, 0xc9, 0xbc, 0xe7, 0x48, 0x52, 0xbd, 0x95, 0x2d, 0x75, 0xbe,
  0xfa, 0xec, 0x99, 0xbe, 0x19, 0x94, 0x00, 0xbd, 0xb5, 0x29, 0x48, 0xbe,
  0x4a, 0xb0, 0xd4, 0xbd, 0xd4, 0x44, 0x01, 0xbe, 0xf4, 0xd9, 0x60, 0xbd,
  0xa8, 0x7b, 0xda, 0xbe, 0x79, 0xf3, 0x19, 0x3e, 0x6e, 0xf1, 0x92, 0xbe,
  0x10, 0xc0, 0xa6, 0xbe, 0x1b, 0xe2, 0x7b, 0xbe, 0x37, 0x27, 0xe3, 0xbe,
  0x68, 0x04, 0xac, 0xbe, 0x85, 0xe6, 0xe7, 0xbd, 0x13, 0xb9, 0x4d, 0xbe,
  0x73, 0xf4, 0x61, 0xbe, 0x82, 0xf5, 0x37, 0x3e, 0xc7, 0x13, 0xb0, 0x3d,
  0xae, 0x89, 0x2f, 0xbe, 0xc3, 0x25, 0x8f, 0xbe, 0x02, 0xc2, 0x18, 0x3e,
  0xb4, 0x14, 0x6f, 0xbc, 0xe6, 0x49, 0x90, 0xbc, 0x39, 0x4e, 0xac, 0x3d,
  0x14, 0x5a, 0xbb, 0xbc, 0x49, 0x41, 0x52, 0x3e, 0x66, 0x5b, 0x30, 0x3e,
  0xb0, 0x47, 0xaa, 0xbe, 0x2d, 0x17, 0x05, 0xbf, 0xc1, 0xdb, 0xb9, 0x3a,
  0x04, 0x80, 0xad, 0x3d, 0x22, 0x9e, 0x9b, 0xbd, 0x44, 0xcc, 0x08, 0x3f,
  0x57, 0x44, 0xb9, 0x3c, 0x60, 0x75, 0x3c, 0xbe, 0xcf, 0xc3, 0x8c, 0xbe,
  0x23, 0xe9, 0x32, 0x3f, 0x21, 0x10, 0x8e, 0x3e, 0x42, 0x74, 0x0a, 0xba,
  0xc9, 0x30, 0x11, 0xbd, 0x36, 0x52, 0x79, 0xbe, 0x66, 0xc9, 0x0c, 0x3e,
  0x77, 0x9f, 0xf2, 0xbc, 0x66, 0xb4, 0x1f, 0x3e, 0x60, 0xed, 0x23, 0xbe,
  0xfb, 0xd0, 0xa0, 0xbd, 0x87, 0x9c, 0x53, 0x3e, 0xfd, 0x65, 0x18, 0xbd,
  0x5e, 0xf2, 0xb0, 0x3e, 0xe2, 0xd8, 0x0a, 0x3e, 0xe2, 0xfc, 0xc2, 0x3d,
  0x97, 0x28, 0x3c, 0xbe, 0x8c, 0x26, 0xb7, 0x3e, 0x29, 0x8d, 0x19, 0xba,
  0xca, 0x52, 0xf2, 0xbd, 0xfa, 0x24, 0xb8, 0xba, 0x57, 0x10, 0xf2, 0x3d,
  0x11, 0x4a, 0x6a, 0x3d, 0x72, 0xa8, 0xbe, 0x3e, 0x06, 0xef, 0xb9, 0x3c,
  0xbc, 0xef, 0xdf, 0x3d, 0x75, 0x70, 0x16, 0xbe, 0x05, 0x0e, 0x4f, 0x3e,
  0x14, 0x74, 0xd3, 0x3e, 0x2c, 0xa6, 0xc0, 0x3e, 0xc5, 0x2b, 0xc2, 0x3d,
  0xd0, 0xd3, 0x59, 0x3d, 0xd7, 0x09, 0xb1, 0xbd, 0xf6, 0xff, 0x07, 0x3e,
  0x66, 0xfd, 0xff, 0xff, 0x10, 0x00, 0x00, 0x00, 0x07, 0x00, 0x00, 0x00,
  0x14, 0x00, 0x00, 0x00, 0x2c, 0x00, 0x00, 0x00, 0x02, 0x00, 0x00, 0x00,
  0x10, 0x00, 0x00, 0x00, 0x70, 0x00, 0x00, 0x00, 0x17, 0x00, 0x00, 0x00,
  0x73, 0x65, 0x71, 0x75, 0x65, 0x6e, 0x74, 0x69, 0x61, 0x6c, 0x2f, 0x64,
  0x65, 0x6e, 0x73, 0x65, 0x2f, 0x4d, 0x61, 0x74, 0x4d, 0x75, 0x6c, 0x00,
  0xd0, 0xfc, 0xff, 0xff, 0xda, 0xfd, 0xff, 0xff, 0x04, 0x00, 0x00, 0x00,
  0x08, 0x00, 0x00, 0x00, 0xff, 0xff, 0xff, 0xff, 0x70, 0x00, 0x00, 0x00,
  0x00, 0x00, 0x0e, 0x00, 0x18, 0x00, 0x08, 0x00, 0x07, 0x00, 0x0c, 0x00,
  0x10, 0x00, 0x14, 0x00, 0x0e, 0x00, 0x00, 0x00, 0x00, 0x00, 0x00, 0x02,
  0x10, 0x00, 0x00, 0x00, 0x06, 0x00, 0x00, 0x00, 0x10, 0x00, 0x00, 0x00,
  0x2c, 0x00, 0x00, 0x00, 0x01, 0x00, 0x00, 0x00, 0x02, 0x00, 0x00, 0x00,
  0x18, 0x00, 0x00, 0x00, 0x73, 0x65, 0x71, 0x75, 0x65, 0x6e, 0x74, 0x69,
  0x61, 0x6c, 0x2f, 0x66, 0x6c, 0x61, 0x74, 0x74, 0x65, 0x6e, 0x2f, 0x43,
  0x6f, 0x6e, 0x73, 0x74, 0x00, 0x00, 0x00, 0x00, 0x38, 0xfd, 0xff, 0xff,
  0x42, 0xfe, 0xff, 0xff, 0x04, 0x00, 0x00, 0x00, 0x0c, 0x00, 0x00, 0x00,
  0xaf, 0x08, 0xcb, 0xbf, 0x77, 0x76, 0x86, 0xc0, 0x48, 0xb4, 0x4a, 0x40,
  0x26, 0xfe, 0xff, 0xff, 0x10, 0x00, 0x00, 0x00, 0x05, 0x00, 0x00, 0x00,
  0x10, 0x00, 0x00, 0x00, 0x44, 0x00, 0x00, 0x00, 0x01, 0x00, 0x00, 0x00,
  0x03, 0x00, 0x00, 0x00, 0x32, 0x00, 0x00, 0x00, 0x73, 0x65, 0x71, 0x75,
  0x65, 0x6e, 0x74, 0x69, 0x61, 0x6c, 0x2f, 0x64, 0x65, 0x6e, 0x73, 0x65,
  0x5f, 0x31, 0x2f, 0x42, 0x69, 0x61, 0x73, 0x41, 0x64, 0x64, 0x2f, 0x52,
  0x65, 0x61, 0x64, 0x56, 0x61, 0x72, 0x69, 0x61, 0x62, 0x6c, 0x65, 0x4f,
  0x70, 0x2f, 0x72, 0x65, 0x73, 0x6f, 0x75, 0x72, 0x63, 0x65, 0x00, 0x00,
  0xa8, 0xfd, 0xff, 0xff, 0xb2, 0xfe, 0xff, 0xff, 0x04, 0x00, 0x00, 0x00,
  0x40, 0x00, 0x00, 0x00, 0x47, 0x2e, 0x80, 0xbe, 0x53, 0xa0, 0x72, 0xbe,
  0xdb, 0x27, 0xe5, 0xbd, 0x38, 0xf0, 0x08, 0x3f, 0x36, 0xb9, 0xa6, 0xbe,
  0x7c, 0x55, 0x82, 0xbf, 0x5f, 0x59, 0xe7, 0x3e, 0x4b, 0x3b, 0x3d, 0x3e,
  0x19, 0xb6, 0x32, 0xbf, 0xcd, 0xa4, 0xc0, 0xbe, 0x97, 0x15, 0x04, 0xbe,
  0xba, 0x80, 0xdf, 0x3e, 0x9e, 0xdf, 0x25, 0xbf, 0xdd, 0xe2, 0x1a, 0xbe,
  0xe6, 0xe4, 0xd1, 0x3f, 0xa3, 0xac, 0x2e, 0xbf, 0xca, 0xfe, 0xff, 0xff,
  0x10, 0x00, 0x00, 0x00, 0x04, 0x00, 0x00, 0x00, 0x10, 0x00, 0x00, 0x00,
  0x44, 0x00, 0x00, 0x00, 0x01, 0x00, 0x00, 0x00, 0x10, 0x00, 0x00, 0x00,
  0x30, 0x00, 0x00, 0x00, 0x73, 0x65, 0x71, 0x75, 0x65, 0x6e, 0x74, 0x69,
  0x61, 0x6c, 0x2f, 0x64, 0x65, 0x6e, 0x73, 0x65, 0x2f, 0x42, 0x69, 0x61,
  0x73, 0x41, 0x64, 0x64, 0x2f, 0x52, 0x65, 0x61, 0x64, 0x56, 0x61, 0x72,
  0x69, 0x61, 0x62, 0x6c, 0x65, 0x4f, 0x70, 0x2f, 0x72, 0x65, 0x73, 0x6f,
  0x75, 0x72, 0x63, 0x65, 0x00, 0x00, 0x00, 0x00, 0x4c, 0xfe, 0xff, 0xff,
  0x56, 0xff, 0xff, 0xff, 0x04, 0x00, 0x00, 0x00, 0x40, 0x00, 0x00, 0x00,
  0xfe, 0xef, 0xa2, 0xbe, 0x4c, 0xfd, 0xae, 0xbf, 0x75, 0xf4, 0xeb, 0xbd,
  0xf7, 0x2b, 0xb0, 0xbe, 0x87, 0x70, 0x91, 0xbf, 0xc3, 0xab, 0x09, 0xbe,
  0x73, 0x2a, 0x97, 0xbf, 0x41, 0xdd, 0xb1, 0xbd, 0x72, 0xf6, 0x11, 0xbf,
  0x53, 0x0a, 0x57, 0xbf, 0xcd, 0xda, 0x94, 0x3f, 0xd1, 0xf7, 0xd5, 0x3f,
  0x70, 0x9a, 0x2b, 0xbf, 0xff, 0x6f, 0x8d, 0x3e, 0x75, 0xba, 0x19, 0xbf,
  0x3c, 0x9f, 0x45, 0xbf, 0x6e, 0xff, 0xff, 0xff, 0x10, 0x00, 0x00, 0x00,
  0x03, 0x00, 0x00, 0x00, 0x10, 0x00, 0x00, 0x00, 0x48, 0x00, 0x00, 0x00,
  0x01, 0x00, 0x00, 0x00, 0x10, 0x00, 0x00, 0x00, 0x33, 0x00, 0x00, 0x00,
  0x73, 0x65, 0x71, 0x75, 0x65, 0x6e, 0x74, 0x69, 0x61, 0x6c, 0x2f, 0x63,
  0x6f, 0x6e, 0x76, 0x32, 0x64, 0x5f, 0x31, 0x2f, 0x42, 0x69, 0x61, 0x73,
  0x41, 0x64, 0x64, 0x2f, 0x52, 0x65, 0x61, 0x64, 0x56, 0x61, 0x72, 0x69,
  0x61, 0x62, 0x6c, 0x65, 0x4f, 0x70, 0x2f, 0x72, 0x65, 0x73, 0x6f, 0x75,
  0x72, 0x63, 0x65, 0x00, 0x04, 0x00, 0x06, 0x00, 0x04, 0x00, 0x00, 0x00,
  0x00, 0x00, 0x06, 0x00, 0x08, 0x00, 0x04, 0x00, 0x06, 0x00, 0x00, 0x00,
  0x04, 0x00, 0x00, 0x00, 0x20, 0x00, 0x00, 0x00, 0xae, 0x82, 0xa7, 0xbf,
  0x43, 0x54, 0xfc, 0xbf, 0xdc, 0xdf, 0x05, 0xbf, 0xf4, 0x8d, 0x9b, 0xbf,
  0x8e, 0x90, 0xb6, 0xbf, 0x48, 0x8c, 0xea, 0xbf, 0x6f, 0xe7, 0x8b, 0xbe,
  0x97, 0xd1, 0xd3, 0xbf, 0x00, 0x00, 0x0e, 0x00, 0x14, 0x00, 0x04, 0x00,
  0x00, 0x00, 0x08, 0x00, 0x0c, 0x00, 0x10, 0x00, 0x0e, 0x00, 0x00, 0x00,
  0x10, 0x00, 0x00, 0x00, 0x02, 0x00, 0x00, 0x00, 0x10, 0x00, 0x00, 0x00,
  0x44, 0x00, 0x00, 0x00, 0x01, 0x00, 0x00, 0x00, 0x08, 0x00, 0x00, 0x00,
  0x31, 0x00, 0x00, 0x00, 0x73, 0x65, 0x71, 0x75, 0x65, 0x6e, 0x74, 0x69,
  0x61, 0x6c, 0x2f, 0x63, 0x6f, 0x6e, 0x76, 0x32, 0x64, 0x2f, 0x42, 0x69,
  0x61, 0x73, 0x41, 0x64, 0x64, 0x2f, 0x52, 0x65, 0x61, 0x64, 0x56, 0x61,
  0x72, 0x69, 0x61, 0x62, 0x6c, 0x65, 0x4f, 0x70, 0x2f, 0x72, 0x65, 0x73,
  0x6f, 0x75, 0x72, 0x63, 0x65, 0x00, 0x00, 0x00, 0x90, 0xff, 0xff, 0xff,
  0x14, 0x00, 0x18, 0x00, 0x04, 0x00, 0x00, 0x00, 0x08, 0x00, 0x0c, 0x00,
  0x10, 0x00, 0x00, 0x00, 0x00, 0x00, 0x14, 0x00, 0x14, 0x00, 0x00, 0x00,
  0x14, 0x00, 0x00, 0x00, 0x01, 0x00, 0x00, 0x00, 0x20, 0x00, 0x00, 0x00,
  0x44, 0x00, 0x00, 0x00, 0x2c, 0x00, 0x00, 0x00, 0x04, 0x00, 0x00, 0x00,
  0x01, 0x00, 0x00, 0x00, 0x40, 0x00, 0x00, 0x00, 0x03, 0x00, 0x00, 0x00,
  0x01, 0x00, 0x00, 0x00, 0x0c, 0x00, 0x00, 0x00, 0x63, 0x6f, 0x6e, 0x76,
  0x32, 0x64, 0x5f, 0x69, 0x6e, 0x70, 0x75, 0x74, 0x00, 0x00, 0x00, 0x00,
  0x04, 0x00, 0x00, 0x00, 0xff, 0xff, 0xff, 0xff, 0x40, 0x00, 0x00, 0x00,
  0x03, 0x00, 0x00, 0x00, 0x01, 0x00, 0x00, 0x00, 0xfc, 0xff, 0xff, 0xff,
  0x04, 0x00, 0x04, 0x00, 0x04, 0x00, 0x00, 0x00
};
unsigned int _content_mbed08_model_model_tflite_len = 13052;