#include "magic_wand_model_data.h"

// We need to keep the data array aligned on some architectures.
#ifdef __has_attribute
#define HAVE_ATTRIBUTE(x) __has_attribute(x)
#else
#define HAVE_ATTRIBUTE(x) 0
#endif
#if HAVE_ATTRIBUTE(aligned) || (defined(__GNUC__) && !defined(__clang__))
#define DATA_ALIGN_ATTRIBUTE __attribute__((aligned(4)))
#else
#define DATA_ALIGN_ATTRIBUTE
#endif

const unsigned char g_magic_wand_model_data[] DATA_ALIGN_ATTRIBUTE = {
  0x1c, 0x00, 0x00, 0x00, 0x54, 0x46, 0x4c, 0x33, 0x14, 0x00, 0x20, 0x00,
  0x04, 0x00, 0x08, 0x00, 0x0c, 0x00, 0x10, 0x00, 0x14, 0x00, 0x00, 0x00,
  0x18, 0x00, 0x1c, 0x00, 0x14, 0x00, 0x00, 0x00, 0x03, 0x00, 0x00, 0x00,
  0x18, 0x00, 0x00, 0x00, 0x2c, 0x00, 0x00, 0x00, 0xd8, 0x00, 0x00, 0x00,
  0x2c, 0x00, 0x00, 0x00, 0x80, 0x00, 0x00, 0x00, 0x78, 0x00, 0x00, 0x00,
  0x05, 0x00, 0x00, 0x00, 0x28, 0x07, 0x00, 0x00, 0x44, 0x06, 0x00, 0x00,
  0xbc, 0x03, 0x00, 0x00, 0xf8, 0x02, 0x00, 0x00, 0xac, 0x01, 0x00, 0x00,
  0x01, 0x00, 0x00, 0x00, 0xd0, 0x00, 0x00, 0x00, 0x14, 0x00, 0x00, 0x00,
  0x98, 0x32, 0x00, 0x00, 0x94, 0x32, 0x00, 0x00, 0x8c, 0x31, 0x00, 0x00,
  0xd8, 0x30, 0x00, 0x00, 0x30, 0x30, 0x00, 0x00, 0xbc, 0x2f, 0x00, 0x00,
  0x50, 0x2f, 0x00, 0x00, 0x00, 0x13, 0x00, 0x00, 0xec, 0x11, 0x00, 0x00,
  0x10, 0x10, 0x00, 0x00, 0xb4, 0x07, 0x00, 0x00, 0x6c, 0x32, 0x00, 0x00,
  0x68, 0x32, 0x00, 0x00, 0x64, 0x32, 0x00, 0x00, 0x60, 0x32, 0x00, 0x00,
  0x5c, 0x32, 0x00, 0x00, 0x58, 0x32, 0x00, 0x00, 0x54, 0x32, 0x00, 0x00,
  0x50, 0x32, 0x00, 0x00, 0x3c, 0x00, 0x00, 0x00, 0x00, 0x00, 0x00, 0x00,
  0x01, 0x00, 0x00, 0x00, 0x0c, 0x00, 0x00, 0x00, 0x08, 0x00, 0x0c, 0x00,
  0x04, 0x00, 0x08, 0x00, 0x08, 0x00, 0x00, 0x00, 0x08, 0x00, 0x00, 0x00,
  0x13, 0x00, 0x00, 0x00, 0x13, 0x00, 0x00, 0x00, 0x6d, 0x69, 0x6e, 0x5f,
  0x72, 0x75, 0x6e, 0x74, 0x69, 0x6d, 0x65, 0x5f, 0x76, 0x65, 0x72, 0x73,
  0x69, 0x6f, 0x6e, 0x00, 0xfa, 0xce, 0xff, 0xff, 0x04, 0x00, 0x00, 0x00,
  0x10, 0x00, 0x00, 0x00, 0x31, 0x2e, 0x35, 0x2e, 0x30, 0x00, 0x00, 0x00,
  0x00, 0x00, 0x00, 0x00, 0x00, 0x00, 0x00, 0x00, 0x0f, 0x00, 0x00, 0x00,
  0x4d, 0x4c, 0x49, 0x52, 0x20, 0x43, 0x6f, 0x6e, 0x76, 0x65, 0x72, 0x74,
  0x65, 0x64, 0x2e, 0x00, 0x00, 0x00, 0x0e, 0x00, 0x18, 0x00, 0x04, 0x00,
  0x08, 0x00, 0x0c, 0x00, 0x10, 0x00, 0x14, 0x00, 0x0e, 0x00, 0x00, 0x00,
  0x14, 0x00, 0x00, 0x00, 0x5c, 0x00, 0x00, 0x00, 0x60, 0x00, 0x00, 0x00,
  0x64, 0x00, 0x00, 0x00, 0x84, 0x00, 0x00, 0x00, 0x12, 0x00, 0x00, 0x00,
  0x58, 0x31, 0x00, 0x00, 0xe8, 0x30, 0x00, 0x00, 0x44, 0x30, 0x00, 0x00,
  0x9c, 0x2f, 0x00, 0x00, 0xf4, 0x2e, 0x00, 0x00, 0x94, 0x2e, 0x00, 0x00,
  0x2c, 0x2e, 0x00, 0x00, 0xd8, 0x11, 0x00, 0x00, 0xbc, 0x10, 0x00, 0x00,
  0xe0, 0x0e, 0x00, 0x00, 0x0c, 0x06, 0x00, 0x00, 0x28, 0x05, 0x00, 0x00,
  0xe8, 0x03, 0x00, 0x00, 0x3c, 0x03, 0x00, 0x00, 0x98, 0x02, 0x00, 0x00,
  0xd4, 0x01, 0x00, 0x00, 0x10, 0x01, 0x00, 0x00, 0x84, 0x00, 0x00, 0x00,
  0x01, 0x00, 0x00, 0x00, 0x00, 0x00, 0x00, 0x00, 0x01, 0x00, 0x00, 0x00,
  0x11, 0x00, 0x00, 0x00, 0x08, 0x00, 0x00, 0x00, 0x74, 0x05, 0x00, 0x00,
  0x94, 0x04, 0x00, 0x00, 0x78, 0x03, 0x00, 0x00, 0xbc, 0x02, 0x00, 0x00,
  0x30, 0x02, 0x00, 0x00, 0x50, 0x01, 0x00, 0x00, 0xa8, 0x00, 0x00, 0x00,
  0x10, 0x00, 0x00, 0x00, 0x04, 0x00, 0x00, 0x00, 0x6d, 0x61, 0x69, 0x6e,
  0x00, 0x00, 0x00, 0x00, 0x7a, 0xff, 0xff, 0xff, 0x00, 0x00, 0x00, 0x09,
  0x04, 0x00, 0x00, 0x00, 0x1c, 0x00, 0x00, 0x00, 0x10, 0x00, 0x00, 0x00,
  0x04, 0x00, 0x00, 0x00, 0xf6, 0xcf, 0xff, 0xff, 0x00, 0x00, 0x80, 0x3f,
  0x01, 0x00, 0x00, 0x00, 0x11, 0x00, 0x00, 0x00, 0x01, 0x00, 0x00, 0x00,
  0x10, 0x00, 0x00, 0x00, 0xa0, 0xfa, 0xff, 0xff, 0x19, 0x00, 0x00, 0x00,
  0x00, 0x00, 0x00, 0x19, 0x01, 0x00, 0x00, 0x00, 0x84, 0xcf, 0xff, 0xff,
  0x14, 0x00, 0x00, 0x00, 0x12, 0x00, 0x00, 0x00, 0x18, 0x00, 0x00, 0x00,
  0x30, 0x00, 0x00, 0x00, 0x20, 0x00, 0x00, 0x00, 0x02, 0x00, 0x00, 0x00,
  0x01, 0x00, 0x00, 0x00, 0x03, 0x00, 0x00, 0x00, 0x08, 0x00, 0x00, 0x00,
  0x49, 0x64, 0x65, 0x6e, 0x74, 0x69, 0x74, 0x79, 0x00, 0x00, 0x00, 0x00,
  0x02, 0x00, 0x00, 0x00, 0xff, 0xff, 0xff, 0xff, 0x03, 0x00, 0x00, 0x00,
  0x68, 0xd0, 0xff, 0xff, 0x00, 0x00, 0x0e, 0x00, 0x18, 0x00, 0x08, 0x00,
  0x0c, 0x00, 0x10, 0x00, 0x07, 0x00, 0x14, 0x00, 0x0e, 0x00, 0x00, 0x00,
  0x00, 0x00, 0x00, 0x08, 0x03, 0x00, 0x00, 0x00, 0x18, 0x00, 0x00, 0x00,
  0x0c, 0x00, 0x00, 0x00, 0x04, 0x00, 0x00, 0x00, 0x84, 0xcf, 0xff, 0xff,
  0x01, 0x00, 0x00, 0x00, 0x10, 0x00, 0x00, 0x00, 0x03, 0x00, 0x00, 0x00,
  0x0f, 0x00, 0x00, 0x00, 0x07, 0x00, 0x00, 0x00, 0x04, 0x00, 0x00, 0x00,
  0x0c, 0xd0, 0xff, 0xff, 0x14, 0x00, 0x00, 0x00, 0x11, 0x00, 0x00, 0x00,
  0x18, 0x00, 0x00, 0x00, 0x5c, 0x00, 0x00, 0x00, 0x4c, 0x00, 0x00, 0x00,
  0x02, 0x00, 0x00, 0x00, 0x01, 0x00, 0x00, 0x00, 0x03, 0x00, 0x00, 0x00,
  0x34, 0x00, 0x00, 0x00, 0x73, 0x65, 0x71, 0x75, 0x65, 0x6e, 0x74, 0x69,
  0x61, 0x6c, 0x2f, 0x64, 0x65, 0x6e, 0x73, 0x65, 0x5f, 0x31, 0x2f, 0x4d,
  0x61, 0x74, 0x4d, 0x75, 0x6c, 0x3b, 0x73, 0x65, 0x71, 0x75, 0x65, 0x6e,
  0x74, 0x69, 0x61, 0x6c, 0x2f, 0x64, 0x65, 0x6e, 0x73, 0x65, 0x5f, 0x31,
  0x2f, 0x42, 0x69, 0x61, 0x73, 0x41, 0x64, 0x64, 0x00, 0x00, 0x00, 0x00,
  0x02, 0x00, 0x00, 0x00, 0xff, 0xff, 0xff, 0xff, 0x03, 0x00, 0x00, 0x00,
  0x0c, 0xd0, 0xff, 0xff, 0xda, 0xfc, 0xff, 0xff, 0x00, 0x00, 0x00, 0x08,
  0x03, 0x00, 0x00, 0x00, 0x24, 0x00, 0x00, 0x00, 0x18, 0x00, 0x00, 0x00,
  0x0c, 0x00, 0x00, 0x00, 0x00, 0x00, 0x06, 0x00, 0x08, 0x00, 0x07, 0x00,
  0x06, 0x00, 0x00, 0x00, 0x00, 0x00, 0x00, 0x01, 0x01, 0x00, 0x00, 0x00,
  0x0f, 0x00, 0x00, 0x00, 0x03, 0x00, 0x00, 0x00, 0x0e, 0x00, 0x00, 0x00,
  0x06, 0x00, 0x00, 0x00, 0x03, 0x00, 0x00, 0x00, 0xe8, 0xfb, 0xff, 0xff,
  0x09, 0x00, 0x00, 0x00, 0x00, 0x00, 0x00, 0x09, 0x01, 0x00, 0x00, 0x00,
  0xcc, 0xd0, 0xff, 0xff, 0x14, 0x00, 0x00, 0x00, 0x10, 0x00, 0x00, 0x00,
  0x18, 0x00, 0x00, 0x00, 0x6c, 0x00, 0x00, 0x00, 0x5c, 0x00, 0x00, 0x00,
  0x02, 0x00, 0x00, 0x00, 0x01, 0x00, 0x00, 0x00, 0x10, 0x00, 0x00, 0x00,
  0x46, 0x00, 0x00, 0x00, 0x73, 0x65, 0x71, 0x75, 0x65, 0x6e, 0x74, 0x69,
  0x61, 0x6c, 0x2f, 0x64, 0x65, 0x6e, 0x73, 0x65, 0x2f, 0x4d, 0x61, 0x74,
  0x4d, 0x75, 0x6c, 0x3b, 0x73, 0x65, 0x71, 0x75, 0x65, 0x6e, 0x74, 0x69,
  0x61, 0x6c, 0x2f, 0x64, 0x65, 0x6e, 0x73, 0x65, 0x2f, 0x52, 0x65, 0x6c,
  0x75, 0x3b, 0x73, 0x65, 0x71, 0x75, 0x65, 0x6e, 0x74, 0x69, 0x61, 0x6c,
  0x2f, 0x64, 0x65, 0x6e, 0x73, 0x65, 0x2f, 0x42, 0x69, 0x61, 0x73, 0x41,
  0x64, 0x64, 0x00, 0x00, 0x02, 0x00, 0x00, 0x00, 0xff, 0xff, 0xff, 0xff,
  0x10, 0x00, 0x00, 0x00, 0xec, 0xd1, 0xff, 0xff, 0x00, 0x00, 0x0a, 0x00,
  0x10, 0x00, 0x04, 0x00, 0x08, 0x00, 0x0c, 0x00, 0x0a, 0x00, 0x00, 0x00,
  0x02, 0x00, 0x00, 0x00, 0x10, 0x00, 0x00, 0x00, 0x04, 0x00, 0x00, 0x00,
  0x01, 0x00, 0x00, 0x00, 0x0e, 0x00, 0x00, 0x00, 0x02, 0x00, 0x00, 0x00,
  0x0d, 0x00, 0x00, 0x00, 0x05, 0x00, 0x00, 0x00, 0xa8, 0xfc, 0xff, 0xff,
  0x16, 0x00, 0x00, 0x00, 0x00, 0x00, 0x00, 0x16, 0x01, 0x00, 0x00, 0x00,
  0x8c, 0xd1, 0xff, 0xff, 0x14, 0x00, 0x00, 0x00, 0x0f, 0x00, 0x00, 0x00,
  0x18, 0x00, 0x00, 0x00, 0x40, 0x00, 0x00, 0x00, 0x30, 0x00, 0x00, 0x00,
  0x02, 0x00, 0x00, 0x00, 0x01, 0x00, 0x00, 0x00, 0x70, 0x00, 0x00, 0x00,
  0x1a, 0x00, 0x00, 0x00, 0x73, 0x65, 0x71, 0x75, 0x65, 0x6e, 0x74, 0x69,
  0x61, 0x6c, 0x2f, 0x66, 0x6c, 0x61, 0x74, 0x74, 0x65, 0x6e, 0x2f, 0x52,
  0x65, 0x73, 0x68, 0x61, 0x70, 0x65, 0x00, 0x00, 0x02, 0x00, 0x00, 0x00,
  0xff, 0xff, 0xff, 0xff, 0x70, 0x00, 0x00, 0x00, 0x70, 0xd1, 0xff, 0xff,
  0x3e, 0xfe, 0xff, 0xff, 0x00, 0x00, 0x00, 0x05, 0x01, 0x00, 0x00, 0x00,
  0x38, 0x00, 0x00, 0x00, 0x2c, 0x00, 0x00, 0x00, 0x14, 0x00, 0x00, 0x00,
  0x00, 0x00, 0x0e, 0x00, 0x14, 0x00, 0x00, 0x00, 0x10, 0x00, 0x0c, 0x00,
  0x08, 0x00, 0x04, 0x00, 0x0e, 0x00, 0x00, 0x00, 0x03, 0x00, 0x00, 0x00,
  0x01, 0x00, 0x00, 0x00, 0x03, 0x00, 0x00, 0x00, 0x01, 0x00, 0x00, 0x00,
  0x01, 0x00, 0x00, 0x00, 0x0d, 0x00, 0x00, 0x00, 0x01, 0x00, 0x00, 0x00,
  0x0c, 0x00, 0x00, 0x00, 0x2c, 0xd2, 0xff, 0xff, 0x14, 0x00, 0x00, 0x00,
  0x0e, 0x00, 0x00, 0x00, 0x20, 0x00, 0x00, 0x00, 0x58, 0x00, 0x00, 0x00,
  0x40, 0x00, 0x00, 0x00, 0x04, 0x00, 0x00, 0x00, 0x01, 0x00, 0x00, 0x00,
  0x07, 0x00, 0x00, 0x00, 0x01, 0x00, 0x00, 0x00, 0x10, 0x00, 0x00, 0x00,
  0x22, 0x00, 0x00, 0x00, 0x73, 0x65, 0x71, 0x75, 0x65, 0x6e, 0x74, 0x69,
  0x61, 0x6c, 0x2f, 0x6d, 0x61, 0x78, 0x5f, 0x70, 0x6f, 0x6f, 0x6c, 0x69,
  0x6e, 0x67, 0x32, 0x64, 0x5f, 0x31, 0x2f, 0x4d, 0x61, 0x78, 0x50, 0x6f,
  0x6f, 0x6c, 0x00, 0x00, 0x04, 0x00, 0x00, 0x00, 0xff, 0xff, 0xff, 0xff,
  0x07, 0x00, 0x00, 0x00, 0x01, 0x00, 0x00, 0x00, 0x10, 0x00, 0x00, 0x00,
  0x28, 0xd2, 0xff, 0xff, 0x1a, 0xfe, 0xff, 0xff, 0x00, 0x00, 0x00, 0x01,
  0x24, 0x00, 0x00, 0x00, 0x18, 0x00, 0x00, 0x00, 0x04, 0x00, 0x00, 0x00,
  0x0c, 0xfe, 0xff, 0xff, 0x01, 0x00, 0x00, 0x00, 0x01, 0x00, 0x00, 0x00,
  0x00, 0x00, 0x00, 0x01, 0x01, 0x00, 0x00, 0x00, 0x0c, 0x00, 0x00, 0x00,
  0x03, 0x00, 0x00, 0x00, 0x0b, 0x00, 0x00, 0x00, 0x09, 0x00, 0x00, 0x00,
  0x02, 0x00, 0x00, 0x00, 0xd4, 0xd2, 0xff, 0xff, 0x14, 0x00, 0x00, 0x00,
  0x0d, 0x00, 0x00, 0x00, 0x20, 0x00, 0x00, 0x00, 0xb8, 0x00, 0x00, 0x00,
  0xa0, 0x00, 0x00, 0x00, 0x04, 0x00, 0x00, 0x00, 0x01, 0x00, 0x00, 0x00,
  0x15, 0x00, 0x00, 0x00, 0x01, 0x00, 0x00, 0x00, 0x10, 0x00, 0x00, 0x00,
  0x83, 0x00, 0x00, 0x00, 0x73, 0x65, 0x71, 0x75, 0x65, 0x6e, 0x74, 0x69,
  0x61, 0x6c, 0x2f, 0x63, 0x6f, 0x6e, 0x76, 0x32, 0x64, 0x5f, 0x31, 0x2f,
  0x52, 0x65, 0x6c, 0x75, 0x3b, 0x73, 0x65, 0x71, 0x75, 0x65, 0x6e, 0x74,
  0x69, 0x61, 0x6c, 0x2f, 0x63, 0x6f, 0x6e, 0x76, 0x32, 0x64, 0x5f, 0x31,
  0x2f, 0x42, 0x69, 0x61, 0x73, 0x41, 0x64, 0x64, 0x3b, 0x73, 0x65, 0x71,
  0x75, 0x65, 0x6e, 0x74, 0x69, 0x61, 0x6c, 0x2f, 0x63, 0x6f, 0x6e, 0x76,
  0x32, 0x64, 0x5f, 0x31, 0x2f, 0x43, 0x6f, 0x6e, 0x76, 0x32, 0x44, 0x3b,
  0x73, 0x65, 0x71, 0x75, 0x65, 0x6e, 0x74, 0x69, 0x61, 0x6c, 0x2f, 0x63,
  0x6f, 0x6e, 0x76, 0x32, 0x64, 0x5f, 0x31, 0x2f, 0x42, 0x69, 0x61, 0x73,
  0x41, 0x64, 0x64, 0x2f, 0x52, 0x65, 0x61, 0x64, 0x56, 0x61, 0x72, 0x69,
  0x61, 0x62, 0x6c, 0x65, 0x4f, 0x70, 0x2f, 0x72, 0x65, 0x73, 0x6f, 0x75,
  0x72, 0x63, 0x65, 0x00, 0x04, 0x00, 0x00, 0x00, 0xff, 0xff, 0xff, 0xff,
  0x15, 0x00, 0x00, 0x00, 0x01, 0x00, 0x00, 0x00, 0x10, 0x00, 0x00, 0x00,
  0x40, 0xd4, 0xff, 0xff, 0x00, 0x00, 0x0e, 0x00, 0x1a, 0x00, 0x08, 0x00,
  0x0c, 0x00, 0x10, 0x00, 0x07, 0x00, 0x14, 0x00, 0x0e, 0x00, 0x00, 0x00,
  0x00, 0x00, 0x00, 0x05, 0x01, 0x00, 0x00, 0x00, 0x3c, 0x00, 0x00, 0x00,
  0x30, 0x00, 0x00, 0x00, 0x14, 0x00, 0x00, 0x00, 0x00, 0x00, 0x0e, 0x00,
  0x18, 0x00, 0x17, 0x00, 0x10, 0x00, 0x0c, 0x00, 0x08, 0x00, 0x04, 0x00,
  0x0e, 0x00, 0x00, 0x00, 0x03, 0x00, 0x00, 0x00, 0x03, 0x00, 0x00, 0x00,
  0x03, 0x00, 0x00, 0x00, 0x03, 0x00, 0x00, 0x00, 0x00, 0x00, 0x00, 0x01,
  0x01, 0x00, 0x00, 0x00, 0x0b, 0x00, 0x00, 0x00, 0x01, 0x00, 0x00, 0x00,
  0x0a, 0x00, 0x00, 0x00, 0x2c, 0xff, 0xff, 0xff, 0x11, 0x00, 0x00, 0x00,
  0x00, 0x00, 0x00, 0x11, 0x01, 0x00, 0x00, 0x00, 0x10, 0xd4, 0xff, 0xff,
  0x14, 0x00, 0x00, 0x00, 0x0c, 0x00, 0x00, 0x00, 0x20, 0x00, 0x00, 0x00,
  0x58, 0x00, 0x00, 0x00, 0x40, 0x00, 0x00, 0x00, 0x04, 0x00, 0x00, 0x00,
  0x01, 0x00, 0x00, 0x00, 0x15, 0x00, 0x00, 0x00, 0x01, 0x00, 0x00, 0x00,
  0x08, 0x00, 0x00, 0x00, 0x20, 0x00, 0x00, 0x00, 0x73, 0x65, 0x71, 0x75,
  0x65, 0x6e, 0x74, 0x69, 0x61, 0x6c, 0x2f, 0x6d, 0x61, 0x78, 0x5f, 0x70,
  0x6f, 0x6f, 0x6c, 0x69, 0x6e, 0x67, 0x32, 0x64, 0x2f, 0x4d, 0x61, 0x78,
  0x50, 0x6f, 0x6f, 0x6c, 0x00, 0x00, 0x00, 0x00, 0x04, 0x00, 0x00, 0x00,
  0xff, 0xff, 0xff, 0xff, 0x15, 0x00, 0x00, 0x00, 0x01, 0x00, 0x00, 0x00,
  0x08, 0x00, 0x00, 0x00, 0x1c, 0xd5, 0xff, 0xff, 0x00, 0x00, 0x0e, 0x00,
  0x14, 0x00, 0x00, 0x00, 0x08, 0x00, 0x0c, 0x00, 0x07, 0x00, 0x10, 0x00,
  0x0e, 0x00, 0x00, 0x00, 0x00, 0x00, 0x00, 0x01, 0x30, 0x00, 0x00, 0x00,
  0x24, 0x00, 0x00, 0x00, 0x10, 0x00, 0x00, 0x00, 0x0c, 0x00, 0x10, 0x00,
  0x00, 0x00, 0x04, 0x00, 0x08, 0x00, 0x0f, 0x00, 0x0c, 0x00, 0x00, 0x00,
  0x01, 0x00, 0x00, 0x00, 0x01, 0x00, 0x00, 0x00, 0x00, 0x00, 0x00, 0x01,
  0x01, 0x00, 0x00, 0x00, 0x0a, 0x00, 0x00, 0x00, 0x03, 0x00, 0x00, 0x00,
  0x00, 0x00, 0x00, 0x00, 0x08, 0x00, 0x00, 0x00, 0x01, 0x00, 0x00, 0x00,
  0x0c, 0x00, 0x10, 0x00, 0x0b, 0x00, 0x00, 0x00, 0x0c, 0x00, 0x04, 0x00,
  0x0c, 0x00, 0x00, 0x00, 0x03, 0x00, 0x00, 0x00, 0x00, 0x00, 0x00, 0x03,
  0x01, 0x00, 0x00, 0x00, 0xf0, 0xd4, 0xff, 0xff, 0x14, 0x00, 0x00, 0x00,
  0x0b, 0x00, 0x00, 0x00, 0x20, 0x00, 0x00, 0x00, 0xb0, 0x00, 0x00, 0x00,
  0x98, 0x00, 0x00, 0x00, 0x04, 0x00, 0x00, 0x00, 0x01, 0x00, 0x00, 0x00,
  0x40, 0x00, 0x00, 0x00, 0x03, 0x00, 0x00, 0x00, 0x08, 0x00, 0x00, 0x00,
  0x7b, 0x00, 0x00, 0x00, 0x73, 0x65, 0x71, 0x75, 0x65, 0x6e, 0x74, 0x69,
  0x61, 0x6c, 0x2f, 0x63, 0x6f, 0x6e, 0x76, 0x32, 0x64, 0x2f, 0x52, 0x65,
  0x6c, 0x75, 0x3b, 0x73, 0x65, 0x71, 0x75, 0x65, 0x6e, 0x74, 0x69, 0x61,
  0x6c, 0x2f, 0x63, 0x6f, 0x6e, 0x76, 0x32, 0x64, 0x2f, 0x42, 0x69, 0x61,
  0x73, 0x41, 0x64, 0x64, 0x3b, 0x73, 0x65, 0x71, 0x75, 0x65, 0x6e, 0x74,
  0x69, 0x61, 0x6c, 0x2f, 0x63, 0x6f, 0x6e, 0x76, 0x32, 0x64, 0x2f, 0x43,
  0x6f, 0x6e, 0x76, 0x32, 0x44, 0x3b, 0x73, 0x65, 0x71, 0x75, 0x65, 0x6e,
  0x74, 0x69, 0x61, 0x6c, 0x2f, 0x63, 0x6f, 0x6e, 0x76, 0x32, 0x64, 0x2f,
  0x42, 0x69, 0x61, 0x73, 0x41, 0x64, 0x64, 0x2f, 0x52, 0x65, 0x61, 0x64,
  0x56, 0x61, 0x72, 0x69, 0x61, 0x62, 0x6c, 0x65, 0x4f, 0x70, 0x2f, 0x72,
  0x65, 0x73, 0x6f, 0x75, 0x72, 0x63, 0x65, 0x00, 0x04, 0x00, 0x00, 0x00,
  0xff, 0xff, 0xff, 0xff, 0x40, 0x00, 0x00, 0x00, 0x03, 0x00, 0x00, 0x00,
  0x08, 0x00, 0x00, 0x00, 0x44, 0xd5, 0xff, 0xff, 0x4e, 0xd6, 0xff, 0xff,
  0x04, 0x00, 0x00, 0x00, 0x00, 0x08, 0x00, 0x00, 0x20, 0xb0, 0xd1, 0x3d,
  0x3a, 0xbe, 0x3a, 0xbe, 0x17, 0xf6, 0x1a, 0xbe, 0xc3, 0x93, 0xaf, 0xbd,
  0xb8, 0xda, 0xae, 0xbd, 0x8c, 0x4f, 0xf5, 0xbd, 0x71, 0x28, 0x35, 0x3e,
  0xf0, 0x17, 0x86, 0x3e, 0xb4, 0xf5, 0x2e, 0xbd, 0x48, 0x30, 0x97, 0xbd,
  0xeb, 0x92, 0xdb, 0xbc, 0x55, 0x5f, 0x2d, 0x3d, 0xd5, 0x24, 0x95, 0xbe,
  0x50, 0x3c, 0x3c, 0xbe, 0x8b, 0xed, 0x18, 0xbe, 0x0c, 0x51, 0xe8, 0xbd,
  0x57, 0xc1, 0x6d, 0xbe, 0x6b, 0x33, 0x41, 0x3a, 0xce, 0x7f, 0xd0, 0x3d,
  0xbb, 0x1c, 0x17, 0xbe, 0x46, 0xcf, 0x6b, 0xbe, 0xa9, 0x89, 0xaf, 0x3c,
  0x9c, 0x92, 0xa8, 0xbd, 0xed, 0xc2, 0xfa, 0x3a, 0x98, 0x5f, 0xac, 0xbd,
  0xc8, 0xb9, 0xa5, 0xbc, 0x31, 0xd9, 0x38, 0x3d, 0x56, 0x09, 0x60, 0xbe,
  0xf0, 0x25, 0x55, 0xbe, 0xd0, 0x0c, 0x74, 0xbd, 0x9f, 0x8e, 0x28, 0xbe,
  0x4a, 0xfe, 0x0a, 0x3e, 0x73, 0x57, 0x74, 0xbd, 0x7e, 0x6d, 0xda, 0xbd,
  0x29, 0x4e, 0x85, 0x3e, 0x56, 0xb5, 0x56, 0x3d, 0x0e, 0x26, 0x32, 0xbe,
  0x32, 0x66, 0x40, 0xbe, 0xa2, 0xac, 0x23, 0x3f, 0xf3, 0x6a, 0x81, 0xbd,
  0x59, 0xc8, 0xac, 0x3b, 0x6e, 0x96, 0x97, 0xbd, 0x43, 0xc1, 0x60, 0xbe,
  0x71, 0x38, 0xa6, 0xbd, 0x4f, 0xfc, 0x14, 0xbe, 0x02, 0x61, 0x6d, 0x3c,
  0x1d, 0x3a, 0xd5, 0x3e, 0x32, 0xc7, 0x2f, 0x3c, 0x66, 0xcc, 0x12, 0x3e,
  0x87, 0xd4, 0x8d, 0xbd, 0xcd, 0xe9, 0xde, 0x3e, 0xa3, 0xf0, 0xa5, 0x3d,
  0x4e, 0x10, 0x02, 0xbd, 0x87, 0x42, 0x36, 0x3d, 0x63, 0xea, 0x12, 0xbe,
  0x0e, 0xac, 0x05, 0xbe, 0x94, 0x48, 0xc5, 0x3d, 0xf7, 0xa9, 0xd1, 0xbd,
  0xf9, 0x23, 0x6d, 0x3d, 0x24, 0xcd, 0xec, 0xbd, 0x6b, 0x90, 0xed, 0xbc,
  0x84, 0x8c, 0x8f, 0x3d, 0x5b, 0xed, 0x91, 0x3e, 0x95, 0x7a, 0x3a, 0xbe,
  0xb0, 0xb0, 0x83, 0xbe, 0xcb, 0x5a, 0xe0, 0xbd, 0xfd, 0x70, 0x26, 0xbe,
  0xeb, 0x8b, 0x8b, 0xbd, 0xce, 0x3e, 0x03, 0xbe, 0xb2, 0x7e, 0xac, 0xbe,
  0xd7, 0xdb, 0x02, 0xbf, 0xd1, 0xff, 0x06, 0xbe, 0xbb, 0x60, 0x9d, 0xbc,
  0x4e, 0x62, 0xa2, 0xbd, 0xd5, 0x8c, 0x99, 0xbc, 0x7b, 0x33, 0xe9, 0xbd,
  0xdf, 0x51, 0xa2, 0xbe, 0x40, 0x21, 0x84, 0xbe, 0xbb, 0x71, 0x81, 0xbe,
  0x04, 0xff, 0x02, 0xbe, 0x55, 0xe6, 0x59, 0x3f, 0x10, 0x46, 0x2c, 0xbb,
  0x54, 0x3e, 0xee, 0x3e, 0xf6, 0x82, 0x95, 0x3d, 0x5a, 0x4c, 0x9c, 0xbd,
  0x83, 0xcc, 0x91, 0x3e, 0x2e, 0xf7, 0x42, 0xbe, 0x50, 0xae, 0xc6, 0xbd,
  0x91, 0x31, 0x9f, 0xbe, 0x8d, 0xfa, 0xcc, 0x3d, 0x28, 0xa3, 0x6a, 0xbe,
  0xd6, 0xd1, 0x50, 0xbc, 0x41, 0xfb, 0x7e, 0x3e, 0xba, 0x4d, 0x09, 0x3e,
  0x32, 0x02, 0x7c, 0xbd, 0xb8, 0x47, 0x5d, 0x3e, 0x02, 0x7f, 0x59, 0x3e,
  0x2b, 0x31, 0x8e, 0xbe, 0x7c, 0x5b, 0x5a, 0x3d, 0xb2, 0xcf, 0x9c, 0xbe,
  0xde, 0xb3, 0x8d, 0x3d, 0x06, 0x3b, 0x7b, 0x3e, 0xe0, 0x77, 0x7c, 0x3d,
  0x7a, 0x6f, 0xc5, 0x3e, 0xb8, 0xcb, 0x7b, 0x3c, 0xc1, 0x0f, 0x1c, 0xbf,
  0x3f, 0x7d, 0x53, 0x3e, 0x40, 0xe4, 0x02, 0xbf, 0x95, 0x5b, 0xa2, 0xbe,
  0x20, 0x6b, 0x03, 0xbc, 0xb1, 0x5e, 0x83, 0x3d, 0xfd, 0x17, 0x11, 0xbe,
  0xc3, 0x3e, 0x43, 0x3e, 0x82, 0x7b, 0xeb, 0xbe, 0x55, 0x38, 0xd1, 0x3d,
  0x6b, 0x09, 0x83, 0xbe, 0x90, 0xbf, 0xac, 0xbe, 0x84, 0xd7, 0x4f, 0x3d,
  0x3f, 0x3f, 0xb3, 0x3e, 0xdc, 0x73, 0x0e, 0xbe, 0xbc, 0x10, 0x8b, 0x3e,
  0xf8, 0xb1, 0xf3, 0xbe, 0x5d, 0xe3, 0x20, 0x3e, 0x59, 0x6f, 0x3c, 0xbe,
  0x6f, 0xc7, 0x55, 0xbe, 0x51, 0x55, 0x80, 0x3d, 0x3b, 0xac, 0x3a, 0x3e,
  0x2b, 0x8c, 0xbc, 0xbd, 0xa7, 0x79, 0x8e, 0xbd, 0x2f, 0x86, 0x0e, 0xbd,
  0x61, 0x89, 0x31, 0x3e, 0xf9, 0x48, 0x87, 0xbd, 0xf1, 0x10, 0xcf, 0x3c,
  0x7d, 0x3b, 0xb7, 0xbd, 0xeb, 0x9d, 0x4d, 0xbf, 0xb7, 0xd6, 0xca, 0xbd,
  0x9f, 0x7b, 0xcb, 0x3e, 0x0f, 0x6d, 0xa4, 0xbc, 0x1e, 0xc2, 0x64, 0xbd,
  0x4e, 0x55, 0xd9, 0x3c, 0xb9, 0x2e, 0x4b, 0xbe, 0x89, 0x1d, 0x43, 0xbf,
  0xed, 0x31, 0x6b, 0xbf, 0x3a, 0xb6, 0xef, 0xbd, 0xf7, 0x1e, 0x0b, 0x3f,
  0x74, 0x9c, 0x79, 0x3d, 0x40, 0x03, 0x12, 0xbd, 0x56, 0x68, 0xc8, 0x3d,
  0x65, 0xe6, 0xee, 0x3a, 0x9c, 0x1c, 0x9d, 0xbd, 0xcd, 0x3f, 0xa5, 0x3c,
  0xd6, 0x31, 0x06, 0x3e, 0xaa, 0xd8, 0xf7, 0xbe, 0x35, 0xd7, 0xc9, 0xbb,
  0x4d, 0x3e, 0x07, 0x3e, 0xe4, 0x72, 0x8c, 0xbb, 0x1e, 0xc9, 0x04, 0x3d,
  0xfc, 0xbd, 0x7b, 0x3b, 0x5a, 0x00, 0xd7, 0xbe, 0x5b, 0x0f, 0x5e, 0x3d,
  0x6a, 0xcf, 0xff, 0xbe, 0x88, 0x65, 0xc3, 0xbd, 0xd5, 0x32, 0x28, 0xbf,
  0xe4, 0xe4, 0xd6, 0xbd, 0x1a, 0x53, 0x86, 0xbc, 0x8f, 0x5e, 0x8d, 0xbe,
  0x1a, 0x27, 0xa3, 0xbd, 0x3b, 0x60, 0xd5, 0xbe, 0x7b, 0x39, 0xf1, 0x3c,
  0x40, 0x53, 0x53, 0xbd, 0xc4, 0xfe, 0xad, 0x3c, 0xce, 0x9c, 0xaf, 0xbd,
  0xd3, 0x74, 0x90, 0xbd, 0xd9, 0xcc, 0xb0, 0x3e, 0x7d, 0x35, 0x98, 0xbd,
  0x97, 0x3c, 0x56, 0xbe, 0x4f, 0x70, 0xec, 0xbc, 0x2f, 0x43, 0xb3, 0xbd,
  0xd3, 0x18, 0xfe, 0x3e, 0xdc, 0x5f, 0x24, 0xbe, 0xc4, 0x72, 0x01, 0x3e,
  0x13, 0x3f, 0xb8, 0x3e, 0x4b, 0xf8, 0x7d, 0x3d, 0x90, 0xee, 0x4d, 0xbf,
  0x91, 0xdd, 0x37, 0x3c, 0xd0, 0xbf, 0x20, 0xbd, 0x3b, 0x05, 0x0e, 0x3e,
  0xa2, 0xcf, 0x9a, 0xbd, 0x09, 0x62, 0x49, 0xbd, 0xdf, 0xd5, 0xb8, 0x3e,
  0x8f, 0x95, 0x14, 0xbe, 0xd7, 0x4e, 0x95, 0xbe, 0x4e, 0x7c, 0x2e, 0xbd,
  0xd0, 0x08, 0x68, 0xbe, 0xb2, 0xc7, 0xa4, 0xbe, 0xbc, 0xad, 0x6f, 0xbe,
  0x21, 0x5f, 0x90, 0xbe, 0xe0, 0x75, 0x3c, 0x3e, 0x2f, 0xb5, 0x3f, 0xbe,
  0xca, 0x7b, 0x59, 0xbe, 0x10, 0x27, 0x85, 0xbd, 0xa5, 0xd9, 0xfa, 0xbd,
  0x95, 0x66, 0xe9, 0xbc, 0xe4, 0x6d, 0x3c, 0xbe, 0xb6, 0x0a, 0xc9, 0xbd,
  0xe1, 0x89, 0x49, 0x3e, 0xa7, 0x48, 0xe3, 0x3e, 0xea, 0x64, 0x90, 0xbd,
  0xb0, 0xb4, 0x08, 0xbe, 0x7a, 0x33, 0x93, 0xbd, 0xa5, 0x89, 0xb5, 0xbb,
  0xf2, 0xc3, 0xca, 0xbd, 0x9c, 0x1f, 0xf5, 0xbd, 0xfb, 0xed, 0xdc, 0xbd,
  0x4a, 0xc7, 0xf7, 0xbd, 0xf6, 0x37, 0x99, 0x3e, 0x1a, 0x1c, 0x91, 0xbd,
  0xc8, 0x8c, 0x7c, 0x3b, 0xc5, 0xde, 0x66, 0x3e, 0xb0, 0x89, 0xc1, 0xbd,
  0x4f, 0x2b, 0x73, 0x3d, 0x25, 0xe9, 0x86, 0xbe, 0x45, 0xf3, 0xde, 0xbd,
  0x95, 0x4f, 0x90, 0x3e, 0x80, 0xb7, 0x6f, 0x3e, 0x09, 0x1e, 0xe3, 0xbb,
  0xbb, 0x0a, 0x01, 0xbd, 0xef, 0xf4, 0x22, 0x3e, 0xfb, 0xf6, 0xb7, 0xbd,
  0x2e, 0x92, 0xc3, 0xbe, 0xf1, 0xe0, 0x96, 0xbe, 0x6d, 0xfc, 0xc4, 0xbd,
  0x07, 0xb7, 0x98, 0xbd, 0x92, 0x07, 0x8f, 0x3d, 0x68, 0x25, 0xfa, 0xbd,
  0xcc, 0xfc, 0x0f, 0xbd, 0x6a, 0x7a, 0x7b, 0x3d, 0x50, 0x63, 0x68, 0x3d,
  0x2b, 0xf9, 0xca, 0x3d, 0xe9, 0xbc, 0x1c, 0x3d, 0x6c, 0x2b, 0x2a, 0xbf,
  0xa5, 0xc4, 0xa1, 0x3b, 0x2e, 0x95, 0x89, 0xbe, 0x75, 0x51, 0xa5, 0xbd,
  0xae, 0x9d, 0x1a, 0x3d, 0x91, 0xb0, 0x8d, 0x3e, 0x52, 0xc0, 0x0d, 0x3d,
  0x59, 0xa8, 0x0b, 0x3d, 0x1b, 0x3b, 0x04, 0xbf, 0xbb, 0x08, 0x96, 0xbc,
  0x01, 0x6f, 0x10, 0xbe, 0x70, 0xf8, 0x92, 0xbd, 0x94, 0xbd, 0xcd, 0x3c,
  0x6d, 0x29, 0x8d, 0x3e, 0xec, 0x77, 0x96, 0xbe, 0xc4, 0xc2, 0xbb, 0xbc,
  0x4d, 0x6f, 0xc7, 0xbe, 0x8a, 0xb2, 0x00, 0xbe, 0x27, 0xba, 0x20, 0xbf,
  0xe7, 0xfb, 0x09, 0xbe, 0x76, 0x9b, 0xad, 0xbd, 0xbf, 0x2d, 0xb1, 0x3e,
  0xc5, 0x1e, 0xc2, 0xbd, 0xa8, 0xc6, 0x3c, 0xbc, 0xbe, 0x3a, 0x7a, 0xbe,
  0xfb, 0x30, 0xea, 0xbd, 0x2c, 0xf8, 0xe0, 0xbe, 0x94, 0xf3, 0x7b, 0xbd,
  0x63, 0x10, 0x42, 0xbe, 0xfa, 0xf5, 0xe5, 0xbd, 0x7f, 0x3a, 0xe6, 0x3c,
  0x29, 0x28, 0xad, 0xbb, 0xd7, 0x23, 0x1f, 0x3e, 0x05, 0x27, 0x96, 0xbd,
  0xf3, 0x8e, 0x5e, 0x3e, 0x01, 0x57, 0x84, 0x3d, 0xa6, 0xc7, 0x91, 0xbd,
  0x91, 0x45, 0xcb, 0xbe, 0x42, 0x92, 0x79, 0x3d, 0xb9, 0x1f, 0xdc, 0x3c,
  0xf2, 0x81, 0x07, 0x3f, 0xb3, 0x44, 0x21, 0x3e, 0xb5, 0x6f, 0x36, 0x3f,
  0x5c, 0x28, 0xfa, 0x3c, 0x98, 0xbe, 0xa4, 0x3a, 0x73, 0x47, 0x77, 0xbd,
  0x33, 0x51, 0x09, 0xbe, 0xfc, 0x54, 0x87, 0xbd, 0x64, 0x9b, 0x83, 0x3b,
  0x3c, 0xac, 0xab, 0x3e, 0x82, 0x4b, 0x11, 0x3d, 0xcc, 0x78, 0x1c, 0x3e,
  0x85, 0xc2, 0xe9, 0x3e, 0x38, 0xd6, 0xd4, 0x3e, 0xef, 0x21, 0x75, 0xbd,
  0x10, 0xe6, 0x87, 0xbd, 0x07, 0x3a, 0x9f, 0x3d, 0x14, 0xa7, 0x02, 0xbe,
  0xd8, 0xc0, 0x8f, 0x3d, 0x44, 0x2d, 0xf3, 0x3c, 0x11, 0x07, 0x4b, 0x3c,
  0x79, 0xa7, 0x75, 0x3e, 0xd7, 0xce, 0x0f, 0xbe, 0xe0, 0x0b, 0x80, 0xbd,
  0x4c, 0x4d, 0x91, 0xbe, 0xdf, 0x7c, 0x37, 0xbe, 0xc6, 0x39, 0x3a, 0xbe,
  0xe0, 0xb6, 0x26, 0xbe, 0xe9, 0xaf, 0x3f, 0xbe, 0xfc, 0xa4, 0xbd, 0x3e,
  0xd0, 0xd1, 0x0c, 0x3d, 0xb5, 0xda, 0x8f, 0xbb, 0x49, 0xf0, 0x7a, 0xbe,
  0x62, 0x9a, 0x79, 0xbe, 0xa7, 0x73, 0xa5, 0xbd, 0xd5, 0x71, 0x6a, 0xbe,
  0xeb, 0xe7, 0x8f, 0xbe, 0x53, 0x15, 0xa2, 0xbe, 0xe4, 0xb8, 0xd2, 0x3d,
  0xbc, 0x84, 0x10, 0xbd, 0x85, 0x59, 0xa6, 0x3d, 0x55, 0x7d, 0x8a, 0x3c,
  0x67, 0x42, 0x90, 0xbe, 0x4c, 0xa8, 0x9d, 0x3e, 0xe2, 0x2e, 0x32, 0xbc,
  0x9b, 0x0b, 0x92, 0x3d, 0x1b, 0x61, 0xf8, 0x3d, 0xfa, 0x51, 0x07, 0xbd,
  0x03, 0x43, 0x32, 0x3e, 0x4e, 0xd5, 0xc7, 0xbc, 0x4e, 0x8a, 0x35, 0x3e,
  0x4c, 0x80, 0xa2, 0x3e, 0x92, 0xc2, 0x86, 0xbd, 0x19, 0x4c, 0xfa, 0xbd,
  0xd1, 0x0a, 0x2a, 0x3e, 0x04, 0x8f, 0xc0, 0xbd, 0x03, 0x2e, 0xc1, 0xbe,
  0x8f, 0x72, 0xd5, 0xbe, 0xf0, 0x41, 0xbc, 0xbe, 0xbd, 0x37, 0xc0, 0xbe,
  0x11, 0x9e, 0xb5, 0xbe, 0xf4, 0x18, 0xbe, 0xbe, 0x45, 0x60, 0xa2, 0xbe,
  0x16, 0xf8, 0x51, 0xbe, 0x02, 0xbc, 0x02, 0xbe, 0x1f, 0x77, 0xbb, 0xbe,
  0xc4, 0x5b, 0xbb, 0xbe, 0x55, 0xff, 0x7c, 0xbe, 0x03, 0xda, 0xf4, 0xbe,
  0x2b, 0x8f, 0x42, 0xbe, 0x5e, 0x84, 0x4e, 0x3e, 0xc6, 0x3f, 0xa8, 0xbe,
  0xdb, 0x34, 0xa3, 0x3d, 0xf8, 0x9a, 0x86, 0xbd, 0x7d, 0x19, 0xf2, 0xbc,
  0x5f, 0x36, 0xd8, 0x3d, 0xde, 0xb0, 0x1e, 0xbe, 0xb1, 0x01, 0xc8, 0xbe,
  0xf8, 0xf9, 0xf1, 0x3d, 0x9e, 0x89, 0xab, 0x3e, 0x8c, 0x91, 0x42, 0x3c,
  0xca, 0xb0, 0x36, 0xbd, 0x70, 0x96, 0x93, 0x3e, 0x33, 0xee, 0x82, 0xbc,
  0xe7, 0x83, 0xa8, 0x3d, 0x1e, 0xd3, 0xea, 0x3d, 0x9a, 0x9c, 0x8d, 0xbe,
  0xd6, 0xa7, 0xc2, 0xbe, 0x7e, 0xaa, 0x47, 0x3e, 0x95, 0x0f, 0xd4, 0xbd,
  0xa6, 0x48, 0xce, 0x3e, 0x35, 0x06, 0xc4, 0xbd, 0x3d, 0x71, 0x1f, 0x3e,
  0xc9, 0x1b, 0x84, 0x3e, 0xad, 0x08, 0x91, 0xbf, 0xc3, 0xc2, 0x4c, 0xbf,
  0x25, 0x1e, 0xb7, 0xbd, 0xbd, 0x79, 0x22, 0xbe, 0x07, 0x85, 0xbc, 0xbe,
  0xe2, 0x1f, 0x5b, 0xbd, 0x8b, 0x1d, 0x0a, 0xbe, 0xb5, 0x09, 0x65, 0x3e,
  0x28, 0xc0, 0x60, 0x3e, 0x5e, 0x5f, 0xcc, 0xbe, 0x97, 0x30, 0x96, 0x3d,
  0x0b, 0xb1, 0xf6, 0xbc, 0x3e, 0x64, 0x87, 0x3e, 0x87, 0x10, 0x96, 0x3d,
  0xb0, 0xab, 0x7f, 0xbd, 0x4d, 0x3f, 0x16, 0x3f, 0x61, 0x92, 0x08, 0x3e,
  0x5b, 0x98, 0x43, 0xbd, 0x02, 0x3c, 0x89, 0x3e, 0xaf, 0x67, 0xec, 0xbc,
  0xe5, 0x2a, 0x72, 0xbd, 0xaa, 0x63, 0x76, 0xba, 0xc6, 0x8a, 0x1e, 0xbe,
  0xaa, 0x0d, 0x70, 0xbe, 0x86, 0x3e, 0xae, 0x3b, 0x46, 0xbf, 0x74, 0xbd,
  0x67, 0xc5, 0x18, 0xbe, 0x97, 0x31, 0x5d, 0xbc, 0xac, 0x53, 0xab, 0x3d,
  0xec, 0xc6, 0xc5, 0x3c, 0xe9, 0xd4, 0xa6, 0xbd, 0xfd, 0xa2, 0x19, 0xbe,
  0x7f, 0x92, 0x79, 0x3c, 0x03, 0xd0, 0x8c, 0x3c, 0xf3, 0xe5, 0x8b, 0xbe,
  0xde, 0xe0, 0x43, 0xbd, 0xf5, 0x34, 0x4f, 0xbe, 0x86, 0xe8, 0x94, 0xbd,
  0xe5, 0xc3, 0x0d, 0xbd, 0x20, 0x6e, 0xc8, 0xbe, 0xf1, 0x69, 0x81, 0xbd,
  0xb3, 0x94, 0xd6, 0x3c, 0x48, 0x21, 0xe7, 0x3d, 0x67, 0xa7, 0x3d, 0xbc,
  0x80, 0x1d, 0x1b, 0x3e, 0x5b, 0x09, 0x0b, 0xbe, 0x2f, 0xe7, 0x7d, 0xbd,
  0x2c, 0xdc, 0x8c, 0x3e, 0xc2, 0xc8, 0xaf, 0xbe, 0x69, 0xab, 0x57, 0xbe,
  0x48, 0x7b, 0x84, 0x3a, 0xef, 0xfc, 0xc9, 0xbd, 0x86, 0x22, 0xee, 0x3e,
  0x7d, 0x22, 0x40, 0xbd, 0x10, 0xee, 0xda, 0xbc, 0x93, 0xcd, 0x55, 0xbc,
  0xb4, 0xcc, 0x26, 0x3e, 0xa7, 0x62, 0xb6, 0xbd, 0x79, 0x73, 0x44, 0xbe,
  0x35, 0xbf, 0x8f, 0xbd, 0x64, 0x3c, 0x7f, 0xbd, 0xb0, 0xea, 0x15, 0x3e,
  0x03, 0x16, 0x6d, 0xbe, 0x1d, 0x3d, 0x89, 0xbd, 0x37, 0x79, 0x04, 0x3f,
  0x2b, 0x30, 0xa9, 0xbd, 0x47, 0x26, 0x80, 0xbe, 0xc7, 0x27, 0x5a, 0xbe,
  0x3b, 0x34, 0x66, 0x3e, 0x46, 0xdf, 0xb6, 0xbe, 0x04, 0x70, 0x0b, 0xbe,
  0xb8, 0x1a, 0x99, 0xbe, 0x12, 0x34, 0x0a, 0xbd, 0x38, 0x89, 0x81, 0xbd,
  0x2e, 0x12, 0x7b, 0xbd, 0xd8, 0x28, 0x80, 0xbc, 0x66, 0xbd, 0xa9, 0x3e,
  0xd2, 0x39, 0x30, 0xbd, 0xad, 0x3f, 0x6d, 0xbd, 0x81, 0xae, 0x2c, 0xbf,
  0x43, 0xa4, 0xd6, 0x3e, 0x39, 0x16, 0x86, 0xbe, 0x23, 0x2e, 0xc1, 0x3e,
  0xdc, 0x20, 0x10, 0x3d, 0xd0, 0xf2, 0xd5, 0xbe, 0xa9, 0xbc, 0xd0, 0xbd,
  0xdb, 0x9d, 0xf2, 0x3c, 0x8d, 0xea, 0x92, 0xbe, 0xfd, 0x89, 0x57, 0xbe,
  0xe7, 0x30, 0xa7, 0xbe, 0x86, 0x59, 0x44, 0xbd, 0x0e, 0xfd, 0x20, 0x3d,
  0xd0, 0x2f, 0x7c, 0xbe, 0xdd, 0x50, 0x06, 0xbc, 0x21, 0xad, 0xca, 0x3b,
  0x06, 0x52, 0xa6, 0xbd, 0xee, 0x62, 0x52, 0xbe, 0x61, 0x1a, 0x06, 0xbf,
  0xb3, 0xd3, 0x75, 0xbc, 0x44, 0x94, 0x8e, 0x3d, 0x6b, 0x9e, 0x9a, 0xbe,
  0xdc, 0x7a, 0x5a, 0xbd, 0x91, 0xfa, 0x41, 0x39, 0xa2, 0x0d, 0x7b, 0xbe,
  0x9d, 0xdd, 0x8a, 0xbe, 0xc3, 0x7e, 0x03, 0xbf, 0x08, 0xca, 0xc5, 0xbe,
  0x71, 0xf4, 0x3c, 0x3d, 0xc1, 0x23, 0x20, 0xbe, 0x54, 0x0d, 0xbd, 0x3c,
  0x0e, 0xac, 0x69, 0x3e, 0xfe, 0x8b, 0xf0, 0x3e, 0xee, 0x93, 0xa1, 0xbd,
  0x31, 0x1e, 0xe0, 0x3e, 0xa6, 0x74, 0x06, 0xbf, 0x55, 0x18, 0x12, 0xbe,
  0xcd, 0x45, 0xaf, 0xbe, 0x55, 0xe3, 0x90, 0xbe, 0xd0, 0x54, 0xb0, 0xbd,
  0x81, 0x1b, 0xa2, 0xbd, 0x72, 0x1f, 0x5b, 0xbe, 0x4c, 0x5c, 0xda, 0xbd,
  0x79, 0x27, 0x06, 0xbf, 0x37, 0xa3, 0xf4, 0xbd, 0x6b, 0x7a, 0x25, 0x3e,
  0xfa, 0x44, 0x9a, 0xbe, 0xf1, 0xfb, 0x04, 0xbe, 0xaf, 0xd8, 0x2c, 0xbd,
  0xff, 0x4f, 0x0e, 0x3d, 0x1d, 0xa3, 0x9e, 0xbb, 0xfd, 0xab, 0x15, 0xbf,
  0xe6, 0x30, 0xdf, 0xbd, 0xdb, 0x33, 0x30, 0x3e, 0xc3, 0xb6, 0x88, 0xbe,
  0xdd, 0xac, 0x4f, 0xbe, 0x80, 0x4f, 0x0b, 0xbd, 0xa1, 0xb3, 0x14, 0x3d,
  0xf7, 0x65, 0x83, 0xbd, 0x26, 0xde, 0xff, 0xff, 0x10, 0x00, 0x00, 0x00,
  0x0a, 0x00, 0x00, 0x00, 0x1c, 0x00, 0x00, 0x00, 0x38, 0x00, 0x00, 0x00,
  0x04, 0x00, 0x00, 0x00, 0x10, 0x00, 0x00, 0x00, 0x04, 0x00, 0x00, 0x00,
  0x01, 0x00, 0x00, 0x00, 0x08, 0x00, 0x00, 0x00, 0x1a, 0x00, 0x00, 0x00,
  0x73, 0x65, 0x71, 0x75, 0x65, 0x6e, 0x74, 0x69, 0x61, 0x6c, 0x2f, 0x63,
  0x6f, 0x6e, 0x76, 0x32, 0x64, 0x5f, 0x31, 0x2f, 0x43, 0x6f, 0x6e, 0x76,
  0x32, 0x44, 0x00, 0x00, 0x9c, 0xdd, 0xff, 0xff, 0xa6, 0xde, 0xff, 0xff,
  0x04, 0x00, 0x00, 0x00, 0x80, 0x01, 0x00, 0x00, 0xcd, 0x4d, 0xce, 0x3e,
  0x7e, 0x46, 0x35, 0xbe, 0xf0, 0x94, 0xab, 0xbb, 0xab, 0x8a, 0x1c, 0x3e,
  0x2b, 0x86, 0x88, 0x3c, 0xa0, 0x7a, 0xd5, 0xbd, 0xb1, 0x91, 0xc6, 0xbe,
  0x76, 0x66, 0x57, 0x3e, 0x3a, 0x03, 0x83, 0x3e, 0xa6, 0xce, 0x2f, 0xbe,
  0xcb, 0x2a, 0x20, 0x3e, 0xcc, 0xd8, 0x5a, 0x3d, 0xe4, 0x0b, 0x40, 0x3b,
  0xb5, 0x89, 0xf4, 0x3c, 0xeb, 0x34, 0x48, 0xbb, 0x16, 0x04, 0x9f, 0xbc,
  0x83, 0x39, 0xbd, 0x3d, 0xe1, 0x92, 0x91, 0x3c, 0xe6, 0x66, 0xb1, 0xbd,
  0x3e, 0x4a, 0x16, 0x3e, 0xa2, 0xa0, 0x65, 0x3c, 0xaf, 0x11, 0x84, 0x3d,
  0x4c, 0x02, 0x84, 0x3d, 0x99, 0xa2, 0xb5, 0x3d, 0x8f, 0x93, 0x02, 0x3e,
  0x01, 0xc8, 0xf2, 0x3e, 0x57, 0x43, 0xb1, 0x3e, 0x43, 0x6a, 0xf6, 0x3e,
  0x0a, 0xc4, 0x01, 0xbe, 0xed, 0xdf, 0x9f, 0xbe, 0xa3, 0x65, 0x0d, 0xbe,
  0xab, 0x25, 0x31, 0xbe, 0x97, 0x0d, 0x28, 0x3d, 0xbb, 0x74, 0xc3, 0xbe,
  0x63, 0xf8, 0x24, 0xbe, 0xfc, 0x4e, 0x6b, 0xbd, 0xd0, 0xc1, 0xd9, 0x3c,
  0x09, 0x45, 0x8f, 0x3c, 0xc0, 0x65, 0x80, 0x3c, 0x87, 0x52, 0xac, 0x3c,
  0x93, 0x1d, 0xe3, 0x3d, 0xd0, 0x03, 0x46, 0x3d, 0x4d, 0x64, 0xc3, 0x3d,
  0xf8, 0x88, 0x14, 0x3e, 0x0c, 0x60, 0x31, 0x3d, 0x09, 0x09, 0xa5, 0xbd,
  0xf0, 0x33, 0x4b, 0x3e, 0x39, 0x9a, 0x8f, 0x3c, 0xa5, 0x18, 0x0e, 0xbe,
  0xbb, 0xc5, 0x49, 0x3e, 0x32, 0xb9, 0x42, 0x3c, 0x18, 0xf9, 0x97, 0xbd,
  0x2f, 0xe3, 0x49, 0x3e, 0x5f, 0xcf, 0x12, 0x3d, 0x4e, 0x6e, 0x61, 0x3d,
  0xd7, 0xc3, 0xe5, 0x3c, 0x1c, 0x99, 0x83, 0x3a, 0x5b, 0x42, 0x49, 0x3e,
  0x1f, 0x2e, 0xf9, 0xbd, 0xbf, 0x26, 0x77, 0x3c, 0x7f, 0x1c, 0xc6, 0xbe,
  0x8d, 0x30, 0xad, 0x3d, 0xb9, 0x77, 0x01, 0xbe, 0x23, 0xd8, 0x04, 0xbe,
  0xc9, 0xb7, 0xba, 0x3d, 0x56, 0x5b, 0x5e, 0x3a, 0xb5, 0x8f, 0x1d, 0x3e,
  0x84, 0x1d, 0x5d, 0x3c, 0x63, 0x1a, 0x7b, 0x3d, 0x86, 0xe3, 0xc7, 0x3e,
  0xf0, 0x02, 0xc9, 0xbd, 0xf8, 0x15, 0x0d, 0x3e, 0x26, 0x3e, 0x0b, 0x3f,
  0xff, 0x93, 0x10, 0xbf, 0xbf, 0xa3, 0x93, 0x3d, 0xbd, 0x2a, 0xb7, 0x3e,
  0x76, 0xbb, 0x81, 0x3e, 0x39, 0x78, 0xca, 0x3c, 0x3a, 0xe4, 0x1d, 0x3c,
  0x8f, 0x8e, 0xbe, 0x3e, 0x68, 0x60, 0xea, 0xbc, 0xb5, 0x54, 0x34, 0x3d,
  0xdc, 0x9d, 0xc4, 0x3e, 0xc4, 0xba, 0xa4, 0x3b, 0x4a, 0x6d, 0x1e, 0xbd,
  0x75, 0xe1, 0x12, 0xbe, 0x2a, 0x88, 0xa4, 0x3e, 0xe3, 0x39, 0x8a, 0x3e,
  0x55, 0x1d, 0x05, 0xbe, 0x4e, 0x97, 0x71, 0x3e, 0x7f, 0x54, 0x3e, 0x3e,
  0x15, 0x8a, 0xa4, 0x3d, 0x77, 0x1c, 0x95, 0xbe, 0xb4, 0x54, 0x4a, 0x3e,
  0x65, 0x9d, 0x0f, 0x3e, 0x25, 0x18, 0x64, 0xbc, 0xfe, 0xdf, 0xff, 0xff,
  0x10, 0x00, 0x00, 0x00, 0x09, 0x00, 0x00, 0x00, 0x1c, 0x00, 0x00, 0x00,
  0x38, 0x00, 0x00, 0x00, 0x04, 0x00, 0x00, 0x00, 0x08, 0x00, 0x00, 0x00,
  0x04, 0x00, 0x00, 0x00, 0x03, 0x00, 0x00, 0x00, 0x01, 0x00, 0x00, 0x00,
  0x18, 0x00, 0x00, 0x00, 0x73, 0x65, 0x71, 0x75, 0x65, 0x6e, 0x74, 0x69,
  0x61, 0x6c, 0x2f, 0x63, 0x6f, 0x6e, 0x76, 0x32, 0x64, 0x2f, 0x43, 0x6f,
  0x6e, 0x76, 0x32, 0x44, 0x00, 0x00, 0x00, 0x00, 0x74, 0xdf, 0xff, 0xff,
  0x7e, 0xe0, 0xff, 0xff, 0x04, 0x00, 0x00, 0x00, 0xc0, 0x00, 0x00, 0x00,
  0x84, 0xfa, 0x05, 0xbc, 0xe9, 0xc3, 0xb2, 0xbe, 0xf6, 0xb6, 0x99, 0x3e,
  0x66, 0x1d, 0xc6, 0x3e, 0x71, 0x60, 0x9d, 0x3d, 0x0e, 0xb8, 0x08, 0x3d,
  0x3f, 0xf1, 0x53, 0x3e, 0x54, 0xa0, 0xc3, 0x3e, 0x61, 0x07, 0x4c, 0x3e,
  0x75, 0x10, 0x1c, 0x3e, 0xec, 0x8a, 0x90, 0x3e, 0x1c, 0xf7, 0x8d, 0xbe,
  0x68, 0x6e, 0x88, 0x3e, 0x87, 0x58, 0x39, 0x3e, 0xa8, 0xd2, 0xca, 0x3d,
  0x6f, 0x39, 0x86, 0xbd, 0x98, 0xbe, 0xe4, 0x3e, 0xc3, 0x7c, 0xc2, 0xbe,
  0xbc, 0x25, 0x8c, 0x3e, 0x92, 0x3e, 0xe4, 0x3e, 0x47, 0xe2, 0x08, 0x3e,
  0x9b, 0x30, 0x65, 0xbc, 0xf5, 0xf0, 0x82, 0x3e, 0x11, 0x5c, 0xed, 0x3e,
  0x62, 0x0e, 0xf0, 0x3d, 0x8a, 0x1d, 0x11, 0x3e, 0xeb, 0x35, 0x7d, 0x3e,
  0x64, 0x82, 0x7f, 0xbe, 0xc1, 0xc2, 0xa5, 0x3e, 0xf8, 0x5b, 0xed, 0x3d,
  0xcf, 0x9d, 0x4d, 0xbe, 0x67, 0x02, 0x22, 0xbe, 0xa6, 0xec, 0xb1, 0x3e,
  0xc9, 0x5b, 0xa0, 0xbe, 0x1d, 0x5d, 0xae, 0x3e, 0xfb, 0x8f, 0xaf, 0x3e,
  0x63, 0x61, 0xe3, 0x3c, 0x99, 0x7f, 0x0f, 0xbd, 0x8d, 0x66, 0x43, 0x3e,
  0xeb, 0x0d, 0x00, 0x3f, 0xc4, 0x76, 0x68, 0x3e, 0xe8, 0xb0, 0x89, 0xbe,
  0x9d, 0x21, 0x7f, 0x3e, 0x7d, 0x96, 0x6c, 0xbe, 0x79, 0xe4, 0x7d, 0x3e,
  0x84, 0x4c, 0x08, 0x3e, 0xbd, 0x4f, 0xa5, 0xbd, 0x91, 0xb2, 0xfd, 0xbd,
  0x16, 0xe1, 0xff, 0xff, 0x10, 0x00, 0x00, 0x00, 0x08, 0x00, 0x00, 0x00,
  0x14, 0x00, 0x00, 0x00, 0x30, 0x00, 0x00, 0x00, 0x02, 0x00, 0x00, 0x00,
  0x03, 0x00, 0x00, 0x00, 0x10, 0x00, 0x00, 0x00, 0x19, 0x00, 0x00, 0x00,
  0x73, 0x65, 0x71, 0x75, 0x65, 0x6e, 0x74, 0x69, 0x61, 0x6c, 0x2f, 0x64,
  0x65, 0x6e, 0x73, 0x65, 0x5f, 0x31, 0x2f, 0x4d, 0x61, 0x74, 0x4d, 0x75,
  0x6c, 0x00, 0x00, 0x00, 0x84, 0xe0, 0xff, 0xff, 0x8e, 0xe1, 0xff, 0xff,
  0x04, 0x00, 0x00, 0x00, 0x00, 0x1c, 0x00, 0x00, 0x5a, 0x46, 0xdf, 0xbd,
  0xe6, 0x0f, 0x73, 0xbe, 0x17, 0xc0, 0x29, 0xbe, 0x48, 0x06, 0x84, 0xbe,
  0xc0, 0x99, 0xce, 0xbe, 0xe9, 0x61, 0x8e, 0x3c, 0xbf, 0x97, 0x09, 0x3e,
  0x0b, 0x08, 0x4d, 0xbe, 0x20, 0x38, 0x36, 0xbd, 0x7a, 0xcd, 0xeb, 0x3c,
  0x68, 0x6c, 0x26, 0xbb, 0x26, 0x5b, 0x48, 0xbe, 0x14, 0xa1, 0x6f, 0xbe,
  0x48, 0x51, 0x7b, 0xbd, 0x4d, 0x99, 0x29, 0xbd, 0x6a, 0xf1, 0x93, 0xbc,
  0xaa, 0xf3, 0x7c, 0x3d, 0x73, 0x1f, 0x17, 0xbd, 0x83, 0x99, 0x7d, 0xbe,
  0x72, 0x9b, 0xc9, 0xbd, 0x43, 0xd4, 0xf8, 0xbd, 0x06, 0x02, 0x20, 0xbe,
  0x15, 0xf3, 0xfd, 0x3d, 0x69, 0x1e, 0x06, 0x3e, 0xb7, 0xbd, 0x0b, 0x3d,
  0x6c, 0x46, 0xa5, 0xbd, 0xfd, 0xbd, 0x01, 0x3d, 0x49, 0x24, 0x29, 0x3d,
  0xfe, 0xfe, 0x6c, 0xbe, 0xdf, 0x95, 0xb5, 0xbd, 0x6a, 0x9b, 0x82, 0x3c,
  0xb3, 0xdc, 0xdf, 0x3b, 0x40, 0x75, 0x72, 0xbe, 0xe9, 0x06, 0x94, 0x3d,
  0x4d, 0xfd, 0x9c, 0xbe, 0xa0, 0x2b, 0xe4, 0x3d, 0xef, 0xdc, 0x53, 0xbc,
  0x13, 0xb8, 0xb0, 0xbd, 0xf3, 0x12, 0x87, 0xbd, 0xb0, 0x69, 0x38, 0xbe,
  0xb3, 0x55, 0x32, 0xbe, 0xc6, 0xda, 0xaf, 0x3d, 0xfe, 0x92, 0x42, 0xbe,
  0xa7, 0x2c, 0x1d, 0xbe, 0x1e, 0x82, 0x4e, 0xbe, 0xfb, 0xcf, 0xd5, 0xbd,
  0x60, 0xbc, 0x61, 0xbe, 0x31, 0xe0, 0x4a, 0x3e, 0xd2, 0x6a, 0x37, 0xbe,
  0xdd, 0x48, 0x16, 0xbe, 0x7b, 0x00, 0x76, 0xbe, 0xfa, 0x59, 0x7d, 0x3d,
  0xb8, 0x91, 0x3b, 0x3e, 0xa2, 0xe1, 0x8a, 0xbc, 0x23, 0xad, 0x33, 0x3d,
  0x05, 0x9a, 0x93, 0xba, 0xae, 0x32, 0xa8, 0xbb, 0xa0, 0xb4, 0xd8, 0xbc,
  0x3b, 0xad, 0x17, 0x3e, 0x47, 0xed, 0x66, 0x3d, 0x31, 0x08, 0x23, 0xbe,
  0x59, 0xcc, 0x13, 0x3e, 0x40, 0xf8, 0xc8, 0x3a, 0xcb, 0xd2, 0x10, 0xbe,
  0x24, 0x51, 0x22, 0xbd, 0xa1, 0xc0, 0xfa, 0xbc, 0x91, 0x36, 0x57, 0xbe,
  0x16, 0xeb, 0x17, 0x3e, 0xff, 0x4e, 0x09, 0xbe, 0x51, 0x2e, 0x7e, 0x3b,
  0xbe, 0x03, 0x91, 0x3b, 0xa2, 0xb6, 0x89, 0x3e, 0xf9, 0x78, 0xb4, 0x3d,
  0xc6, 0xda, 0x7f, 0x3e, 0x13, 0x8a, 0x4f, 0xbe, 0x74, 0x96, 0xc3, 0x3d,
  0x86, 0x0b, 0x3c, 0xbe, 0xa2, 0x3b, 0x38, 0x3e, 0x71, 0x8d, 0x07, 0xbe,
  0x4c, 0xa3, 0x25, 0xbd, 0xee, 0x93, 0xb3, 0x3c, 0xba, 0xbd, 0x0d, 0xbe,
  0x67, 0xbd, 0xf8, 0xbd, 0x8e, 0x19, 0x55, 0xbe, 0x47, 0xff, 0x79, 0xbd,
  0x7b, 0x51, 0x7b, 0xbe, 0x92, 0xa6, 0x36, 0x3d, 0x69, 0xbe, 0xcb, 0x3d,
  0x0e, 0x86, 0x0c, 0xbe, 0x46, 0xe4, 0x73, 0xbd, 0x87, 0x9f, 0xb8, 0xbc,
  0xd5, 0x27, 0xb8, 0x3c, 0x9a, 0xb3, 0x80, 0x3d, 0x98, 0x86, 0x01, 0xbe,
  0xff, 0x95, 0x26, 0x3c, 0x44, 0x88, 0x90, 0x3e, 0x55, 0xca, 0x29, 0xbe,
  0xde, 0x5e, 0x93, 0xbe, 0x98, 0x7e, 0xde, 0xbd, 0x3e, 0xe7, 0xc7, 0xbc,
  0xb5, 0x7b, 0x7f, 0xbe, 0xac, 0x6a, 0xb9, 0xbd, 0x9e, 0x6a, 0x0f, 0xbe,
  0x37, 0x01, 0xd5, 0xbd, 0x54, 0x35, 0xbb, 0x3c, 0x57, 0x7b, 0xb1, 0xbd,
  0xe6, 0x7c, 0x67, 0xbe, 0x12, 0xf5, 0x98, 0xbe, 0x2b, 0x40, 0xd9, 0x3d,
  0xb5, 0x5b, 0xf5, 0xbd, 0x45, 0xc9, 0x87, 0xbe, 0x9e, 0x7a, 0xd4, 0x3d,
  0x4d, 0x1b, 0xd8, 0x3e, 0x8e, 0xd8, 0x05, 0x3e, 0x22, 0x16, 0x12, 0xbf,
  0xf6, 0xdd, 0x22, 0x3d, 0x9a, 0x3e, 0x9f, 0x3b, 0x1f, 0xc4, 0x08, 0xbf,
  0xf2, 0xbd, 0x18, 0x3e, 0xbb, 0x98, 0xa1, 0x3d, 0x3a, 0x8a, 0x6f, 0xbe,
  0x79, 0xec, 0x05, 0xbf, 0xbc, 0xd2, 0xd0, 0x3b, 0x9e, 0x48, 0x06, 0xbe,
  0x2e, 0x39, 0x3d, 0x3c, 0x10, 0xbd, 0x2a, 0x3e, 0xfb, 0x43, 0x5a, 0x3e,
  0x2d, 0xb7, 0x46, 0x3e, 0xfb, 0xb6, 0xb2, 0x3d, 0x8c, 0xa6, 0x5c, 0x3b,
  0x4c, 0x1d, 0x07, 0xbf, 0xe8, 0xe9, 0xc1, 0x3e, 0x13, 0xab, 0x74, 0xbe,
  0xab, 0x3b, 0x3c, 0x3d, 0xa5, 0x74, 0x26, 0x3d, 0xf9, 0x4c, 0x28, 0xbd,
  0xae, 0x24, 0x9f, 0xbe, 0x6f, 0x0c, 0x35, 0xbf, 0x8c, 0x2a, 0xa7, 0x3e,
  0x2f, 0xef, 0x0c, 0x3e, 0x30, 0x17, 0xc6, 0xbe, 0x79, 0xab, 0x6c, 0x3e,
  0x2e, 0x76, 0x37, 0x3e, 0x32, 0x6e, 0x41, 0x3c, 0xc9, 0x0a, 0x0e, 0xbe,
  0x92, 0xa1, 0xfd, 0x3a, 0xda, 0xe7, 0xd9, 0xbe, 0xe8, 0xf6, 0x19, 0x3e,
  0x8a, 0xa7, 0xd2, 0x3d, 0xf6, 0x47, 0x36, 0x3e, 0x78, 0xca, 0xb6, 0xbd,
  0x80, 0x70, 0xee, 0x3d, 0x89, 0x0e, 0xb5, 0xbe, 0xee, 0x19, 0xe1, 0xbe,
  0xe1, 0x64, 0xc5, 0x3e, 0x12, 0x9f, 0xd9, 0xbd, 0xbd, 0xa5, 0x84, 0xbe,
  0xa5, 0x1c, 0x9d, 0x3e, 0xeb, 0x3d, 0x44, 0x3e, 0x24, 0x68, 0xa8, 0xbd,
  0xd3, 0x76, 0xd9, 0x3c, 0x45, 0x30, 0x94, 0x3d, 0xb5, 0x92, 0x8b, 0xbe,
  0xdb, 0x78, 0x7d, 0x3d, 0xd0, 0x1e, 0xd7, 0xbd, 0x6b, 0xbd, 0xf1, 0xbc,
  0x98, 0x98, 0x83, 0x3c, 0x1a, 0x20, 0x19, 0x3e, 0x2a, 0xe1, 0xc7, 0xbe,
  0x5b, 0x7b, 0xb5, 0xbe, 0x31, 0xb9, 0x8f, 0x3e, 0x9e, 0xa7, 0x9a, 0xbd,
  0xc7, 0x1c, 0x0c, 0xbe, 0x43, 0xb4, 0x7e, 0x3e, 0x8e, 0x7d, 0xc1, 0xbd,
  0xff, 0xc5, 0x6f, 0xbd, 0x90, 0x5a, 0x59, 0x3e, 0xc6, 0x5d, 0x08, 0xbd,
  0x59, 0xbb, 0xef, 0xbe, 0xbe, 0xa3, 0x29, 0x3e, 0xba, 0x28, 0xf3, 0xbd,
  0x8e, 0x30, 0x6d, 0x3c, 0xb3, 0xd7, 0x8f, 0x3d, 0xc8, 0xec, 0xd7, 0x3b,
  0xcd, 0xa2, 0x86, 0xbe, 0xec, 0xb5, 0x61, 0xbe, 0x71, 0x51, 0x2b, 0x3e,
  0xba, 0xa3, 0x3c, 0xbd, 0x83, 0x1c, 0x64, 0x3d, 0xd4, 0xd8, 0x9e, 0x3e,
  0x77, 0xa1, 0x9d, 0x3e, 0x04, 0x2b, 0x31, 0x3d, 0xfa, 0x99, 0xfd, 0x3d,
  0xc9, 0xb2, 0x7e, 0x3d, 0x48, 0x38, 0x0d, 0xbf, 0xab, 0x41, 0xe0, 0x3d,
  0x61, 0xd2, 0x69, 0xbe, 0xbd, 0x8f, 0x7e, 0xbe, 0xec, 0x82, 0x2c, 0x3d,
  0x4f, 0xa8, 0x01, 0xbe, 0x65, 0xcf, 0x39, 0xbf, 0xe7, 0x1f, 0xab, 0xbe,
  0x42, 0xf3, 0xba, 0x3e, 0xb2, 0xbf, 0x9c, 0xbe, 0xec, 0x7f, 0xc2, 0x3b,
  0x7b, 0x9c, 0x84, 0x3e, 0x7e, 0x2c, 0x7b, 0x3e, 0x3e, 0x90, 0x07, 0xbc,
  0xc9, 0xde, 0x12, 0xbc, 0x97, 0x0e, 0x34, 0x3d, 0x26, 0xa5, 0x7b, 0xbd,
  0x7f, 0x2b, 0xc5, 0x3d, 0x34, 0xa5, 0x96, 0xbe, 0xfe, 0xed, 0xc0, 0x3d,
  0x44, 0xe0, 0x67, 0x3e, 0x04, 0xe2, 0x40, 0x3d, 0x8d, 0xbf, 0xbb, 0xbe,
  0xa0, 0x20, 0x44, 0xbd, 0xcc, 0xe5, 0x1d, 0x3d, 0x26, 0x68, 0xe6, 0xbd,
  0xfd, 0xf2, 0x65, 0xbd, 0x39, 0x1a, 0x28, 0xbe, 0x8c, 0x3d, 0x23, 0x3e,
  0xd5, 0xcc, 0xe9, 0xbd, 0xfd, 0xa6, 0x0b, 0x3f, 0x07, 0x04, 0x50, 0xbc,
  0x7a, 0xdd, 0x84, 0xbe, 0xd3, 0x91, 0xd4, 0x3a, 0x05, 0x78, 0x6a, 0xbe,
  0xf0, 0xbc, 0x99, 0xbe, 0xac, 0xd4, 0xb6, 0x3d, 0xc9, 0xc1, 0x9b, 0xbe,
  0x97, 0xca, 0x00, 0xbe, 0x1e, 0xa7, 0xfb, 0xbe, 0xf6, 0x1d, 0x0f, 0x3d,
  0xcc, 0x17, 0x70, 0xbe, 0x89, 0x0e, 0x22, 0xbd, 0x7d, 0x06, 0x02, 0x3e,
  0x62, 0x9e, 0xf1, 0x3e, 0x0f, 0x8c, 0x20, 0x3f, 0xa8, 0x38, 0x5b, 0x3f,
  0x27, 0x05, 0x4b, 0x3d, 0x58, 0x7c, 0x5d, 0xbe, 0x02, 0x9a, 0xbe, 0x3e,
  0x45, 0x2a, 0x59, 0x3e, 0xae, 0x15, 0x59, 0x3e, 0xa4, 0x8a, 0xa1, 0xbd,
  0x7e, 0x78, 0xcd, 0xbe, 0x94, 0xdf, 0x1f, 0xbe, 0x7d, 0x2e, 0x17, 0xbf,
  0xb9, 0xb0, 0xce, 0x3e, 0x17, 0xcd, 0xd8, 0x3d, 0x0b, 0xcd, 0xc2, 0xbe,
  0x5a, 0x05, 0x87, 0x3e, 0x01, 0x92, 0x60, 0x3e, 0xe2, 0x8d, 0x1f, 0x3e,
  0xd4, 0xcf, 0x2a, 0x3e, 0x08, 0x51, 0x10, 0x3d, 0x2f, 0xc3, 0x2c, 0xbe,
  0xfe, 0xdc, 0x6c, 0x3e, 0xfa, 0xf9, 0xb1, 0x3d, 0xb1, 0x84, 0x06, 0xbd,
  0xf7, 0xe6, 0x06, 0xbd, 0x58, 0x53, 0xae, 0xbe, 0xc4, 0x2e, 0x50, 0xbe,
  0x46, 0xb2, 0xc0, 0xbe, 0xf2, 0x67, 0xa0, 0x3e, 0xe9, 0xf0, 0x4a, 0xbe,
  0x51, 0xd4, 0x15, 0x3c, 0x41, 0xaf, 0x55, 0xbd, 0xd6, 0xfd, 0x40, 0x3e,
  0x92, 0x7d, 0x32, 0x3c, 0x5b, 0x51, 0x3f, 0x3e, 0x2b, 0x11, 0x3b, 0x3d,
  0xc8, 0x16, 0x46, 0xbe, 0x20, 0xb8, 0x70, 0x3e, 0x80, 0x11, 0x8e, 0x3c,
  0x6e, 0x90, 0x0b, 0xbe, 0x6a, 0x9d, 0xa5, 0x3d, 0x94, 0x1f, 0x5f, 0xbe,
  0xee, 0xe6, 0x1d, 0xbe, 0x3e, 0x62, 0x3c, 0xbe, 0xd2, 0x56, 0x78, 0x3e,
  0xf2, 0xbc, 0x33, 0xbd, 0x42, 0xfa, 0xd0, 0x3c, 0x83, 0x26, 0x67, 0x3e,
  0x05, 0x11, 0x01, 0x3e, 0x17, 0xf0, 0x0c, 0xbd, 0x87, 0x43, 0x0d, 0x3f,
  0x5d, 0x18, 0xd5, 0x3b, 0xb4, 0x79, 0xf1, 0xbd, 0x44, 0xef, 0xfb, 0x3e,
  0x52, 0xf2, 0x92, 0x3d, 0x10, 0xf8, 0x1f, 0xbd, 0xb1, 0xc3, 0xe6, 0x3d,
  0x91, 0xe6, 0x9e, 0xbe, 0x4a, 0xf5, 0x65, 0xbd, 0xc9, 0x64, 0x91, 0xbe,
  0x60, 0x67, 0x85, 0x3e, 0xf0, 0x6c, 0x45, 0xbe, 0x2a, 0x05, 0x24, 0x38,
  0x1f, 0x51, 0x55, 0x3e, 0x13, 0x1f, 0x9e, 0x3e, 0xdf, 0x53, 0x47, 0x3d,
  0xed, 0x42, 0xb9, 0x3e, 0x07, 0x30, 0x85, 0xbc, 0x68, 0x0f, 0x9e, 0xbe,
  0x93, 0x35, 0x18, 0x3e, 0xb9, 0xd0, 0x57, 0xbe, 0x4f, 0x51, 0x84, 0xbe,
  0xc9, 0x34, 0xce, 0xbb, 0xae, 0xd5, 0xca, 0xbe, 0x3d, 0xfd, 0xca, 0xbe,
  0x6d, 0x6f, 0x92, 0xbe, 0xba, 0xe9, 0x1e, 0x3e, 0xf8, 0xf5, 0xad, 0xbe,
  0x03, 0x5b, 0xdb, 0x3d, 0xf1, 0xbb, 0x87, 0x3e, 0x3b, 0x9c, 0x88, 0x3d,
  0x17, 0x79, 0xcc, 0x3d, 0x88, 0xcf, 0xfc, 0x3d, 0x6c, 0x4e, 0xab, 0x3d,
  0x9d, 0x3f, 0xf2, 0xbc, 0x7e, 0x6a, 0x40, 0x3d, 0x2e, 0xa0, 0x3a, 0xbe,
  0x8f, 0xa3, 0x93, 0xbc, 0xda, 0x98, 0x05, 0x3e, 0x2c, 0x32, 0xb2, 0xbc,
  0x45, 0x68, 0x1b, 0xbe, 0x88, 0x89, 0x99, 0x3d, 0x77, 0x0f, 0xe3, 0x3d,
  0x45, 0xbd, 0x75, 0xbd, 0x01, 0x76, 0x12, 0xbd, 0xac, 0x82, 0xe0, 0xbc,
  0x6d, 0x82, 0x69, 0xbd, 0xa7, 0x37, 0xec, 0xbd, 0xac, 0xb2, 0xb5, 0xbc,
  0x59, 0x9d, 0xa7, 0xbd, 0x37, 0x6f, 0x56, 0x3e, 0xd2, 0xf6, 0x47, 0xbd,
  0x5f, 0xf9, 0x7a, 0x3c, 0xe8, 0xae, 0xba, 0xbe, 0xe6, 0xfe, 0xd5, 0xbd,
  0x4e, 0x93, 0x57, 0xbe, 0x8b, 0x2f, 0x9e, 0x3d, 0xa9, 0x9c, 0xcd, 0xbe,
  0x65, 0xcb, 0x47, 0x3e, 0x7b, 0x56, 0x81, 0xbe, 0xc1, 0x99, 0x1f, 0xbd,
  0x8c, 0xb7, 0x03, 0xbd, 0x77, 0x9e, 0xa1, 0x3c, 0xf7, 0x8b, 0x08, 0xbf,
  0x30, 0xd4, 0x6d, 0xbe, 0xe7, 0x09, 0xc7, 0xbe, 0x80, 0x24, 0xad, 0x3e,
  0x43, 0x9a, 0x96, 0xbe, 0x5e, 0x7e, 0xc4, 0x3e, 0x5c, 0x5e, 0x89, 0xbe,
  0xa9, 0xd5, 0xe8, 0xbe, 0xc7, 0x0f, 0x43, 0x3e, 0x23, 0x06, 0x75, 0x3e,
  0x3f, 0x9a, 0xe5, 0x3d, 0xd4, 0xb8, 0x06, 0x3e, 0xc5, 0x25, 0x66, 0xbe,
  0x4f, 0xae, 0x7a, 0x3e, 0xcf, 0x23, 0xa1, 0xbd, 0x99, 0x08, 0x87, 0xbd,
  0x48, 0xa1, 0x9c, 0xbe, 0xfe, 0x48, 0x4d, 0xbc, 0x85, 0xba, 0xb4, 0xbe,
  0xc2, 0x0b, 0x80, 0x3e, 0x18, 0x98, 0x92, 0x3d, 0x44, 0x92, 0x46, 0x3e,
  0xa8, 0x98, 0x00, 0xbe, 0x39, 0x12, 0x58, 0xbe, 0xe5, 0xbf, 0x81, 0x3d,
  0x39, 0xda, 0x58, 0x3e, 0x02, 0x5c, 0x49, 0x3e, 0xb6, 0x25, 0x60, 0x3c,
  0xcb, 0x4c, 0x8c, 0xbe, 0x57, 0xb1, 0x9a, 0x3e, 0x85, 0x6f, 0x6e, 0xbd,
  0x94, 0x8a, 0x07, 0xbe, 0x21, 0x2b, 0x0c, 0x3e, 0xcb, 0x20, 0x29, 0xbd,
  0x10, 0xea, 0xa1, 0xbe, 0xcb, 0xca, 0xf5, 0x3d, 0x37, 0xb7, 0x9b, 0x3e,
  0x5e, 0xef, 0x33, 0x3e, 0xd5, 0x82, 0x15, 0xbe, 0x45, 0x8b, 0x49, 0xbe,
  0x97, 0x05, 0xc9, 0xbc, 0xf4, 0xbb, 0x53, 0x3e, 0x49, 0x1a, 0x73, 0x3e,
  0x93, 0x53, 0x68, 0xbd, 0xfc, 0x43, 0xd5, 0xbd, 0x15, 0x9c, 0x0e, 0x3e,
  0x23, 0x52, 0x07, 0xbe, 0x7a, 0xa8, 0x67, 0xbe, 0xeb, 0x2a, 0x48, 0x3e,
  0x4e, 0x2d, 0xaf, 0x3e, 0xd1, 0x10, 0x35, 0xbe, 0xf6, 0xb0, 0x59, 0x3e,
  0x18, 0x7d, 0x18, 0x3e, 0x35, 0x5f, 0x7a, 0x3e, 0xa1, 0xfe, 0xba, 0xbe,
  0x0c, 0x1a, 0x10, 0xbe, 0xde, 0x92, 0x0f, 0x3e, 0x86, 0xda, 0x38, 0x3e,
  0x5c, 0xaf, 0x29, 0x3e, 0x6a, 0x4c, 0x96, 0xbd, 0xac, 0xc2, 0x82, 0xbe,
  0xb7, 0x51, 0x24, 0x3e, 0xff, 0xcc, 0x3e, 0x3e, 0xaf, 0xfd, 0x37, 0xbd,
  0xd0, 0x11, 0x97, 0x3e, 0x13, 0x7a, 0xc3, 0x3d, 0x92, 0xed, 0x41, 0xbe,
  0x5d, 0xb9, 0xca, 0x3d, 0xae, 0x08, 0xb4, 0x3e, 0xb4, 0xca, 0x1c, 0xbe,
  0xa2, 0xfe, 0x76, 0xbd, 0x70, 0xa5, 0x30, 0xbe, 0x8b, 0x20, 0x34, 0x3e,
  0xdc, 0x85, 0x41, 0xbe, 0x6c, 0x81, 0x80, 0x3e, 0x02, 0x97, 0x6e, 0x3e,
  0x59, 0xd0, 0x87, 0xbd, 0x46, 0xb7, 0x54, 0xbe, 0xdd, 0xcd, 0xab, 0x3e,
  0xbe, 0x3f, 0xb9, 0xbe, 0x50, 0x28, 0xb2, 0x3e, 0xac, 0x86, 0x55, 0x3e,
  0x31, 0x49, 0x93, 0xbe, 0xb0, 0xc5, 0xfe, 0xbc, 0xa5, 0x75, 0xd3, 0x3e,
  0x9a, 0x12, 0xe0, 0xbe, 0x18, 0x15, 0x05, 0x3e, 0x64, 0x7c, 0x35, 0x3d,
  0xc3, 0x44, 0xd1, 0x3b, 0x3f, 0x6f, 0x8c, 0xbe, 0xe2, 0xc6, 0x23, 0xbd,
  0x1d, 0x2a, 0xaf, 0xbe, 0x86, 0xc0, 0x26, 0xbe, 0x8c, 0x59, 0x3b, 0xbe,
  0xf0, 0xa1, 0x02, 0xbe, 0xae, 0xdc, 0x21, 0x3e, 0x3d, 0xb1, 0xb6, 0x3e,
  0x69, 0xe2, 0xc9, 0xbe, 0x5b, 0xa7, 0xe6, 0xbd, 0xe6, 0xf0, 0x8f, 0x3d,
  0x27, 0xad, 0x6a, 0xbe, 0x50, 0x44, 0x3d, 0x3d, 0x4b, 0xb8, 0x05, 0xbe,
  0x6e, 0x7f, 0x28, 0xbe, 0xbe, 0x44, 0xf8, 0x3c, 0x34, 0x66, 0xa8, 0x3d,
  0xf5, 0xec, 0xfb, 0x3c, 0x9c, 0xd2, 0x65, 0xbe, 0xf1, 0x61, 0x07, 0xbe,
  0xe0, 0x36, 0xe2, 0x3b, 0x53, 0x2c, 0x8c, 0xbe, 0x74, 0xee, 0x3b, 0xbe,
  0x61, 0x3f, 0x16, 0xbe, 0x4c, 0xda, 0x37, 0x3d, 0xd8, 0x61, 0x1b, 0xbf,
  0xc6, 0x44, 0x0f, 0xbd, 0xcd, 0x2f, 0xfd, 0x3d, 0x65, 0xf3, 0xad, 0x3e,
  0xc6, 0x9a, 0x8a, 0xbe, 0xad, 0x09, 0x02, 0xbf, 0xb1, 0x98, 0xbe, 0x3e,
  0xec, 0x22, 0x5c, 0x3c, 0x85, 0xe1, 0xc6, 0x3e, 0x41, 0x23, 0x54, 0x3e,
  0xe8, 0xd2, 0x1e, 0x3c, 0x12, 0x80, 0x70, 0x3d, 0xfe, 0x4f, 0x76, 0xbd,
  0xfe, 0xf1, 0xc4, 0xbd, 0xa9, 0x23, 0x5e, 0x3e, 0xad, 0x6a, 0xb0, 0x3d,
  0x70, 0xbe, 0xf6, 0xbe, 0xbf, 0x7a, 0x57, 0x3e, 0x7a, 0xdd, 0x07, 0x3e,
  0xa3, 0xc3, 0xae, 0x3e, 0xb4, 0x5f, 0xb1, 0xbd, 0xe4, 0xa0, 0x91, 0xbe,
  0xde, 0xb7, 0x84, 0x3e, 0x65, 0x33, 0xb1, 0xbc, 0xbc, 0x7b, 0xa7, 0x3e,
  0x2f, 0x5e, 0xb5, 0xbd, 0x55, 0x9d, 0x0f, 0xbd, 0x92, 0x28, 0xf2, 0x3d,
  0xf3, 0x68, 0x22, 0x3c, 0xef, 0x78, 0x5f, 0xbe, 0x8a, 0x0f, 0x3f, 0x3e,
  0x6c, 0x0d, 0x74, 0x3e, 0xdb, 0x88, 0x64, 0xbe, 0x91, 0x9d, 0xfd, 0x3d,
  0xa6, 0xda, 0x97, 0x3e, 0x1b, 0x23, 0xa5, 0x3e, 0x91, 0x16, 0x7b, 0xbe,
  0xb8, 0x22, 0x46, 0xbc, 0x31, 0xf8, 0xb3, 0x3b, 0x3c, 0x1e, 0x14, 0xbd,
  0xf0, 0x2e, 0x60, 0x3e, 0x74, 0xc7, 0xb2, 0xbd, 0x3e, 0x3d, 0x70, 0xbd,
  0x4e, 0x17, 0x35, 0xbe, 0x38, 0x0a, 0xa2, 0x3d, 0x9d, 0xf1, 0xd4, 0xbd,
  0xa3, 0xa9, 0x72, 0x3e, 0x81, 0x1f, 0x8a, 0x3e, 0xc2, 0xdb, 0x87, 0xbd,
  0x42, 0x38, 0xbb, 0xbe, 0x34, 0x7d, 0x63, 0x3e, 0x56, 0xc1, 0x7f, 0xbd,
  0xdd, 0x95, 0x40, 0x3d, 0x5a, 0xa6, 0x13, 0x3c, 0x7a, 0x31, 0x44, 0xbc,
  0x8e, 0xca, 0xbc, 0xbd, 0xf6, 0xeb, 0x45, 0x3e, 0x92, 0x8d, 0x50, 0x3e,
  0x3a, 0xa9, 0x88, 0xbe, 0x22, 0xf2, 0xb0, 0x3d, 0x85, 0x2c, 0x78, 0x3e,
  0xae, 0xe2, 0xbf, 0x3c, 0x2b, 0x86, 0x2b, 0x3e, 0x20, 0xf3, 0xf8, 0x3e,
  0x80, 0xb1, 0xba, 0xbd, 0x9f, 0xdb, 0xb5, 0xbe, 0xfd, 0x02, 0x9f, 0x3e,
  0x9e, 0x22, 0xb0, 0xbe, 0xc1, 0x4a, 0x28, 0x3e, 0x99, 0x16, 0xb9, 0xbd,
  0x06, 0xa2, 0x4e, 0xbf, 0x09, 0xc1, 0xc9, 0x3c, 0xdf, 0x28, 0x9b, 0x3e,
  0xdb, 0x4b, 0xa0, 0x3e, 0x1f, 0x25, 0xfd, 0x3d, 0x76, 0x85, 0x9e, 0xbd,
  0x51, 0x5f, 0xf6, 0x3e, 0x01, 0x82, 0x02, 0xbe, 0xf9, 0xdb, 0xfe, 0x3c,
  0x20, 0xb2, 0x81, 0x3e, 0x17, 0x99, 0x20, 0xbe, 0x82, 0xa9, 0x26, 0xbb,
  0x44, 0x67, 0x0d, 0xbe, 0x03, 0xd0, 0xad, 0xbe, 0x86, 0x58, 0x6f, 0x3e,
  0x39, 0xcd, 0x25, 0x3d, 0x53, 0x6f, 0xc3, 0xbd, 0x89, 0xc6, 0x03, 0xbe,
  0x91, 0x8c, 0xf1, 0xbd, 0x94, 0x8e, 0xf8, 0xbe, 0xfe, 0x18, 0x48, 0xbe,
  0x52, 0xfb, 0xc7, 0xbe, 0x35, 0x64, 0xeb, 0xbd, 0xf2, 0x61, 0x07, 0xbd,
  0xb5, 0xcb, 0x42, 0xbe, 0x6b, 0x6f, 0x0c, 0x3e, 0xcf, 0x78, 0x71, 0xbd,
  0x82, 0x1b, 0x9a, 0xbe, 0x08, 0x3f, 0xe4, 0x3d, 0x18, 0x61, 0x0a, 0xbe,
  0x4f, 0x5c, 0x30, 0xbf, 0xdc, 0xdd, 0xe3, 0x3d, 0xdd, 0xdb, 0xb5, 0xbd,
  0xf3, 0x17, 0x94, 0xbe, 0x54, 0xac, 0x59, 0xbe, 0x95, 0xff, 0xf5, 0x3e,
  0xb4, 0xfb, 0x3c, 0xbe, 0x4e, 0x4f, 0x23, 0xbe, 0xb2, 0xac, 0xbd, 0xbc,
  0x80, 0x61, 0x8e, 0x3d, 0x6d, 0x6c, 0xc2, 0xbc, 0x9b, 0xbd, 0xcc, 0xbd,
  0x48, 0xbf, 0x3f, 0xbe, 0x4b, 0x75, 0x2c, 0x3e, 0x7e, 0x46, 0x40, 0xbe,
  0x83, 0x5b, 0x04, 0x3e, 0xb4, 0x92, 0x4a, 0xbd, 0x42, 0xa5, 0xe0, 0xbe,
  0xdc, 0x7a, 0x85, 0x3e, 0xfc, 0xee, 0x2b, 0x3e, 0xff, 0x39, 0x91, 0xbe,
  0xc5, 0x06, 0x86, 0xbe, 0x07, 0x28, 0xc4, 0xbd, 0x60, 0xf4, 0x97, 0xbe,
  0xb1, 0xa4, 0x27, 0x3e, 0x01, 0x65, 0x2b, 0x3d, 0x78, 0x46, 0xd3, 0xbe,
  0x48, 0x24, 0x13, 0x3d, 0x5a, 0x63, 0x9a, 0xbd, 0x8b, 0x84, 0x07, 0x3e,
  0x55, 0x34, 0x14, 0xbd, 0xe1, 0xc4, 0x5a, 0xbd, 0x42, 0x7c, 0xad, 0x3e,
  0x77, 0xf2, 0xb0, 0xbe, 0xd8, 0xff, 0xa8, 0xbb, 0x59, 0xe1, 0x5a, 0xbd,
  0xcb, 0x6a, 0xf3, 0x3c, 0xec, 0x46, 0x71, 0x3c, 0xcb, 0x1a, 0xc3, 0x3e,
  0x13, 0xd3, 0xa9, 0xbe, 0x32, 0xf3, 0x93, 0x3d, 0x2d, 0x3e, 0x89, 0x3d,
  0xa3, 0x72, 0xac, 0xbe, 0xf0, 0x6f, 0xd2, 0x3b, 0x7c, 0xf2, 0xd8, 0xbd,
  0x62, 0x44, 0xe8, 0x3d, 0x07, 0x60, 0xa9, 0xbe, 0x45, 0xed, 0xcf, 0xbd,
  0x67, 0x80, 0x9b, 0x3e, 0xc3, 0xda, 0x70, 0xbe, 0x96, 0x68, 0x1c, 0x3d,
  0x53, 0x59, 0x73, 0x3d, 0x2e, 0xf8, 0x4a, 0x3d, 0x38, 0x35, 0x39, 0x3e,
  0x37, 0x9f, 0xa7, 0x3e, 0x2e, 0xbd, 0x88, 0x3c, 0x99, 0xea, 0x13, 0xbd,
  0x55, 0x99, 0xb3, 0x3e, 0x77, 0xa5, 0x1e, 0xbe, 0x12, 0xcb, 0x93, 0xbd,
  0xa6, 0xd9, 0x80, 0xbd, 0xb7, 0x0d, 0xbb, 0x3d, 0x16, 0x19, 0xde, 0xbe,
  0x22, 0x22, 0x72, 0xbe, 0xb5, 0x0d, 0xaa, 0x3e, 0xd8, 0x79, 0x1b, 0xbe,
  0x9e, 0x60, 0xfb, 0xbd, 0x14, 0x03, 0x49, 0x3e, 0xcd, 0xa5, 0xbe, 0x3e,
  0x23, 0x4e, 0xc0, 0xbd, 0xf5, 0xfb, 0x75, 0x3e, 0xa6, 0xef, 0x86, 0xbc,
  0xe5, 0x8b, 0x9b, 0xbd, 0xc5, 0xd4, 0x02, 0x3e, 0xa0, 0x43, 0x33, 0xbf,
  0x7b, 0xf0, 0x1e, 0xbd, 0x65, 0x6b, 0xe9, 0x3a, 0xf3, 0x17, 0xc9, 0x3d,
  0x56, 0x46, 0xe4, 0xbe, 0xac, 0x82, 0x97, 0xbe, 0xf6, 0xd9, 0xaf, 0x3e,
  0x55, 0xab, 0x85, 0x3e, 0x82, 0x7b, 0x21, 0xbe, 0xb5, 0x52, 0x0c, 0x3e,
  0x7d, 0x21, 0xbd, 0x3d, 0x0a, 0x08, 0x56, 0xbe, 0xb2, 0x2e, 0xb2, 0x3d,
  0xb0, 0xab, 0xbc, 0x3d, 0xb6, 0xe5, 0x8d, 0xbe, 0xf0, 0x6d, 0x23, 0x3d,
  0x71, 0x84, 0x50, 0xbf, 0x6b, 0x00, 0x7d, 0xbd, 0x6d, 0xec, 0x9e, 0xba,
  0x15, 0x28, 0xaa, 0xbd, 0xa8, 0x90, 0x44, 0xbe, 0xae, 0xf2, 0x27, 0xbe,
  0xcd, 0xbf, 0x76, 0x3d, 0xc0, 0xd2, 0x88, 0x3e, 0x61, 0x8e, 0xcc, 0xbe,
  0x1f, 0x49, 0x4d, 0x3d, 0x9a, 0x3a, 0xb9, 0x3b, 0xef, 0x57, 0x2e, 0x3d,
  0xdc, 0xf1, 0x93, 0x3d, 0x9a, 0xe3, 0x74, 0x3e, 0x0d, 0x51, 0x8b, 0x3e,
  0x81, 0x58, 0xa6, 0x3d, 0xef, 0x21, 0x6a, 0xbe, 0xf4, 0xd9, 0xd6, 0x3d,
  0x0e, 0x78, 0x24, 0xbe, 0x16, 0xe4, 0x95, 0x3c, 0x2b, 0x59, 0xdd, 0xbd,
  0x74, 0x93, 0x55, 0x3c, 0x84, 0xda, 0xa9, 0xbe, 0x5a, 0x1e, 0x32, 0xbd,
  0xac, 0x53, 0x2f, 0xbb, 0x9a, 0x4c, 0x98, 0x3c, 0xea, 0x22, 0x34, 0x3d,
  0xda, 0x6b, 0xd2, 0xbc, 0x9f, 0x90, 0x86, 0xbe, 0x61, 0xa0, 0xe8, 0x3c,
  0x77, 0x55, 0xfa, 0xbd, 0x66, 0xaa, 0x95, 0xbe, 0x2d, 0x42, 0x90, 0xbe,
  0x5c, 0x7e, 0xf8, 0x3d, 0xea, 0xd9, 0xdd, 0xbe, 0xe2, 0x27, 0x15, 0x3e,
  0x7a, 0x10, 0x64, 0xbd, 0x28, 0xa7, 0x11, 0x3e, 0x71, 0xc0, 0xd3, 0xbe,
  0xc0, 0xe3, 0xbb, 0xbe, 0xfb, 0xd6, 0xfc, 0x3d, 0xfd, 0xb0, 0x3b, 0x3e,
  0x59, 0x7c, 0xbb, 0x3e, 0x49, 0x1c, 0xe3, 0x3b, 0x90, 0x46, 0x2c, 0xbd,
  0x21, 0x4b, 0xef, 0x3d, 0xd1, 0x43, 0x13, 0xbe, 0x44, 0x83, 0x98, 0xbc,
  0x8a, 0xbc, 0x8a, 0x3e, 0x95, 0x47, 0x61, 0xbd, 0xe9, 0x7b, 0x92, 0xbe,
  0x1a, 0x78, 0x45, 0x3e, 0x97, 0xbf, 0xdf, 0x3d, 0xcf, 0x2c, 0x85, 0x3d,
  0x79, 0x18, 0x56, 0xbe, 0x88, 0xf9, 0x85, 0xbe, 0xf5, 0xb9, 0xa5, 0xbc,
  0x1a, 0xb6, 0xb0, 0x3b, 0xf2, 0x4b, 0x9e, 0x3e, 0x1a, 0x04, 0xf5, 0x3c,
  0x1d, 0x6a, 0x17, 0xbe, 0x3f, 0x64, 0x30, 0xba, 0x96, 0xa6, 0x1d, 0x3e,
  0xbb, 0x0a, 0xb7, 0xbe, 0x72, 0x64, 0x33, 0x3e, 0x26, 0xb7, 0xa3, 0x3e,
  0x53, 0x47, 0xa6, 0xbe, 0xfc, 0x6c, 0x9f, 0x3e, 0xde, 0x61, 0x35, 0x3e,
  0x83, 0xa3, 0x05, 0x3e, 0x3b, 0xf0, 0x08, 0xbe, 0xac, 0x9e, 0xac, 0xbe,
  0xe0, 0x02, 0xaf, 0xbd, 0x38, 0xce, 0xee, 0x3d, 0xdc, 0x70, 0x7e, 0x3e,
  0xf1, 0xa6, 0x78, 0xbc, 0xa4, 0xb5, 0x2e, 0x3d, 0x0c, 0xdb, 0x66, 0x3d,
  0xee, 0xd7, 0xc3, 0x3d, 0x24, 0x35, 0x71, 0xbe, 0xdb, 0x88, 0x9b, 0x3d,
  0x8c, 0x4e, 0xb7, 0x3e, 0x61, 0x95, 0x88, 0xbe, 0x3c, 0xef, 0x6c, 0x3e,
  0x80, 0x5d, 0xc5, 0x3e, 0x68, 0x50, 0xa0, 0x3e, 0x8f, 0x4c, 0xbb, 0xbe,
  0xd3, 0x81, 0xbc, 0xbd, 0xa4, 0x61, 0x5c, 0x3d, 0xc5, 0xff, 0xcb, 0x3c,
  0x54, 0x89, 0x51, 0x3e, 0x24, 0x81, 0x56, 0x3e, 0x04, 0xff, 0xab, 0xbd,
  0xbd, 0x17, 0x15, 0xbd, 0x4b, 0xbc, 0x61, 0x3e, 0x1b, 0x28, 0xd2, 0xbd,
  0x20, 0xc1, 0x19, 0xbd, 0xa8, 0xc4, 0xb7, 0x3d, 0x15, 0x97, 0xe9, 0xbe,
  0x47, 0x05, 0xa8, 0x3e, 0xff, 0x0c, 0xaa, 0x3e, 0xf0, 0x6a, 0x9b, 0x3e,
  0x1f, 0x4d, 0x59, 0xbe, 0xd3, 0x33, 0x38, 0xbe, 0x13, 0x6c, 0x1f, 0x3e,
  0xd4, 0x4a, 0x60, 0x3e, 0xba, 0x0c, 0x87, 0x3e, 0x01, 0x29, 0xf2, 0x3e,
  0x5b, 0x65, 0x6d, 0xbe, 0x51, 0xcb, 0x74, 0x3e, 0x3e, 0x22, 0x59, 0x3e,
  0x08, 0x20, 0xb9, 0xbd, 0xbe, 0xf1, 0x0c, 0x3e, 0x5e, 0xe7, 0x70, 0xbd,
  0x1e, 0xfd, 0x96, 0xbe, 0x81, 0x48, 0x28, 0xbe, 0xa3, 0x7f, 0x02, 0x3f,
  0x00, 0x1f, 0x49, 0xbe, 0x98, 0x47, 0x96, 0xbd, 0x39, 0x40, 0x0d, 0xbe,
  0xb3, 0xe8, 0xbd, 0x3c, 0x3b, 0x39, 0x83, 0x3c, 0xd2, 0x2f, 0x10, 0xbd,
  0x6d, 0xdf, 0x63, 0xbf, 0xdc, 0x34, 0x10, 0xbe, 0x81, 0x92, 0xb0, 0xbe,
  0x9e, 0xa9, 0x79, 0xbe, 0x4a, 0xb1, 0xb9, 0xbd, 0x7a, 0x71, 0xd7, 0x3e,
  0x4a, 0x2d, 0xd3, 0x3e, 0x3f, 0x76, 0xb9, 0x3d, 0x35, 0x0e, 0xae, 0xbe,
  0xd3, 0xd6, 0xa8, 0x3d, 0x48, 0x56, 0x12, 0x3d, 0xd8, 0x24, 0x5f, 0xbe,
  0x39, 0xcd, 0xea, 0x3d, 0x31, 0x71, 0xc9, 0x3d, 0x5b, 0xa1, 0xb0, 0xbe,
  0xf9, 0xe3, 0x99, 0xbe, 0x94, 0xb2, 0x88, 0x3d, 0x6c, 0x14, 0x13, 0xbd,
  0x19, 0x55, 0x27, 0xbc, 0xf7, 0x24, 0x81, 0x3d, 0xf0, 0xc7, 0x0e, 0x3d,
  0x95, 0xde, 0xb8, 0xbd, 0xf4, 0xe0, 0xbb, 0x3e, 0x5d, 0x60, 0xbc, 0xbe,
  0x7e, 0xec, 0xae, 0xbd, 0x8f, 0x7b, 0x97, 0xbd, 0x5f, 0x1e, 0x20, 0x3d,
  0xc4, 0x18, 0xd5, 0x3e, 0x1c, 0x7f, 0xe4, 0x3d, 0x7f, 0xbc, 0x85, 0xbd,
  0x75, 0x15, 0x29, 0xbe, 0xae, 0x4e, 0xea, 0xbd, 0x81, 0x4e, 0x86, 0x3e,
  0xef, 0x50, 0xa3, 0x3d, 0x88, 0xef, 0x25, 0xbf, 0x17, 0xdc, 0x8f, 0x3e,
  0x28, 0xf7, 0x7c, 0x3e, 0x04, 0x64, 0x8b, 0x3d, 0x24, 0x27, 0x1e, 0x3e,
  0x01, 0xef, 0xcd, 0xbe, 0x80, 0x2a, 0x95, 0xbb, 0x0b, 0xb3, 0x9c, 0xbe,
  0x82, 0x0d, 0xb0, 0x3d, 0x00, 0x99, 0x82, 0x3e, 0x45, 0xb6, 0x89, 0x3d,
  0x1f, 0x49, 0x92, 0x3d, 0x31, 0x3d, 0x81, 0xbe, 0x2c, 0xc5, 0x0d, 0x3e,
  0xb1, 0xf3, 0xdb, 0x3e, 0xff, 0x08, 0xed, 0xbc, 0x70, 0x99, 0x7d, 0xbe,
  0x9a, 0xe2, 0x9a, 0x3e, 0x50, 0x31, 0x96, 0x3b, 0xee, 0x4e, 0x93, 0xbd,
  0x19, 0xbf, 0x7b, 0x3e, 0x5b, 0x7f, 0x99, 0xbe, 0x98, 0xeb, 0xbd, 0xbd,
  0xc4, 0x26, 0xa8, 0xbe, 0xe7, 0xf3, 0xf7, 0x3c, 0x40, 0x03, 0xe2, 0x3c,
  0x5c, 0xfc, 0x00, 0x3e, 0xc7, 0x17, 0xce, 0x3d, 0x21, 0x42, 0x80, 0xbe,
  0x8e, 0xa5, 0x49, 0xbd, 0x4b, 0xbc, 0x81, 0x3e, 0xde, 0x7e, 0x4a, 0xbd,
  0x5a, 0xbb, 0xb2, 0xbe, 0x87, 0x6c, 0x03, 0x3f, 0xc6, 0x57, 0x11, 0xbd,
  0xa5, 0xe3, 0x99, 0x3b, 0x84, 0xda, 0x15, 0x3e, 0x2e, 0xc5, 0xd0, 0xbe,
  0x54, 0x40, 0x2c, 0xbe, 0x90, 0x96, 0xb6, 0xbe, 0xf8, 0x2a, 0xa0, 0x3d,
  0x9c, 0x16, 0x68, 0x3d, 0xfe, 0x62, 0x74, 0x3d, 0x4a, 0xe5, 0x76, 0xba,
  0xdc, 0xd9, 0xd5, 0xbe, 0x0c, 0xa0, 0x6e, 0xbc, 0xe6, 0x1f, 0x0a, 0x3e,
  0x66, 0xaa, 0xbf, 0x3c, 0x89, 0xc0, 0xc6, 0xbb, 0x90, 0x41, 0xee, 0x3e,
  0xf9, 0x61, 0x48, 0x3e, 0xdd, 0x31, 0x84, 0x3c, 0x3f, 0x50, 0x20, 0x3e,
  0xa4, 0x08, 0x7d, 0xbe, 0x4a, 0x92, 0xcc, 0xbe, 0xe2, 0xc1, 0x9b, 0xbe,
  0x94, 0xe4, 0x39, 0x3d, 0x59, 0x9b, 0xd8, 0xbc, 0xd6, 0x21, 0x76, 0xbb,
  0x3c, 0xf4, 0xd3, 0xbd, 0x22, 0xcc, 0x25, 0xbf, 0x58, 0x0e, 0xd6, 0xbd,
  0xd6, 0xfa, 0x41, 0x3e, 0xa3, 0x4f, 0xb5, 0x3d, 0xfe, 0x77, 0x2d, 0xbe,
  0xd7, 0xa4, 0x1b, 0x3f, 0x0e, 0xd9, 0x60, 0x3e, 0x5d, 0x13, 0xec, 0x3c,
  0x48, 0xa6, 0xa9, 0xbd, 0x92, 0x90, 0x30, 0xb9, 0x25, 0x80, 0x04, 0xbd,
  0x32, 0x77, 0xf8, 0xbd, 0x2a, 0x68, 0xce, 0xbd, 0x0f, 0xa9, 0xc4, 0x3c,
  0x9d, 0x82, 0x03, 0x3e, 0x49, 0xef, 0x1e, 0xba, 0x39, 0x4b, 0xb2, 0xbe,
  0x05, 0x78, 0xe0, 0x3c, 0xe2, 0xfe, 0x29, 0x3e, 0x9f, 0x66, 0xd9, 0xbc,
  0x6c, 0x21, 0x3f, 0xbe, 0x5d, 0x8c, 0x8b, 0xbf, 0x85, 0x3d, 0x05, 0xbe,
  0xc1, 0x5c, 0xfd, 0xbd, 0xda, 0xee, 0x20, 0x3f, 0x7e, 0x5f, 0xc4, 0x3d,
  0x7b, 0x83, 0xa0, 0xbe, 0x10, 0x85, 0x85, 0x3e, 0xff, 0x07, 0x44, 0xbe,
  0x37, 0x4e, 0xa5, 0xbe, 0xef, 0x7b, 0x03, 0x3e, 0x91, 0xaa, 0xcb, 0xbe,
  0x8c, 0x41, 0x81, 0xbd, 0xb1, 0x9b, 0xd1, 0xbe, 0xc1, 0xb8, 0xa9, 0x3d,
  0x5b, 0x48, 0x09, 0xbf, 0x43, 0x15, 0x8b, 0x3c, 0x95, 0x71, 0x9c, 0x3e,
  0x9e, 0x30, 0xb7, 0xbe, 0x6f, 0x2a, 0x25, 0x3f, 0x80, 0x27, 0x31, 0x3f,
  0xb1, 0x84, 0x56, 0x3d, 0xfc, 0x12, 0xfe, 0xbd, 0xf3, 0x7e, 0xf2, 0x3e,
  0x08, 0xdc, 0x2d, 0xbe, 0x45, 0x39, 0xd0, 0xbd, 0x2b, 0x6e, 0xd0, 0xbd,
  0x63, 0xfd, 0x34, 0xbf, 0xbe, 0x00, 0xf4, 0xbb, 0x03, 0x0a, 0x33, 0xbf,
  0xc2, 0x14, 0x82, 0x3d, 0x62, 0x8a, 0x03, 0x3e, 0x1f, 0x28, 0xa0, 0xbe,
  0x5f, 0x4d, 0x67, 0x3e, 0x60, 0x9d, 0x4b, 0x3e, 0xf2, 0x0e, 0x80, 0x3e,
  0x23, 0xf7, 0xec, 0xbb, 0x88, 0x37, 0x95, 0x3d, 0x67, 0x77, 0x70, 0xbe,
  0x9a, 0xf0, 0x4a, 0x3e, 0x23, 0x96, 0xdd, 0xbc, 0x85, 0x79, 0x4a, 0x3e,
  0x8b, 0xee, 0x98, 0x3d, 0xbc, 0xe2, 0xc5, 0xbe, 0x8b, 0x6e, 0x3c, 0xbe,
  0x60, 0x68, 0xf2, 0xbe, 0x90, 0xaf, 0x07, 0x3e, 0x67, 0x0c, 0x31, 0xbe,
  0x0c, 0x12, 0x5f, 0x3d, 0x2b, 0xf9, 0xf4, 0x3d, 0xf8, 0x30, 0x7b, 0x3d,
  0xd0, 0xf4, 0xab, 0x3d, 0xbd, 0x97, 0x0e, 0x3e, 0x3a, 0xb6, 0x01, 0x3d,
  0xe9, 0x54, 0x46, 0xbe, 0x71, 0x0b, 0xa0, 0x3e, 0xb0, 0x9c, 0xb9, 0xbe,
  0x6b, 0x53, 0x17, 0x3c, 0x93, 0x6e, 0x59, 0x3d, 0xc9, 0xd2, 0xd1, 0xbe,
  0x8c, 0xac, 0x13, 0xbe, 0xba, 0x92, 0x34, 0xbe, 0xdf, 0xb0, 0xa5, 0x3e,
  0x37, 0xdb, 0x30, 0x3d, 0xff, 0x5a, 0xbc, 0x3d, 0xad, 0x8c, 0x99, 0x3e,
  0x86, 0x78, 0x5d, 0x3d, 0x5c, 0x20, 0xf2, 0x3c, 0x32, 0xed, 0x66, 0x3e,
  0x50, 0xf0, 0x47, 0x3d, 0x0b, 0x7e, 0x72, 0xbe, 0xc2, 0xba, 0x98, 0x3e,
  0xf9, 0xfc, 0x4c, 0xbe, 0xd9, 0xa8, 0x81, 0x3c, 0xcd, 0x8f, 0x8f, 0xbd,
  0x21, 0xe6, 0xc2, 0xbe, 0x5d, 0x77, 0x07, 0xbe, 0xa8, 0xfc, 0x8d, 0xbe,
  0xa7, 0xea, 0x47, 0x3e, 0x35, 0x5d, 0x7f, 0xbd, 0xde, 0x3e, 0x41, 0x3d,
  0xa8, 0xaf, 0x1a, 0x3e, 0x0b, 0x19, 0xa6, 0x3e, 0xca, 0x24, 0x51, 0x3e,
  0x40, 0x84, 0xea, 0x3e, 0xa5, 0xb6, 0x12, 0x3d, 0xbd, 0xb0, 0x7a, 0xbe,
  0x75, 0xc5, 0x8f, 0x3e, 0x9c, 0x64, 0x70, 0xbe, 0x44, 0x0f, 0x83, 0xbd,
  0x5c, 0x06, 0x28, 0xbc, 0x0c, 0x48, 0xf5, 0xbe, 0xee, 0x3c, 0x88, 0xbe,
  0x4b, 0x2f, 0xb9, 0xbe, 0xa5, 0x12, 0x90, 0x3e, 0xd2, 0x07, 0x2a, 0xbe,
  0x02, 0x58, 0x1c, 0x3e, 0x4b, 0xe1, 0xbf, 0x3e, 0x14, 0x4f, 0x99, 0x3e,
  0xb7, 0x08, 0x8b, 0x3d, 0x20, 0xb3, 0xa2, 0x3d, 0x12, 0x47, 0xda, 0x3c,
  0x38, 0x43, 0x75, 0xbd, 0xab, 0x41, 0x98, 0x3e, 0xd8, 0x81, 0x81, 0xbe,
  0xc8, 0x59, 0xe8, 0x3b, 0x17, 0x19, 0x40, 0x3e, 0xaf, 0x3a, 0x01, 0x3e,
  0xa0, 0xa1, 0x07, 0xbe, 0x6d, 0xad, 0x04, 0xbe, 0x78, 0x98, 0x25, 0xbd,
  0xca, 0x0b, 0xae, 0xbd, 0xca, 0x9d, 0xed, 0x3c, 0x46, 0x77, 0x2a, 0x3e,
  0x3a, 0x53, 0x65, 0x3e, 0x5f, 0x21, 0xa7, 0xbc, 0xed, 0x99, 0x8a, 0xbd,
  0x5c, 0x97, 0x20, 0xbe, 0xf8, 0x74, 0x86, 0xbe, 0x55, 0x53, 0xdb, 0xbc,
  0x3d, 0x63, 0x0b, 0xbe, 0xa3, 0x06, 0xda, 0xbd, 0xb0, 0x6b, 0x6f, 0xbe,
  0x7f, 0xf4, 0x97, 0x3d, 0xe7, 0x77, 0x98, 0x3d, 0xe3, 0x5b, 0x72, 0x3d,
  0x02, 0x80, 0x4c, 0x3d, 0x23, 0x12, 0x2c, 0xbd, 0x91, 0x08, 0x6e, 0xbe,
  0x45, 0x1b, 0x30, 0xbc, 0x4d, 0xa9, 0xe8, 0xbd, 0x5d, 0x3b, 0x85, 0xbe,
  0x74, 0x44, 0x0e, 0xbd, 0x4d, 0x86, 0x92, 0xbc, 0x77, 0x1a, 0xca, 0xbd,
  0xf4, 0x19, 0xfb, 0xbc, 0x4d, 0x33, 0xa7, 0xbd, 0xfd, 0x87, 0x41, 0x3d,
  0x83, 0xbc, 0x47, 0xbd, 0x83, 0xd8, 0x76, 0x3d, 0xb4, 0xb5, 0x25, 0xbe,
  0x3f, 0xb0, 0x8d, 0x3c, 0x8d, 0x7b, 0x50, 0x3d, 0x57, 0xfa, 0x15, 0x3e,
  0x00, 0x10, 0x05, 0xbd, 0x0c, 0xe8, 0x6d, 0xbd, 0x24, 0x97, 0x5f, 0xbe,
  0x2c, 0x01, 0x90, 0xbe, 0x0b, 0x3c, 0x2b, 0xbe, 0xdb, 0x78, 0x2b, 0xbe,
  0x10, 0x6d, 0x89, 0xbe, 0x2d, 0xd1, 0x71, 0xbd, 0x03, 0x92, 0x0d, 0x3c,
  0xd3, 0x7d, 0xd0, 0xbc, 0x74, 0x3a, 0x72, 0x3d, 0xe7, 0xd9, 0xa6, 0xbe,
  0x8c, 0xcd, 0x92, 0xbe, 0x7e, 0x67, 0x0c, 0x3e, 0x00, 0x51, 0x26, 0x3e,
  0xc4, 0x92, 0x1f, 0xbe, 0x5e, 0x1d, 0x80, 0xbe, 0xe0, 0x6b, 0x37, 0xbe,
  0x4a, 0x49, 0x1f, 0xbe, 0xe8, 0xe5, 0x64, 0xbe, 0xb0, 0xdf, 0xa5, 0x3d,
  0xdb, 0xe9, 0x0f, 0xbe, 0x7a, 0x55, 0xa3, 0xbd, 0x1a, 0xff, 0xe2, 0xbd,
  0xdf, 0x82, 0xfa, 0x3d, 0x05, 0x9b, 0xcb, 0x3c, 0xf9, 0xca, 0x14, 0xbd,
  0x82, 0x17, 0x85, 0xbe, 0x4a, 0xc1, 0x95, 0x3c, 0x7e, 0x22, 0xb5, 0x3d,
  0x5f, 0x78, 0x3f, 0xbd, 0x5a, 0x09, 0x61, 0xbe, 0xdb, 0x38, 0xaf, 0xbd,
  0xc6, 0xe7, 0x35, 0xbe, 0x14, 0xca, 0xf5, 0xbc, 0xc7, 0x3c, 0x43, 0xbd,
  0xf1, 0xc0, 0xe9, 0x3d, 0x25, 0x19, 0x20, 0xbb, 0x1d, 0xb0, 0xf2, 0xbd,
  0x90, 0xd4, 0x38, 0x3d, 0x3b, 0x6e, 0x3b, 0xbe, 0x1e, 0x37, 0x04, 0x3e,
  0x29, 0xa8, 0x5c, 0xbd, 0x91, 0x14, 0xfd, 0xbd, 0x90, 0x3d, 0x7c, 0xbd,
  0xa4, 0x93, 0x6e, 0xbd, 0x8f, 0xc8, 0xc1, 0xbd, 0xcc, 0x1c, 0x21, 0x3e,
  0x2e, 0x66, 0x88, 0xbe, 0x48, 0x84, 0xdb, 0xbd, 0x24, 0x2f, 0xfb, 0xbd,
  0x8d, 0x8c, 0x3c, 0xbc, 0x41, 0xce, 0xe5, 0xbd, 0x95, 0x28, 0xc3, 0xbc,
  0x3c, 0x93, 0x70, 0xbe, 0x26, 0x7d, 0x52, 0xbe, 0x0b, 0x39, 0x87, 0xbe,
  0xcf, 0xab, 0x3d, 0xbe, 0x72, 0x91, 0xd8, 0xbb, 0x2f, 0xc6, 0x9a, 0x3d,
  0x75, 0x4e, 0x62, 0xbe, 0x9b, 0x01, 0x26, 0x3e, 0x71, 0x3e, 0xaa, 0x3d,
  0xeb, 0x89, 0x04, 0x3e, 0x2e, 0x4e, 0x80, 0xbe, 0xf5, 0x9a, 0x1d, 0xbe,
  0x88, 0x90, 0x70, 0x3d, 0x30, 0x51, 0x1c, 0x3d, 0xb6, 0x7f, 0x5b, 0xbe,
  0xb6, 0xeb, 0x9d, 0xbe, 0x69, 0x95, 0x11, 0xbe, 0x52, 0x4c, 0xaf, 0xbd,
  0xc0, 0xf7, 0xa9, 0x3d, 0x32, 0xff, 0x6b, 0xbe, 0x80, 0xe7, 0x8a, 0x3c,
  0x03, 0x41, 0x9d, 0xbe, 0xf1, 0x51, 0x3b, 0xbe, 0x0e, 0x6f, 0x13, 0xbe,
  0x77, 0x12, 0xd0, 0xbd, 0xfe, 0xae, 0xb1, 0x3d, 0x73, 0x1f, 0xf8, 0xbc,
  0xb8, 0x49, 0x7c, 0xbe, 0x21, 0x75, 0xae, 0x3c, 0xf9, 0x58, 0xcf, 0xbd,
  0xb7, 0xb0, 0x9d, 0x3c, 0x83, 0x31, 0x8c, 0xbd, 0x57, 0x1d, 0x33, 0x3e,
  0x71, 0xe8, 0x9a, 0xbd, 0x77, 0xbf, 0x92, 0xbd, 0xd6, 0xbf, 0x35, 0x3e,
  0x01, 0xb4, 0x8f, 0xbc, 0xce, 0xe4, 0x29, 0x3e, 0xd0, 0x9c, 0x90, 0x3d,
  0x72, 0x03, 0x70, 0x3e, 0xfa, 0x51, 0xff, 0xbc, 0x0d, 0x6a, 0x07, 0x3e,
  0xe0, 0xe9, 0x2b, 0xbe, 0x95, 0x74, 0xae, 0xbd, 0x3f, 0xb3, 0x4d, 0xbd,
  0x24, 0x55, 0xc0, 0xbe, 0x6f, 0xc2, 0x9e, 0xbe, 0xfd, 0xb3, 0x8e, 0x3b,
  0x71, 0x8d, 0x26, 0xbb, 0x47, 0x96, 0xd5, 0xbe, 0x71, 0x37, 0xf0, 0x3d,
  0xb8, 0x3e, 0x82, 0x3e, 0x29, 0xa6, 0x53, 0x3b, 0x39, 0xfb, 0x01, 0xbc,
  0x50, 0x86, 0xc4, 0xbb, 0x99, 0x50, 0x50, 0x3e, 0x70, 0x2e, 0x52, 0xbd,
  0x02, 0xd5, 0x59, 0xbd, 0x59, 0xd4, 0x9f, 0xbd, 0xff, 0xf5, 0xe0, 0xbc,
  0xe7, 0x1c, 0xeb, 0x3d, 0x38, 0xa5, 0x0a, 0xbf, 0x8d, 0xea, 0x37, 0x3e,
  0x7a, 0x40, 0xa3, 0x3b, 0x23, 0xe4, 0x0d, 0xbd, 0xbc, 0x8a, 0x8d, 0xbe,
  0x4a, 0xf1, 0xdf, 0x3d, 0x55, 0xb5, 0x20, 0x3e, 0xf7, 0x45, 0x28, 0x3e,
  0x11, 0x61, 0xfc, 0xbd, 0x70, 0x64, 0x32, 0x3e, 0x15, 0x5a, 0xab, 0x3d,
  0x18, 0x64, 0x12, 0x3e, 0x7a, 0x35, 0x5c, 0x3e, 0x9b, 0x65, 0xeb, 0x3d,
  0x98, 0x63, 0xc8, 0xbd, 0x4f, 0xdd, 0x9c, 0x3e, 0x37, 0xb6, 0xad, 0xbe,
  0x31, 0x46, 0xd9, 0xbd, 0x83, 0x48, 0x24, 0xbd, 0x7d, 0x70, 0xfd, 0x3d,
  0xc3, 0x0a, 0xfb, 0xbd, 0xdf, 0x81, 0x01, 0xbe, 0xca, 0x07, 0xfa, 0x3d,
  0x35, 0x21, 0x4e, 0xbd, 0x94, 0x38, 0x89, 0xbd, 0x93, 0xf4, 0x29, 0x3e,
  0x30, 0xa0, 0xac, 0xbc, 0x20, 0x69, 0xdf, 0x3d, 0xd1, 0x79, 0xdc, 0x3e,
  0x0f, 0x4d, 0x25, 0x3e, 0x59, 0x95, 0x45, 0xba, 0x18, 0xf0, 0xba, 0x3e,
  0xa1, 0xa8, 0x88, 0xbe, 0xe1, 0x5a, 0x6e, 0xbe, 0xd3, 0x15, 0x82, 0xbd,
  0xed, 0x85, 0x85, 0x3e, 0xfa, 0x6a, 0xa9, 0xbe, 0x2f, 0x1c, 0xad, 0xbd,
  0xd0, 0xf6, 0x3f, 0x3e, 0xf6, 0x9b, 0xaf, 0x3d, 0x2c, 0xe7, 0x10, 0xbd,
  0x71, 0x4c, 0x98, 0x3d, 0x76, 0x6d, 0x34, 0x3e, 0x9b, 0x4a, 0x37, 0x3d,
  0x08, 0xf7, 0x83, 0x3e, 0xde, 0x0a, 0xaf, 0x3c, 0xd2, 0x5c, 0x43, 0xbe,
  0xf1, 0x48, 0xa4, 0x3c, 0xca, 0xef, 0xc5, 0xbe, 0x7e, 0x36, 0xd9, 0xbe,
  0xd3, 0x45, 0x00, 0xbd, 0xa4, 0xa7, 0x34, 0xbe, 0xf3, 0x67, 0x7b, 0xbe,
  0x0c, 0xbe, 0x74, 0xbe, 0xff, 0x46, 0xa0, 0xbd, 0x9c, 0xd2, 0x4e, 0x3e,
  0xe4, 0x1d, 0x06, 0xbe, 0x56, 0xb4, 0x19, 0x3e, 0x72, 0x26, 0x67, 0x3d,
  0x81, 0x4e, 0x11, 0xbd, 0xe7, 0xe0, 0x8c, 0x3d, 0x7b, 0xf3, 0x58, 0xbe,
  0xb1, 0x8f, 0x58, 0x39, 0x12, 0x04, 0x45, 0xbd, 0x19, 0x66, 0xd0, 0xbe,
  0xee, 0x67, 0x03, 0xbe, 0x3d, 0xd9, 0x2a, 0x3d, 0xbc, 0x8d, 0x9e, 0xbd,
  0x0e, 0x2d, 0xf1, 0xbd, 0x8a, 0x8f, 0x29, 0xbe, 0xf1, 0xd5, 0x3e, 0xbd,
  0x4e, 0xf9, 0x06, 0x3e, 0x79, 0xa1, 0xfd, 0xbd, 0x28, 0x73, 0xde, 0x3d,
  0x41, 0x3a, 0x73, 0xbd, 0x56, 0xc4, 0x21, 0xbd, 0xa5, 0x96, 0xa2, 0x3d,
  0x1a, 0x1d, 0x1a, 0xbc, 0x5d, 0x4a, 0x59, 0xbe, 0x72, 0xc9, 0x37, 0x3e,
  0x68, 0x89, 0xfe, 0xbe, 0x2e, 0xb8, 0xb9, 0x3e, 0x85, 0xd0, 0x57, 0xbe,
  0x05, 0xee, 0xf6, 0xbd, 0x5e, 0xc3, 0xbd, 0xbd, 0xa9, 0x00, 0x26, 0xbd,
  0xff, 0xb5, 0x97, 0xbd, 0x65, 0x5b, 0x8a, 0x3e, 0xd5, 0x6c, 0xa8, 0x3c,
  0xbf, 0x29, 0x83, 0xbd, 0x53, 0xc1, 0xc5, 0xbd, 0x16, 0xe3, 0x08, 0x3f,
  0xc3, 0x5c, 0x96, 0x3d, 0x93, 0x33, 0x4e, 0xbe, 0x71, 0xd4, 0xff, 0xbd,
  0xd2, 0xdc, 0x4f, 0x3e, 0x90, 0x5e, 0x8b, 0x3e, 0xc8, 0x88, 0x4c, 0x3f,
  0xf2, 0xce, 0xf5, 0xbd, 0x5a, 0x92, 0xe8, 0xbc, 0xb9, 0x63, 0xe6, 0xbc,
  0xb9, 0xc1, 0x86, 0x3d, 0xdd, 0x6f, 0x51, 0x3e, 0xbc, 0xc0, 0x27, 0xbe,
  0x48, 0x95, 0xd3, 0xbd, 0xcb, 0xa9, 0x3a, 0xbd, 0xe4, 0x32, 0x3c, 0xbe,
  0x07, 0xa8, 0xe8, 0x3e, 0x60, 0xc4, 0xae, 0x3d, 0xa8, 0x90, 0x56, 0xbd,
  0xbc, 0xcd, 0x99, 0x3e, 0xb4, 0x7c, 0x0e, 0x3f, 0xfa, 0x67, 0xa8, 0x3c,
  0x25, 0xc8, 0xfa, 0x3e, 0x05, 0x38, 0x48, 0xbe, 0x26, 0x43, 0xb5, 0x3d,
  0x9a, 0x10, 0xb5, 0xbe, 0xdc, 0x9c, 0x3b, 0xbe, 0xfa, 0xe8, 0x17, 0x3d,
  0xa5, 0x4e, 0x53, 0xbc, 0x7b, 0x93, 0xac, 0xbe, 0xfc, 0x51, 0x23, 0x3d,
  0x6c, 0xd4, 0x14, 0xbe, 0x25, 0x1b, 0x05, 0x3f, 0x38, 0x2a, 0xf9, 0x3d,
  0xa2, 0x34, 0x51, 0xbe, 0x9c, 0x8e, 0x3d, 0x3e, 0x82, 0x4b, 0xba, 0x3e,
  0x09, 0xdf, 0x05, 0x3e, 0x0c, 0x25, 0xb3, 0x3e, 0xbb, 0x62, 0xb8, 0xbe,
  0xa9, 0xe4, 0x9e, 0x3d, 0x7e, 0x01, 0x0a, 0xbe, 0x29, 0x67, 0xe9, 0xbd,
  0x17, 0x96, 0xdf, 0xbc, 0x45, 0xd9, 0x35, 0xbe, 0x1d, 0x13, 0x6c, 0xbe,
  0x41, 0x7a, 0x99, 0x3d, 0xe4, 0x18, 0x60, 0xbd, 0xbc, 0xfc, 0x0f, 0x3f,
  0x84, 0xc1, 0x9d, 0x3d, 0x93, 0x61, 0x49, 0xbe, 0xce, 0xa0, 0xd9, 0x3e,
  0x12, 0xe6, 0x31, 0x3e, 0x72, 0xde, 0xd2, 0x3d, 0x2c, 0x0b, 0xc5, 0x3e,
  0xbc, 0x44, 0x47, 0xbd, 0x4c, 0xe8, 0xcb, 0x3c, 0xd9, 0xfb, 0xe6, 0xbc,
  0xe3, 0x46, 0xd1, 0xbc, 0x96, 0x33, 0x16, 0x3e, 0x7d, 0xe4, 0x98, 0xbd,
  0xa4, 0x6e, 0xa1, 0xbe, 0x13, 0xff, 0x09, 0x3c, 0xd1, 0x0e, 0x35, 0xbe,
  0xf3, 0x10, 0x7f, 0x3e, 0x10, 0xa9, 0x9f, 0xbd, 0x31, 0xae, 0xc6, 0xbd,
  0x15, 0x43, 0x85, 0x3e, 0x72, 0x19, 0xe9, 0x3e, 0x40, 0x0e, 0x06, 0xbe,
  0xe3, 0x3f, 0x87, 0x3e, 0x30, 0x01, 0x96, 0xbe, 0xdc, 0x8a, 0xd6, 0xbd,
  0x44, 0x19, 0x1b, 0xbd, 0x6b, 0x55, 0x84, 0xbe, 0x2f, 0x3d, 0xdb, 0x3d,
  0x79, 0x50, 0xe6, 0xbd, 0xbb, 0x49, 0x1b, 0xbe, 0xb9, 0x8a, 0x6a, 0xbe,
  0x5a, 0xa3, 0xfe, 0xbd, 0x7e, 0xc8, 0x7c, 0x3e, 0xa6, 0x2e, 0x4f, 0xbe,
  0xeb, 0x35, 0x68, 0x3b, 0x07, 0x3b, 0xc8, 0x3e, 0x44, 0xdc, 0xb5, 0x3e,
  0x29, 0x51, 0xc8, 0x3d, 0xf1, 0x8c, 0xc1, 0x3e, 0xe4, 0xd1, 0xa4, 0xbe,
  0xfb, 0x95, 0x2b, 0x3d, 0x20, 0x06, 0x3d, 0xbd, 0x77, 0x0f, 0xc9, 0xbc,
  0x5a, 0x93, 0x1c, 0x3e, 0x50, 0x8d, 0x2a, 0x3e, 0x27, 0x66, 0xb8, 0xbc,
  0x14, 0xdc, 0x79, 0xbe, 0xc8, 0x29, 0xbb, 0xbe, 0xbf, 0x4b, 0xde, 0xbd,
  0xaa, 0x78, 0xd1, 0xbd, 0x78, 0xd6, 0x9f, 0xbd, 0xfe, 0xae, 0x9a, 0xbe,
  0x91, 0x28, 0x0f, 0xbe, 0x16, 0x70, 0x06, 0xbe, 0x2d, 0x2e, 0x67, 0x3d,
  0xce, 0xc9, 0x1a, 0xbe, 0x05, 0xf1, 0x80, 0x3e, 0x5c, 0xae, 0x77, 0x3b,
  0x30, 0x0f, 0xed, 0xbc, 0xec, 0x18, 0xd6, 0xbe, 0x70, 0x61, 0xe5, 0xbd,
  0x7a, 0x7e, 0x22, 0x3d, 0xe0, 0xe1, 0x23, 0x3e, 0x30, 0x7a, 0x48, 0x3d,
  0x0e, 0x8b, 0x1e, 0x3e, 0xc2, 0x05, 0x71, 0xbe, 0xc8, 0x61, 0x6f, 0xbd,
  0x20, 0x17, 0x3d, 0xbd, 0xe6, 0x30, 0x23, 0xbe, 0x20, 0xbf, 0xb0, 0x3e,
  0x62, 0x5a, 0xab, 0x3d, 0x6c, 0x4b, 0x8c, 0xbe, 0x40, 0x7b, 0xce, 0x3e,
  0x03, 0xbe, 0x8b, 0xbe, 0x24, 0xc0, 0x2f, 0xbd, 0x84, 0x5a, 0xe7, 0xbd,
  0x9a, 0x2b, 0xc8, 0xbd, 0xf4, 0x87, 0xbb, 0xbd, 0x6b, 0xe0, 0x0f, 0xbc,
  0x61, 0x10, 0x24, 0x3e, 0xd4, 0x78, 0x78, 0xbc, 0xb1, 0xe2, 0xe0, 0x3d,
  0x53, 0x01, 0x79, 0x3e, 0x1e, 0xbb, 0x36, 0xbc, 0x64, 0xa9, 0xbb, 0xbe,
  0x73, 0xff, 0x23, 0x3e, 0x87, 0x49, 0xdd, 0x3c, 0x15, 0x67, 0x69, 0xbe,
  0xa1, 0x7d, 0x62, 0x3c, 0x31, 0xe5, 0x4b, 0xbd, 0xb7, 0x4e, 0x65, 0xbe,
  0xea, 0x93, 0x68, 0xbe, 0x23, 0xe1, 0xa4, 0xbd, 0x3c, 0x3d, 0xde, 0xbd,
  0xb3, 0x8a, 0x2c, 0x3e, 0x08, 0xaa, 0x44, 0xbe, 0x21, 0xab, 0xac, 0xbe,
  0xf4, 0xaa, 0x45, 0xbe, 0x9a, 0xd0, 0x02, 0x3e, 0xe1, 0x32, 0x2a, 0x3e,
  0x02, 0xad, 0xed, 0xbe, 0x8f, 0xa3, 0x59, 0xbe, 0xfc, 0x74, 0x3d, 0x3e,
  0x62, 0x28, 0x07, 0xbf, 0xb9, 0x55, 0x2f, 0x3c, 0x13, 0xeb, 0x5f, 0xbe,
  0xa2, 0xe6, 0x5b, 0xbe, 0xa6, 0x1a, 0xd5, 0xbe, 0x30, 0xbd, 0xdf, 0x3c,
  0xcc, 0xce, 0x1e, 0xbe, 0x80, 0xca, 0x2e, 0x3e, 0x09, 0xdd, 0x9d, 0xbd,
  0x06, 0x88, 0x7d, 0x3d, 0x73, 0xd7, 0x8c, 0xbe, 0xa0, 0xa1, 0x59, 0xbd,
  0xef, 0x8f, 0xc8, 0xbd, 0x25, 0x4f, 0x9e, 0xbe, 0x88, 0x25, 0xe2, 0xbe,
  0x75, 0x04, 0xa5, 0xbc, 0x22, 0x21, 0xd8, 0xbe, 0x09, 0x2c, 0x94, 0x3e,
  0x69, 0x7d, 0xb0, 0xbd, 0x36, 0x72, 0x3e, 0xbd, 0x77, 0x1a, 0xdd, 0xbe,
  0xb5, 0x4c, 0x44, 0x3c, 0xa4, 0x5b, 0x3b, 0x3e, 0x15, 0xfc, 0x6c, 0x3e,
  0x4d, 0x3a, 0x01, 0xbd, 0xbc, 0x96, 0xcd, 0x3d, 0xd4, 0x1f, 0x0a, 0xbe,
  0x33, 0x54, 0x10, 0x3e, 0xe0, 0x30, 0x0e, 0xbe, 0x70, 0x16, 0xdd, 0xbe,
  0xb2, 0x68, 0x04, 0xbd, 0x96, 0x43, 0xc8, 0x3d, 0xe7, 0xac, 0x05, 0xbf,
  0xe3, 0xfd, 0x5b, 0x3e, 0x0d, 0xbf, 0x68, 0x3c, 0xb2, 0x28, 0x8e, 0x3e,
  0x48, 0xe6, 0x00, 0xbf, 0xb1, 0x13, 0x84, 0xbe, 0xf8, 0x72, 0x9d, 0x3e,
  0x4b, 0xbd, 0x68, 0x3e, 0x87, 0x6a, 0x0c, 0x3e, 0xdb, 0x6c, 0xe8, 0x3c,
  0x3f, 0x28, 0x8e, 0xbe, 0x3e, 0x0c, 0x9f, 0x3e, 0x8c, 0xb7, 0x6d, 0xbe,
  0x72, 0x27, 0x9b, 0xbe, 0x5b, 0xf4, 0x8a, 0x3e, 0xe3, 0x71, 0x32, 0xbd,
  0xfe, 0x27, 0x04, 0xbf, 0xf9, 0x14, 0xc1, 0x3d, 0xb2, 0x8a, 0x63, 0x3e,
  0xcb, 0xbb, 0x9f, 0x3e, 0x03, 0x98, 0x86, 0xbd, 0x97, 0x24, 0xea, 0x3d,
  0xd9, 0x30, 0x3a, 0x3d, 0x4d, 0xe1, 0x8b, 0x3e, 0xf4, 0x0f, 0xee, 0x3c,
  0x62, 0x7e, 0xef, 0xbd, 0x93, 0x8d, 0x97, 0x3b, 0xcc, 0x4e, 0xb9, 0xbe,
  0xfe, 0xca, 0x69, 0xbf, 0x1b, 0x18, 0x36, 0xbe, 0xb4, 0x82, 0xe8, 0x3e,
  0xa7, 0xab, 0x2a, 0xbe, 0x15, 0xad, 0x90, 0xbd, 0xca, 0x8b, 0x14, 0x3e,
  0x74, 0x53, 0x8e, 0xbb, 0x59, 0x23, 0x49, 0xbe, 0x27, 0x4b, 0xab, 0x3e,
  0x46, 0x2a, 0x10, 0xbd, 0x16, 0xb1, 0x38, 0x3c, 0x47, 0x4d, 0x0d, 0x3e,
  0xf8, 0xbf, 0x83, 0x3e, 0x10, 0x93, 0x68, 0x3e, 0x5d, 0xfb, 0x81, 0x3e,
  0x9a, 0x78, 0xd1, 0xbd, 0x13, 0xde, 0x8e, 0xbd, 0xa2, 0xc0, 0x23, 0x3d,
  0x6e, 0x4e, 0x09, 0x3d, 0xbe, 0x53, 0xa4, 0x3c, 0x8b, 0x73, 0xf7, 0xbd,
  0x96, 0xd1, 0xf0, 0x3d, 0x77, 0xd5, 0x01, 0xbf, 0x4b, 0xd2, 0x36, 0xbe,
  0x2f, 0xfe, 0x09, 0x3e, 0xe9, 0x0d, 0x73, 0x3e, 0x97, 0x05, 0xde, 0xbc,
  0xdd, 0xb9, 0x80, 0x3e, 0x1c, 0x73, 0x81, 0x3e, 0x03, 0x78, 0x3f, 0xbe,
  0x1d, 0x8b, 0x6c, 0x3d, 0x4f, 0x34, 0xbd, 0x3d, 0x2f, 0x2f, 0x0c, 0xbe,
  0x18, 0xa4, 0x4f, 0xbe, 0x2e, 0x70, 0x1f, 0xbf, 0x3b, 0x42, 0x82, 0x3e,
  0xdd, 0xb7, 0xea, 0xbc, 0xf3, 0x4d, 0x36, 0xbd, 0x50, 0xa6, 0xbd, 0xbe,
  0xc3, 0xe5, 0x5f, 0xbe, 0xfe, 0x32, 0xd1, 0x3d, 0x70, 0x94, 0x8c, 0x3e,
  0x0b, 0xc3, 0xe6, 0xbd, 0x17, 0xff, 0x64, 0x3e, 0xc9, 0x5c, 0x98, 0x3e,
  0xcf, 0x47, 0x56, 0x3e, 0xcb, 0x5e, 0x80, 0x3e, 0x38, 0xbd, 0x51, 0x3e,
  0xe3, 0xfb, 0x87, 0xbc, 0x78, 0x14, 0xea, 0x3e, 0xb5, 0xf7, 0x9f, 0xbe,
  0x4f, 0x27, 0x9c, 0x3c, 0x1c, 0x61, 0x3b, 0x3d, 0x4b, 0x40, 0x12, 0xbd,
  0x1d, 0x2e, 0xfb, 0xbe, 0xbc, 0xd8, 0x80, 0xbe, 0x35, 0x7c, 0x07, 0x3e,
  0xcb, 0x08, 0x66, 0x3d, 0x91, 0x86, 0x9a, 0xbd, 0x61, 0x33, 0x65, 0x3e,
  0xfd, 0xc2, 0x03, 0x3e, 0xdb, 0xd4, 0xe4, 0xbd, 0x4a, 0xed, 0x79, 0x3e,
  0x41, 0xf2, 0x0d, 0x3e, 0x79, 0x97, 0x52, 0xbe, 0x04, 0xc8, 0x4d, 0x3e,
  0x95, 0x80, 0x84, 0xbe, 0x96, 0x28, 0xed, 0xbd, 0xb0, 0xe9, 0x00, 0x3d,
  0x97, 0xe1, 0x3c, 0x3e, 0x36, 0x1c, 0x01, 0xbf, 0xc2, 0x75, 0x28, 0xbe,
  0xae, 0xe6, 0xaa, 0x3c, 0x67, 0x2d, 0xec, 0x3d, 0xff, 0x14, 0xce, 0xbc,
  0xd3, 0x92, 0x0f, 0x3e, 0x4e, 0xad, 0x5c, 0x3e, 0xc2, 0x37, 0x40, 0xbe,
  0x4e, 0x83, 0xa7, 0x3e, 0x12, 0xbf, 0x27, 0x3e, 0x6a, 0xf9, 0x2d, 0xbe,
  0xbe, 0x9b, 0x5b, 0x3e, 0xe7, 0x87, 0x8b, 0xbe, 0x0a, 0x79, 0xf0, 0xbe,
  0x77, 0x26, 0xf9, 0xbc, 0x9e, 0x9f, 0xd3, 0x3d, 0x53, 0x27, 0xea, 0xbe,
  0x0f, 0x4b, 0x9b, 0xbe, 0x9f, 0x76, 0x69, 0x3e, 0x3f, 0xc4, 0x7c, 0x3e,
  0x79, 0xf8, 0x0f, 0xbe, 0xec, 0xd5, 0xe6, 0x3d, 0x83, 0x82, 0x8f, 0xbe,
  0xc8, 0x7c, 0x18, 0xbf, 0x5a, 0xe0, 0x2b, 0x3e, 0x37, 0x4f, 0x32, 0x3d,
  0x37, 0x6e, 0xee, 0xbd, 0xa6, 0x39, 0xc4, 0x3d, 0xf6, 0x59, 0x84, 0xbe,
  0xb3, 0x47, 0x7e, 0xbe, 0x04, 0xf8, 0x4b, 0xbc, 0xc9, 0x2e, 0xa3, 0xbc,
  0xc2, 0x02, 0x8b, 0xbe, 0xb4, 0x6c, 0xb4, 0x3d, 0x1e, 0xa3, 0x2a, 0x3e,
  0x5a, 0x93, 0x0a, 0xbe, 0xb6, 0x43, 0x49, 0xbe, 0xd6, 0xae, 0xaf, 0x3d,
  0x90, 0x44, 0x1b, 0xbd, 0xb3, 0x6d, 0x37, 0xbd, 0xdd, 0x0e, 0xdb, 0x3d,
  0x0b, 0xfc, 0x47, 0x3c, 0x5f, 0x2e, 0xf2, 0x3d, 0xbe, 0xaa, 0x21, 0x3e,
  0x0f, 0xb0, 0x21, 0xbc, 0xba, 0xac, 0x2a, 0x3b, 0x91, 0x66, 0x9b, 0xbe,
  0xa2, 0x30, 0x70, 0xbe, 0x36, 0xdf, 0x86, 0xbd, 0x6c, 0xf7, 0x26, 0xbe,
  0x79, 0x49, 0xaf, 0x3d, 0x4f, 0x48, 0x2d, 0xbe, 0x2b, 0xa4, 0x85, 0xbe,
  0x49, 0x0c, 0x00, 0xbe, 0xc8, 0xd6, 0xf5, 0xbd, 0x0c, 0x5e, 0xe4, 0x3d,
  0xf2, 0x0c, 0x15, 0xbc, 0xac, 0x0d, 0x9f, 0xbe, 0x0d, 0xee, 0x20, 0xbe,
  0xc1, 0xbf, 0x0b, 0xbe, 0x0b, 0x4e, 0xc1, 0x3c, 0x0c, 0xbe, 0xc8, 0x3d,
  0x41, 0x51, 0x80, 0x3d, 0x13, 0xa9, 0xa3, 0x3c, 0xf3, 0xd0, 0xa4, 0x3d,
  0x45, 0x25, 0x8b, 0xbe, 0x8c, 0xb7, 0x7f, 0x3d, 0x11, 0x0d, 0x30, 0xbe,
  0x80, 0xb2, 0xd7, 0xbd, 0xf4, 0xd0, 0x27, 0xbe, 0x54, 0x90, 0xa7, 0x3c,
  0xb8, 0x35, 0xf8, 0xbd, 0xd3, 0x9b, 0x3c, 0x3d, 0x17, 0x0d, 0xde, 0xbd,
  0x6e, 0xa3, 0x6b, 0xbe, 0x2e, 0x3e, 0x32, 0xbe, 0x29, 0x30, 0x3a, 0xbb,
  0x14, 0x16, 0x68, 0xbc, 0x80, 0xda, 0xc4, 0xbd, 0x3e, 0x9e, 0x6a, 0xbe,
  0x07, 0x49, 0x78, 0xbd, 0xeb, 0x95, 0x38, 0x3c, 0x07, 0xc8, 0xab, 0xbd,
  0x3f, 0x22, 0x84, 0xbe, 0xdb, 0xed, 0x2b, 0xbe, 0xfe, 0x95, 0x7f, 0xbe,
  0x77, 0xbf, 0x1f, 0xbd, 0xf6, 0x72, 0x9c, 0x3d, 0x95, 0x77, 0x8e, 0xbd,
  0xfc, 0x0f, 0x29, 0x3d, 0x66, 0x22, 0x9a, 0x3d, 0x1e, 0x08, 0x92, 0x3b,
  0xa9, 0xcb, 0x25, 0xbe, 0xb7, 0x5e, 0xe1, 0xbd, 0x16, 0x0b, 0x95, 0x3d,
  0x54, 0x5c, 0xea, 0xbc, 0x7e, 0x50, 0xe2, 0xbd, 0xaa, 0x47, 0x52, 0xbe,
  0xf6, 0xc7, 0x74, 0xbe, 0x4c, 0xb1, 0xe9, 0xbb, 0x5b, 0xb0, 0x99, 0x3c,
  0x3d, 0xb9, 0xb9, 0x3d, 0x13, 0xbe, 0x38, 0xbe, 0x91, 0xe8, 0x21, 0xbe,
  0x7d, 0x04, 0x13, 0xbe, 0x0f, 0x21, 0xaf, 0xbd, 0x9d, 0x7e, 0x44, 0xbe,
  0xd9, 0xae, 0x37, 0xbe, 0x6b, 0x5a, 0x27, 0xbe, 0x22, 0x1d, 0x1f, 0xbd,
  0xfb, 0x8a, 0x5a, 0xbe, 0x18, 0x4a, 0x19, 0x3d, 0xd4, 0x67, 0x56, 0xbd,
  0xc8, 0xd2, 0x88, 0xbe, 0x7b, 0x34, 0xfa, 0xbd, 0x9a, 0x8c, 0x34, 0x3d,
  0x61, 0x46, 0xa6, 0xbe, 0xc1, 0x6d, 0xe9, 0xbd, 0xba, 0xba, 0x52, 0xbd,
  0x3f, 0xf2, 0xe4, 0x3d, 0x21, 0x8b, 0x5d, 0xbd, 0x36, 0xd8, 0xe6, 0xba,
  0xfa, 0x88, 0x5c, 0xbe, 0x74, 0x2f, 0xe0, 0x3d, 0x4f, 0x7e, 0x98, 0x3d,
  0xb2, 0x2f, 0xc9, 0xbd, 0x78, 0xdd, 0x4e, 0xbe, 0xde, 0x0a, 0x35, 0xbe,
  0x00, 0x6c, 0x8d, 0xbe, 0x00, 0xce, 0x46, 0x3d, 0x4a, 0x34, 0x80, 0xbe,
  0x45, 0xe5, 0xde, 0xbd, 0xd4, 0xc3, 0xe3, 0xbd, 0xf6, 0xd4, 0xcf, 0x3d,
  0x58, 0x10, 0x8a, 0x3d, 0x2e, 0x01, 0x93, 0x3d, 0xfe, 0x71, 0xd2, 0xbd,
  0x6a, 0xca, 0xc6, 0xbd, 0x83, 0xae, 0xf1, 0x3c, 0x37, 0xd0, 0x0b, 0xbc,
  0xe4, 0x55, 0x9a, 0xbe, 0xf7, 0x89, 0x33, 0xbe, 0x30, 0xfd, 0x30, 0xbe,
  0x18, 0x70, 0x36, 0xbe, 0x18, 0x0c, 0x44, 0xbe, 0x02, 0x20, 0xb2, 0xbe,
  0x2f, 0x29, 0x1b, 0xbe, 0x7b, 0x04, 0x9a, 0xbe, 0xdc, 0x9c, 0xc0, 0xbd,
  0x6d, 0xd8, 0x2f, 0xbe, 0x34, 0xca, 0x72, 0xbd, 0x41, 0xfa, 0x23, 0xbe,
  0x97, 0x73, 0xf7, 0xbd, 0x1b, 0x3b, 0x78, 0xbe, 0xe2, 0xc5, 0x4f, 0xbd,
  0x27, 0x3b, 0x9d, 0xbd, 0x33, 0x7f, 0x62, 0xbe, 0x89, 0x6a, 0x84, 0xbe,
  0x93, 0x52, 0xd7, 0xbc, 0xd2, 0xaa, 0x11, 0x3e, 0xd8, 0x55, 0xba, 0xbd,
  0x12, 0xf4, 0xc1, 0xbd, 0xcd, 0x82, 0x84, 0x3e, 0x47, 0x22, 0x01, 0xbe,
  0x67, 0xfd, 0x0b, 0xbe, 0x7b, 0xa5, 0x6e, 0x3e, 0xa4, 0x34, 0x92, 0x3e,
  0xfb, 0x1c, 0xfc, 0xbd, 0x34, 0xdc, 0x97, 0x3e, 0x4b, 0x62, 0x02, 0xbd,
  0x48, 0x63, 0xe9, 0xbb, 0x75, 0xa6, 0x00, 0xbd, 0xed, 0x09, 0x28, 0xbe,
  0x47, 0x82, 0xfb, 0xbe, 0x12, 0x5e, 0x60, 0xbd, 0x77, 0x7e, 0x8c, 0xbc,
  0x76, 0x40, 0xe6, 0xbe, 0x15, 0x2c, 0x99, 0xbe, 0xb0, 0xea, 0x58, 0xbe,
  0x36, 0xc0, 0x62, 0x3e, 0xf3, 0x7a, 0x89, 0xbe, 0xef, 0x1f, 0x9d, 0x3c,
  0x8e, 0x44, 0x3f, 0x3e, 0xad, 0x6e, 0x40, 0xbe, 0xcb, 0x65, 0x1b, 0x3e,
  0x3a, 0x2a, 0x98, 0x3e, 0x06, 0x60, 0x75, 0xbe, 0x25, 0xff, 0xa0, 0x3e,
  0x49, 0xa2, 0x2b, 0xbf, 0xfd, 0x02, 0x32, 0xbd, 0xb8, 0x4e, 0xd5, 0xbc,
  0x93, 0x29, 0x81, 0x3b, 0x55, 0x18, 0xe4, 0xbe, 0x03, 0xc8, 0xb8, 0xbe,
  0x18, 0x0c, 0xf0, 0xbe, 0x36, 0x29, 0xab, 0x3e, 0xee, 0x22, 0xf8, 0xbe,
  0x2f, 0xca, 0x94, 0x3e, 0x30, 0x90, 0x41, 0x3d, 0xfa, 0x28, 0xaa, 0xbb,
  0xe9, 0x5a, 0x2b, 0x3e, 0x67, 0x54, 0x0b, 0x3e, 0xe8, 0xc1, 0x68, 0xbe,
  0xb2, 0x37, 0x40, 0x3e, 0x47, 0x83, 0xc0, 0xbe, 0xc1, 0x05, 0x94, 0xbe,
  0xbe, 0xe7, 0x6b, 0xbd, 0xa5, 0x8c, 0x77, 0xbd, 0xee, 0x84, 0xb6, 0xbe,
  0x18, 0x26, 0x89, 0xbd, 0x5c, 0xce, 0xec, 0xbe, 0xfb, 0x0d, 0x8e, 0x3e,
  0x0c, 0xf9, 0x83, 0xbe, 0x98, 0x18, 0x7b, 0x3d, 0x2a, 0x8f, 0x2e, 0xbe,
  0x41, 0xd1, 0x45, 0xbe, 0xa3, 0x6f, 0x7b, 0x3e, 0x50, 0xa0, 0xc7, 0x3d,
  0xb1, 0xb8, 0xe0, 0x3b, 0xb3, 0x61, 0x17, 0x3e, 0x17, 0x90, 0xc4, 0x3d,
  0xdb, 0x5b, 0x89, 0x3d, 0x1d, 0x28, 0xf3, 0x3a, 0x68, 0x2c, 0xc9, 0x3c,
  0x50, 0x44, 0x1e, 0xbe, 0x88, 0xe6, 0xbf, 0xbd, 0xdf, 0x8f, 0x63, 0x3e,
  0x9d, 0xdf, 0x01, 0x3e, 0x41, 0x69, 0xfc, 0xbd, 0x03, 0x70, 0xac, 0x3e,
  0xd1, 0x1e, 0x9b, 0xbe, 0xc1, 0x11, 0x1d, 0x3b, 0x70, 0xb8, 0x7f, 0x3e,
  0x84, 0x0a, 0xb7, 0xbd, 0x38, 0x1a, 0x14, 0x3b, 0x43, 0x99, 0xb3, 0x3e,
  0x56, 0x2c, 0x33, 0x3e, 0xf1, 0xd8, 0x8a, 0xbe, 0x66, 0x55, 0x6f, 0xbd,
  0x8e, 0xc9, 0x07, 0x3e, 0xf2, 0xbe, 0x91, 0xbe, 0xba, 0x66, 0x8b, 0xbd,
  0x54, 0x5e, 0x94, 0x3e, 0x14, 0x6f, 0x5b, 0xbe, 0x4c, 0x00, 0xb6, 0xbd,
  0xff, 0xe0, 0x37, 0x3d, 0xfd, 0x5d, 0x37, 0x3d, 0x18, 0xb5, 0xa9, 0xbd,
  0x13, 0x30, 0xc1, 0x3e, 0x3a, 0xd6, 0x0e, 0xbe, 0x2d, 0x8f, 0x91, 0xbe,
  0xf8, 0xad, 0xd9, 0x3e, 0x84, 0x98, 0xaf, 0x3a, 0x4d, 0xc5, 0xe2, 0xbd,
  0xf6, 0x73, 0x42, 0xbd, 0x9f, 0xbf, 0x09, 0xbe, 0xfb, 0x66, 0xb7, 0xbe,
  0x38, 0x4d, 0x0d, 0xbd, 0xf1, 0x90, 0x13, 0x3e, 0x4b, 0x54, 0x22, 0x3e,
  0xa9, 0xf7, 0x11, 0xbe, 0xd4, 0x1a, 0xc9, 0xbd, 0x76, 0x2f, 0x04, 0xbe,
  0x0d, 0x53, 0xf7, 0x3c, 0xb9, 0x0c, 0x93, 0xbe, 0x5e, 0xcb, 0x23, 0xbe,
  0xdc, 0x3b, 0x82, 0x3d, 0xd2, 0x8a, 0x49, 0xbd, 0x60, 0x1f, 0xa3, 0xbe,
  0x66, 0xfd, 0xff, 0xff, 0x10, 0x00, 0x00, 0x00, 0x07, 0x00, 0x00, 0x00,
  0x14, 0x00, 0x00, 0x00, 0x2c, 0x00, 0x00, 0x00, 0x02, 0x00, 0x00, 0x00,
  0x10, 0x00, 0x00, 0x00, 0x70, 0x00, 0x00, 0x00, 0x17, 0x00, 0x00, 0x00,
  0x73, 0x65, 0x71, 0x75, 0x65, 0x6e, 0x74, 0x69, 0x61, 0x6c, 0x2f, 0x64,
  0x65, 0x6e, 0x73, 0x65, 0x2f, 0x4d, 0x61, 0x74, 0x4d, 0x75, 0x6c, 0x00,
  0xd0, 0xfc, 0xff, 0xff, 0xda, 0xfd, 0xff, 0xff, 0x04, 0x00, 0x00, 0x00,
  0x08, 0x00, 0x00, 0x00, 0xff, 0xff, 0xff, 0xff, 0x70, 0x00, 0x00, 0x00,
  0x00, 0x00, 0x0e, 0x00, 0x18, 0x00, 0x08, 0x00, 0x07, 0x00, 0x0c, 0x00,
  0x10, 0x00, 0x14, 0x00, 0x0e, 0x00, 0x00, 0x00, 0x00, 0x00, 0x00, 0x02,
  0x10, 0x00, 0x00, 0x00, 0x06, 0x00, 0x00, 0x00, 0x10, 0x00, 0x00, 0x00,
  0x2c, 0x00, 0x00, 0x00, 0x01, 0x00, 0x00, 0x00, 0x02, 0x00, 0x00, 0x00,
  0x18, 0x00, 0x00, 0x00, 0x73, 0x65, 0x71, 0x75, 0x65, 0x6e, 0x74, 0x69,
  0x61, 0x6c, 0x2f, 0x66, 0x6c, 0x61, 0x74, 0x74, 0x65, 0x6e, 0x2f, 0x43,
  0x6f, 0x6e, 0x73, 0x74, 0x00, 0x00, 0x00, 0x00, 0x38, 0xfd, 0xff, 0xff,
  0x42, 0xfe, 0xff, 0xff, 0x04, 0x00, 0x00, 0x00, 0x0c, 0x00, 0x00, 0x00,
  0x8d, 0xb6, 0x9d, 0xbf, 0x77, 0x89, 0x52, 0xbf, 0x37, 0xa5, 0x11, 0x3f,
  0x26, 0xfe, 0xff, 0xff, 0x10, 0x00, 0x00, 0x00, 0x05, 0x00, 0x00, 0x00,
  0x10, 0x00, 0x00, 0x00, 0x44, 0x00, 0x00, 0x00, 0x01, 0x00, 0x00, 0x00,
  0x03, 0x00, 0x00, 0x00, 0x32, 0x00, 0x00, 0x00, 0x73, 0x65, 0x71, 0x75,
  0x65, 0x6e, 0x74, 0x69, 0x61, 0x6c, 0x2f, 0x64, 0x65, 0x6e, 0x73, 0x65,
  0x5f, 0x31, 0x2f, 0x42, 0x69, 0x61, 0x73, 0x41, 0x64, 0x64, 0x2f, 0x52,
  0x65, 0x61, 0x64, 0x56, 0x61, 0x72, 0x69, 0x61, 0x62, 0x6c, 0x65, 0x4f,
  0x70, 0x2f, 0x72, 0x65, 0x73, 0x6f, 0x75, 0x72, 0x63, 0x65, 0x00, 0x00,
  0xa8, 0xfd, 0xff, 0xff, 0xb2, 0xfe, 0xff, 0xff, 0x04, 0x00, 0x00, 0x00,
  0x40, 0x00, 0x00, 0x00, 0xf6, 0x14, 0x3b, 0xbe, 0x5c, 0x5d, 0xeb, 0x3f,
  0x12, 0x12, 0x6b, 0x3f, 0xe4, 0x0d, 0x2f, 0xbe, 0x1b, 0x4a, 0x16, 0xbe,
  0xab, 0xc5, 0xbe, 0xbf, 0xe2, 0x09, 0x2e, 0xbe, 0x01, 0x11, 0x19, 0x40,
  0xc2, 0x94, 0xac, 0x3f, 0x7b, 0xc2, 0xa3, 0xbe, 0x89, 0x39, 0x77, 0xbf,
  0xc0, 0x74, 0x8a, 0xbd, 0xba, 0xc2, 0x09, 0xbf, 0x9e, 0xcb, 0x00, 0xc0,
  0xa6, 0xe9, 0xb5, 0xbe, 0xdc, 0x89, 0xd3, 0xbf, 0xca, 0xfe, 0xff, 0xff,
  0x10, 0x00, 0x00, 0x00, 0x04, 0x00, 0x00, 0x00, 0x10, 0x00, 0x00, 0x00,
  0x44, 0x00, 0x00, 0x00, 0x01, 0x00, 0x00, 0x00, 0x10, 0x00, 0x00, 0x00,
  0x30, 0x00, 0x00, 0x00, 0x73, 0x65, 0x71, 0x75, 0x65, 0x6e, 0x74, 0x69,
  0x61, 0x6c, 0x2f, 0x64, 0x65, 0x6e, 0x73, 0x65, 0x2f, 0x42, 0x69, 0x61,
  0x73, 0x41, 0x64, 0x64, 0x2f, 0x52, 0x65, 0x61, 0x64, 0x56, 0x61, 0x72,
  0x69, 0x61, 0x62, 0x6c, 0x65, 0x4f, 0x70, 0x2f, 0x72, 0x65, 0x73, 0x6f,
  0x75, 0x72, 0x63, 0x65, 0x00, 0x00, 0x00, 0x00, 0x4c, 0xfe, 0xff, 0xff,
  0x56, 0xff, 0xff, 0xff, 0x04, 0x00, 0x00, 0x00, 0x40, 0x00, 0x00, 0x00,
  0xaa, 0x6e, 0x27, 0x3e, 0x52, 0x48, 0x90, 0x3d, 0x69, 0x74, 0x0d, 0xc0,
  0x6e, 0xda, 0x95, 0x3f, 0xec, 0x23, 0xce, 0xbf, 0x4e, 0xd9, 0x85, 0xbf,
  0x38, 0x6a, 0x0e, 0xbf, 0x65, 0xb5, 0x39, 0xbe, 0x5b, 0x1c, 0xeb, 0xbf,
  0xd8, 0x98, 0x01, 0xc0, 0x7e, 0x3d, 0x5e, 0xbe, 0x8a, 0xe9, 0x2c, 0xc0,
  0xb3, 0xa9, 0xac, 0xbf, 0x01, 0x6c, 0x47, 0x3e, 0xed, 0xe8, 0x4f, 0x3f,
  0x68, 0x53, 0x97, 0x3f, 0x6e, 0xff, 0xff, 0xff, 0x10, 0x00, 0x00, 0x00,
  0x03, 0x00, 0x00, 0x00, 0x10, 0x00, 0x00, 0x00, 0x48, 0x00, 0x00, 0x00,
  0x01, 0x00, 0x00, 0x00, 0x10, 0x00, 0x00, 0x00, 0x33, 0x00, 0x00, 0x00,
  0x73, 0x65, 0x71, 0x75, 0x65, 0x6e, 0x74, 0x69, 0x61, 0x6c, 0x2f, 0x63,
  0x6f, 0x6e, 0x76, 0x32, 0x64, 0x5f, 0x31, 0x2f, 0x42, 0x69, 0x61, 0x73,
  0x41, 0x64, 0x64, 0x2f, 0x52, 0x65, 0x61, 0x64, 0x56, 0x61, 0x72, 0x69,
  0x61, 0x62, 0x6c, 0x65, 0x4f, 0x70, 0x2f, 0x72, 0x65, 0x73, 0x6f, 0x75,
  0x72, 0x63, 0x65, 0x00, 0x04, 0x00, 0x06, 0x00, 0x04, 0x00, 0x00, 0x00,
  0x00, 0x00, 0x06, 0x00, 0x08, 0x00, 0x04, 0x00, 0x06, 0x00, 0x00, 0x00,
  0x04, 0x00, 0x00, 0x00, 0x20, 0x00, 0x00, 0x00, 0xbc, 0x3f, 0xe4, 0xbf,
  0x67, 0xf5, 0x40, 0xc0, 0xc7, 0x3a, 0x73, 0xbf, 0x26, 0xff, 0xd1, 0xbf,
  0xd9, 0xdb, 0x20, 0xc0, 0x7f, 0x71, 0x14, 0xc0, 0xc3, 0xbc, 0x01, 0x3f,
  0x64, 0x4c, 0x1a, 0x3f, 0x00, 0x00, 0x0e, 0x00, 0x14, 0x00, 0x04, 0x00,
  0x00, 0x00, 0x08, 0x00, 0x0c, 0x00, 0x10, 0x00, 0x0e, 0x00, 0x00, 0x00,
  0x10, 0x00, 0x00, 0x00, 0x02, 0x00, 0x00, 0x00, 0x10, 0x00, 0x00, 0x00,
  0x44, 0x00, 0x00, 0x00, 0x01, 0x00, 0x00, 0x00, 0x08, 0x00, 0x00, 0x00,
  0x31, 0x00, 0x00, 0x00, 0x73, 0x65, 0x71, 0x75, 0x65, 0x6e, 0x74, 0x69,
  0x61, 0x6c, 0x2f, 0x63, 0x6f, 0x6e, 0x76, 0x32, 0x64, 0x2f, 0x42, 0x69,
  0x61, 0x73, 0x41, 0x64, 0x64, 0x2f, 0x52, 0x65, 0x61, 0x64, 0x56, 0x61,
  0x72, 0x69, 0x61, 0x62, 0x6c, 0x65, 0x4f, 0x70, 0x2f, 0x72, 0x65, 0x73,
  0x6f, 0x75, 0x72, 0x63, 0x65, 0x00, 0x00, 0x00, 0x90, 0xff, 0xff, 0xff,
  0x14, 0x00, 0x18, 0x00, 0x04, 0x00, 0x00, 0x00, 0x08, 0x00, 0x0c, 0x00,
  0x10, 0x00, 0x00, 0x00, 0x00, 0x00, 0x14, 0x00, 0x14, 0x00, 0x00, 0x00,
  0x14, 0x00, 0x00, 0x00, 0x01, 0x00, 0x00, 0x00, 0x20, 0x00, 0x00, 0x00,
  0x44, 0x00, 0x00, 0x00, 0x2c, 0x00, 0x00, 0x00, 0x04, 0x00, 0x00, 0x00,
  0x01, 0x00, 0x00, 0x00, 0x40, 0x00, 0x00, 0x00, 0x03, 0x00, 0x00, 0x00,
  0x01, 0x00, 0x00, 0x00, 0x0c, 0x00, 0x00, 0x00, 0x63, 0x6f, 0x6e, 0x76,
  0x32, 0x64, 0x5f, 0x69, 0x6e, 0x70, 0x75, 0x74, 0x00, 0x00, 0x00, 0x00,
  0x04, 0x00, 0x00, 0x00, 0xff, 0xff, 0xff, 0xff, 0x40, 0x00, 0x00, 0x00,
  0x03, 0x00, 0x00, 0x00, 0x01, 0x00, 0x00, 0x00, 0xfc, 0xff, 0xff, 0xff,
  0x04, 0x00, 0x04, 0x00, 0x04, 0x00, 0x00, 0x00
};

unsigned int model_tflite_len = 13052;// Fill the int in `src/model.cc` here