#include "magic_wand_model_data.h"

// We need to keep the data array aligned on some architectures.
#ifdef __has_attribute
#define HAVE_ATTRIBUTE(x) __has_attribute(x)
#else
#define HAVE_ATTRIBUTE(x) 0
#endif
#if HAVE_ATTRIBUTE(aligned) || (defined(__GNUC__) && !defined(__clang__))
#define DATA_ALIGN_ATTRIBUTE __attribute__((aligned(4)))
#else
#define DATA_ALIGN_ATTRIBUTE
#endif

const unsigned char g_magic_wand_model_data[] DATA_ALIGN_ATTRIBUTE = {
   0x1c, 0x00, 0x00, 0x00, 0x54, 0x46, 0x4c, 0x33, 0x14, 0x00, 0x20, 0x00,
  0x04, 0x00, 0x08, 0x00, 0x0c, 0x00, 0x10, 0x00, 0x14, 0x00, 0x00, 0x00,
  0x18, 0x00, 0x1c, 0x00, 0x14, 0x00, 0x00, 0x00, 0x03, 0x00, 0x00, 0x00,
  0x18, 0x00, 0x00, 0x00, 0x2c, 0x00, 0x00, 0x00, 0xd8, 0x00, 0x00, 0x00,
  0x2c, 0x00, 0x00, 0x00, 0x80, 0x00, 0x00, 0x00, 0x78, 0x00, 0x00, 0x00,
  0x05, 0x00, 0x00, 0x00, 0x28, 0x07, 0x00, 0x00, 0x44, 0x06, 0x00, 0x00,
  0xbc, 0x03, 0x00, 0x00, 0xf8, 0x02, 0x00, 0x00, 0xac, 0x01, 0x00, 0x00,
  0x01, 0x00, 0x00, 0x00, 0xd0, 0x00, 0x00, 0x00, 0x14, 0x00, 0x00, 0x00,
  0x98, 0x32, 0x00, 0x00, 0x94, 0x32, 0x00, 0x00, 0x8c, 0x31, 0x00, 0x00,
  0xd8, 0x30, 0x00, 0x00, 0x30, 0x30, 0x00, 0x00, 0xbc, 0x2f, 0x00, 0x00,
  0x50, 0x2f, 0x00, 0x00, 0x00, 0x13, 0x00, 0x00, 0xec, 0x11, 0x00, 0x00,
  0x10, 0x10, 0x00, 0x00, 0xb4, 0x07, 0x00, 0x00, 0x6c, 0x32, 0x00, 0x00,
  0x68, 0x32, 0x00, 0x00, 0x64, 0x32, 0x00, 0x00, 0x60, 0x32, 0x00, 0x00,
  0x5c, 0x32, 0x00, 0x00, 0x58, 0x32, 0x00, 0x00, 0x54, 0x32, 0x00, 0x00,
  0x50, 0x32, 0x00, 0x00, 0x3c, 0x00, 0x00, 0x00, 0x00, 0x00, 0x00, 0x00,
  0x01, 0x00, 0x00, 0x00, 0x0c, 0x00, 0x00, 0x00, 0x08, 0x00, 0x0c, 0x00,
  0x04, 0x00, 0x08, 0x00, 0x08, 0x00, 0x00, 0x00, 0x08, 0x00, 0x00, 0x00,
  0x13, 0x00, 0x00, 0x00, 0x13, 0x00, 0x00, 0x00, 0x6d, 0x69, 0x6e, 0x5f,
  0x72, 0x75, 0x6e, 0x74, 0x69, 0x6d, 0x65, 0x5f, 0x76, 0x65, 0x72, 0x73,
  0x69, 0x6f, 0x6e, 0x00, 0xfa, 0xce, 0xff, 0xff, 0x04, 0x00, 0x00, 0x00,
  0x10, 0x00, 0x00, 0x00, 0x31, 0x2e, 0x35, 0x2e, 0x30, 0x00, 0x00, 0x00,
  0x00, 0x00, 0x00, 0x00, 0x00, 0x00, 0x00, 0x00, 0x0f, 0x00, 0x00, 0x00,
  0x4d, 0x4c, 0x49, 0x52, 0x20, 0x43, 0x6f, 0x6e, 0x76, 0x65, 0x72, 0x74,
  0x65, 0x64, 0x2e, 0x00, 0x00, 0x00, 0x0e, 0x00, 0x18, 0x00, 0x04, 0x00,
  0x08, 0x00, 0x0c, 0x00, 0x10, 0x00, 0x14, 0x00, 0x0e, 0x00, 0x00, 0x00,
  0x14, 0x00, 0x00, 0x00, 0x5c, 0x00, 0x00, 0x00, 0x60, 0x00, 0x00, 0x00,
  0x64, 0x00, 0x00, 0x00, 0x84, 0x00, 0x00, 0x00, 0x12, 0x00, 0x00, 0x00,
  0x58, 0x31, 0x00, 0x00, 0xe8, 0x30, 0x00, 0x00, 0x44, 0x30, 0x00, 0x00,
  0x9c, 0x2f, 0x00, 0x00, 0xf4, 0x2e, 0x00, 0x00, 0x94, 0x2e, 0x00, 0x00,
  0x2c, 0x2e, 0x00, 0x00, 0xd8, 0x11, 0x00, 0x00, 0xbc, 0x10, 0x00, 0x00,
  0xe0, 0x0e, 0x00, 0x00, 0x0c, 0x06, 0x00, 0x00, 0x28, 0x05, 0x00, 0x00,
  0xe8, 0x03, 0x00, 0x00, 0x3c, 0x03, 0x00, 0x00, 0x98, 0x02, 0x00, 0x00,
  0xd4, 0x01, 0x00, 0x00, 0x10, 0x01, 0x00, 0x00, 0x84, 0x00, 0x00, 0x00,
  0x01, 0x00, 0x00, 0x00, 0x00, 0x00, 0x00, 0x00, 0x01, 0x00, 0x00, 0x00,
  0x11, 0x00, 0x00, 0x00, 0x08, 0x00, 0x00, 0x00, 0x74, 0x05, 0x00, 0x00,
  0x94, 0x04, 0x00, 0x00, 0x78, 0x03, 0x00, 0x00, 0xbc, 0x02, 0x00, 0x00,
  0x30, 0x02, 0x00, 0x00, 0x50, 0x01, 0x00, 0x00, 0xa8, 0x00, 0x00, 0x00,
  0x10, 0x00, 0x00, 0x00, 0x04, 0x00, 0x00, 0x00, 0x6d, 0x61, 0x69, 0x6e,
  0x00, 0x00, 0x00, 0x00, 0x7a, 0xff, 0xff, 0xff, 0x00, 0x00, 0x00, 0x09,
  0x04, 0x00, 0x00, 0x00, 0x1c, 0x00, 0x00, 0x00, 0x10, 0x00, 0x00, 0x00,
  0x04, 0x00, 0x00, 0x00, 0xf6, 0xcf, 0xff, 0xff, 0x00, 0x00, 0x80, 0x3f,
  0x01, 0x00, 0x00, 0x00, 0x11, 0x00, 0x00, 0x00, 0x01, 0x00, 0x00, 0x00,
  0x10, 0x00, 0x00, 0x00, 0xa0, 0xfa, 0xff, 0xff, 0x19, 0x00, 0x00, 0x00,
  0x00, 0x00, 0x00, 0x19, 0x01, 0x00, 0x00, 0x00, 0x84, 0xcf, 0xff, 0xff,
  0x14, 0x00, 0x00, 0x00, 0x12, 0x00, 0x00, 0x00, 0x18, 0x00, 0x00, 0x00,
  0x30, 0x00, 0x00, 0x00, 0x20, 0x00, 0x00, 0x00, 0x02, 0x00, 0x00, 0x00,
  0x01, 0x00, 0x00, 0x00, 0x03, 0x00, 0x00, 0x00, 0x08, 0x00, 0x00, 0x00,
  0x49, 0x64, 0x65, 0x6e, 0x74, 0x69, 0x74, 0x79, 0x00, 0x00, 0x00, 0x00,
  0x02, 0x00, 0x00, 0x00, 0xff, 0xff, 0xff, 0xff, 0x03, 0x00, 0x00, 0x00,
  0x68, 0xd0, 0xff, 0xff, 0x00, 0x00, 0x0e, 0x00, 0x18, 0x00, 0x08, 0x00,
  0x0c, 0x00, 0x10, 0x00, 0x07, 0x00, 0x14, 0x00, 0x0e, 0x00, 0x00, 0x00,
  0x00, 0x00, 0x00, 0x08, 0x03, 0x00, 0x00, 0x00, 0x18, 0x00, 0x00, 0x00,
  0x0c, 0x00, 0x00, 0x00, 0x04, 0x00, 0x00, 0x00, 0x84, 0xcf, 0xff, 0xff,
  0x01, 0x00, 0x00, 0x00, 0x10, 0x00, 0x00, 0x00, 0x03, 0x00, 0x00, 0x00,
  0x0f, 0x00, 0x00, 0x00, 0x07, 0x00, 0x00, 0x00, 0x04, 0x00, 0x00, 0x00,
  0x0c, 0xd0, 0xff, 0xff, 0x14, 0x00, 0x00, 0x00, 0x11, 0x00, 0x00, 0x00,
  0x18, 0x00, 0x00, 0x00, 0x5c, 0x00, 0x00, 0x00, 0x4c, 0x00, 0x00, 0x00,
  0x02, 0x00, 0x00, 0x00, 0x01, 0x00, 0x00, 0x00, 0x03, 0x00, 0x00, 0x00,
  0x34, 0x00, 0x00, 0x00, 0x73, 0x65, 0x71, 0x75, 0x65, 0x6e, 0x74, 0x69,
  0x61, 0x6c, 0x2f, 0x64, 0x65, 0x6e, 0x73, 0x65, 0x5f, 0x31, 0x2f, 0x4d,
  0x61, 0x74, 0x4d, 0x75, 0x6c, 0x3b, 0x73, 0x65, 0x71, 0x75, 0x65, 0x6e,
  0x74, 0x69, 0x61, 0x6c, 0x2f, 0x64, 0x65, 0x6e, 0x73, 0x65, 0x5f, 0x31,
  0x2f, 0x42, 0x69, 0x61, 0x73, 0x41, 0x64, 0x64, 0x00, 0x00, 0x00, 0x00,
  0x02, 0x00, 0x00, 0x00, 0xff, 0xff, 0xff, 0xff, 0x03, 0x00, 0x00, 0x00,
  0x0c, 0xd0, 0xff, 0xff, 0xda, 0xfc, 0xff, 0xff, 0x00, 0x00, 0x00, 0x08,
  0x03, 0x00, 0x00, 0x00, 0x24, 0x00, 0x00, 0x00, 0x18, 0x00, 0x00, 0x00,
  0x0c, 0x00, 0x00, 0x00, 0x00, 0x00, 0x06, 0x00, 0x08, 0x00, 0x07, 0x00,
  0x06, 0x00, 0x00, 0x00, 0x00, 0x00, 0x00, 0x01, 0x01, 0x00, 0x00, 0x00,
  0x0f, 0x00, 0x00, 0x00, 0x03, 0x00, 0x00, 0x00, 0x0e, 0x00, 0x00, 0x00,
  0x06, 0x00, 0x00, 0x00, 0x03, 0x00, 0x00, 0x00, 0xe8, 0xfb, 0xff, 0xff,
  0x09, 0x00, 0x00, 0x00, 0x00, 0x00, 0x00, 0x09, 0x01, 0x00, 0x00, 0x00,
  0xcc, 0xd0, 0xff, 0xff, 0x14, 0x00, 0x00, 0x00, 0x10, 0x00, 0x00, 0x00,
  0x18, 0x00, 0x00, 0x00, 0x6c, 0x00, 0x00, 0x00, 0x5c, 0x00, 0x00, 0x00,
  0x02, 0x00, 0x00, 0x00, 0x01, 0x00, 0x00, 0x00, 0x10, 0x00, 0x00, 0x00,
  0x46, 0x00, 0x00, 0x00, 0x73, 0x65, 0x71, 0x75, 0x65, 0x6e, 0x74, 0x69,
  0x61, 0x6c, 0x2f, 0x64, 0x65, 0x6e, 0x73, 0x65, 0x2f, 0x4d, 0x61, 0x74,
  0x4d, 0x75, 0x6c, 0x3b, 0x73, 0x65, 0x71, 0x75, 0x65, 0x6e, 0x74, 0x69,
  0x61, 0x6c, 0x2f, 0x64, 0x65, 0x6e, 0x73, 0x65, 0x2f, 0x52, 0x65, 0x6c,
  0x75, 0x3b, 0x73, 0x65, 0x71, 0x75, 0x65, 0x6e, 0x74, 0x69, 0x61, 0x6c,
  0x2f, 0x64, 0x65, 0x6e, 0x73, 0x65, 0x2f, 0x42, 0x69, 0x61, 0x73, 0x41,
  0x64, 0x64, 0x00, 0x00, 0x02, 0x00, 0x00, 0x00, 0xff, 0xff, 0xff, 0xff,
  0x10, 0x00, 0x00, 0x00, 0xec, 0xd1, 0xff, 0xff, 0x00, 0x00, 0x0a, 0x00,
  0x10, 0x00, 0x04, 0x00, 0x08, 0x00, 0x0c, 0x00, 0x0a, 0x00, 0x00, 0x00,
  0x02, 0x00, 0x00, 0x00, 0x10, 0x00, 0x00, 0x00, 0x04, 0x00, 0x00, 0x00,
  0x01, 0x00, 0x00, 0x00, 0x0e, 0x00, 0x00, 0x00, 0x02, 0x00, 0x00, 0x00,
  0x0d, 0x00, 0x00, 0x00, 0x05, 0x00, 0x00, 0x00, 0xa8, 0xfc, 0xff, 0xff,
  0x16, 0x00, 0x00, 0x00, 0x00, 0x00, 0x00, 0x16, 0x01, 0x00, 0x00, 0x00,
  0x8c, 0xd1, 0xff, 0xff, 0x14, 0x00, 0x00, 0x00, 0x0f, 0x00, 0x00, 0x00,
  0x18, 0x00, 0x00, 0x00, 0x40, 0x00, 0x00, 0x00, 0x30, 0x00, 0x00, 0x00,
  0x02, 0x00, 0x00, 0x00, 0x01, 0x00, 0x00, 0x00, 0x70, 0x00, 0x00, 0x00,
  0x1a, 0x00, 0x00, 0x00, 0x73, 0x65, 0x71, 0x75, 0x65, 0x6e, 0x74, 0x69,
  0x61, 0x6c, 0x2f, 0x66, 0x6c, 0x61, 0x74, 0x74, 0x65, 0x6e, 0x2f, 0x52,
  0x65, 0x73, 0x68, 0x61, 0x70, 0x65, 0x00, 0x00, 0x02, 0x00, 0x00, 0x00,
  0xff, 0xff, 0xff, 0xff, 0x70, 0x00, 0x00, 0x00, 0x70, 0xd1, 0xff, 0xff,
  0x3e, 0xfe, 0xff, 0xff, 0x00, 0x00, 0x00, 0x05, 0x01, 0x00, 0x00, 0x00,
  0x38, 0x00, 0x00, 0x00, 0x2c, 0x00, 0x00, 0x00, 0x14, 0x00, 0x00, 0x00,
  0x00, 0x00, 0x0e, 0x00, 0x14, 0x00, 0x00, 0x00, 0x10, 0x00, 0x0c, 0x00,
  0x08, 0x00, 0x04, 0x00, 0x0e, 0x00, 0x00, 0x00, 0x03, 0x00, 0x00, 0x00,
  0x01, 0x00, 0x00, 0x00, 0x03, 0x00, 0x00, 0x00, 0x01, 0x00, 0x00, 0x00,
  0x01, 0x00, 0x00, 0x00, 0x0d, 0x00, 0x00, 0x00, 0x01, 0x00, 0x00, 0x00,
  0x0c, 0x00, 0x00, 0x00, 0x2c, 0xd2, 0xff, 0xff, 0x14, 0x00, 0x00, 0x00,
  0x0e, 0x00, 0x00, 0x00, 0x20, 0x00, 0x00, 0x00, 0x58, 0x00, 0x00, 0x00,
  0x40, 0x00, 0x00, 0x00, 0x04, 0x00, 0x00, 0x00, 0x01, 0x00, 0x00, 0x00,
  0x07, 0x00, 0x00, 0x00, 0x01, 0x00, 0x00, 0x00, 0x10, 0x00, 0x00, 0x00,
  0x22, 0x00, 0x00, 0x00, 0x73, 0x65, 0x71, 0x75, 0x65, 0x6e, 0x74, 0x69,
  0x61, 0x6c, 0x2f, 0x6d, 0x61, 0x78, 0x5f, 0x70, 0x6f, 0x6f, 0x6c, 0x69,
  0x6e, 0x67, 0x32, 0x64, 0x5f, 0x31, 0x2f, 0x4d, 0x61, 0x78, 0x50, 0x6f,
  0x6f, 0x6c, 0x00, 0x00, 0x04, 0x00, 0x00, 0x00, 0xff, 0xff, 0xff, 0xff,
  0x07, 0x00, 0x00, 0x00, 0x01, 0x00, 0x00, 0x00, 0x10, 0x00, 0x00, 0x00,
  0x28, 0xd2, 0xff, 0xff, 0x1a, 0xfe, 0xff, 0xff, 0x00, 0x00, 0x00, 0x01,
  0x24, 0x00, 0x00, 0x00, 0x18, 0x00, 0x00, 0x00, 0x04, 0x00, 0x00, 0x00,
  0x0c, 0xfe, 0xff, 0xff, 0x01, 0x00, 0x00, 0x00, 0x01, 0x00, 0x00, 0x00,
  0x00, 0x00, 0x00, 0x01, 0x01, 0x00, 0x00, 0x00, 0x0c, 0x00, 0x00, 0x00,
  0x03, 0x00, 0x00, 0x00, 0x0b, 0x00, 0x00, 0x00, 0x09, 0x00, 0x00, 0x00,
  0x02, 0x00, 0x00, 0x00, 0xd4, 0xd2, 0xff, 0xff, 0x14, 0x00, 0x00, 0x00,
  0x0d, 0x00, 0x00, 0x00, 0x20, 0x00, 0x00, 0x00, 0xb8, 0x00, 0x00, 0x00,
  0xa0, 0x00, 0x00, 0x00, 0x04, 0x00, 0x00, 0x00, 0x01, 0x00, 0x00, 0x00,
  0x15, 0x00, 0x00, 0x00, 0x01, 0x00, 0x00, 0x00, 0x10, 0x00, 0x00, 0x00,
  0x83, 0x00, 0x00, 0x00, 0x73, 0x65, 0x71, 0x75, 0x65, 0x6e, 0x74, 0x69,
  0x61, 0x6c, 0x2f, 0x63, 0x6f, 0x6e, 0x76, 0x32, 0x64, 0x5f, 0x31, 0x2f,
  0x52, 0x65, 0x6c, 0x75, 0x3b, 0x73, 0x65, 0x71, 0x75, 0x65, 0x6e, 0x74,
  0x69, 0x61, 0x6c, 0x2f, 0x63, 0x6f, 0x6e, 0x76, 0x32, 0x64, 0x5f, 0x31,
  0x2f, 0x42, 0x69, 0x61, 0x73, 0x41, 0x64, 0x64, 0x3b, 0x73, 0x65, 0x71,
  0x75, 0x65, 0x6e, 0x74, 0x69, 0x61, 0x6c, 0x2f, 0x63, 0x6f, 0x6e, 0x76,
  0x32, 0x64, 0x5f, 0x31, 0x2f, 0x43, 0x6f, 0x6e, 0x76, 0x32, 0x44, 0x3b,
  0x73, 0x65, 0x71, 0x75, 0x65, 0x6e, 0x74, 0x69, 0x61, 0x6c, 0x2f, 0x63,
  0x6f, 0x6e, 0x76, 0x32, 0x64, 0x5f, 0x31, 0x2f, 0x42, 0x69, 0x61, 0x73,
  0x41, 0x64, 0x64, 0x2f, 0x52, 0x65, 0x61, 0x64, 0x56, 0x61, 0x72, 0x69,
  0x61, 0x62, 0x6c, 0x65, 0x4f, 0x70, 0x2f, 0x72, 0x65, 0x73, 0x6f, 0x75,
  0x72, 0x63, 0x65, 0x00, 0x04, 0x00, 0x00, 0x00, 0xff, 0xff, 0xff, 0xff,
  0x15, 0x00, 0x00, 0x00, 0x01, 0x00, 0x00, 0x00, 0x10, 0x00, 0x00, 0x00,
  0x40, 0xd4, 0xff, 0xff, 0x00, 0x00, 0x0e, 0x00, 0x1a, 0x00, 0x08, 0x00,
  0x0c, 0x00, 0x10, 0x00, 0x07, 0x00, 0x14, 0x00, 0x0e, 0x00, 0x00, 0x00,
  0x00, 0x00, 0x00, 0x05, 0x01, 0x00, 0x00, 0x00, 0x3c, 0x00, 0x00, 0x00,
  0x30, 0x00, 0x00, 0x00, 0x14, 0x00, 0x00, 0x00, 0x00, 0x00, 0x0e, 0x00,
  0x18, 0x00, 0x17, 0x00, 0x10, 0x00, 0x0c, 0x00, 0x08, 0x00, 0x04, 0x00,
  0x0e, 0x00, 0x00, 0x00, 0x03, 0x00, 0x00, 0x00, 0x03, 0x00, 0x00, 0x00,
  0x03, 0x00, 0x00, 0x00, 0x03, 0x00, 0x00, 0x00, 0x00, 0x00, 0x00, 0x01,
  0x01, 0x00, 0x00, 0x00, 0x0b, 0x00, 0x00, 0x00, 0x01, 0x00, 0x00, 0x00,
  0x0a, 0x00, 0x00, 0x00, 0x2c, 0xff, 0xff, 0xff, 0x11, 0x00, 0x00, 0x00,
  0x00, 0x00, 0x00, 0x11, 0x01, 0x00, 0x00, 0x00, 0x10, 0xd4, 0xff, 0xff,
  0x14, 0x00, 0x00, 0x00, 0x0c, 0x00, 0x00, 0x00, 0x20, 0x00, 0x00, 0x00,
  0x58, 0x00, 0x00, 0x00, 0x40, 0x00, 0x00, 0x00, 0x04, 0x00, 0x00, 0x00,
  0x01, 0x00, 0x00, 0x00, 0x15, 0x00, 0x00, 0x00, 0x01, 0x00, 0x00, 0x00,
  0x08, 0x00, 0x00, 0x00, 0x20, 0x00, 0x00, 0x00, 0x73, 0x65, 0x71, 0x75,
  0x65, 0x6e, 0x74, 0x69, 0x61, 0x6c, 0x2f, 0x6d, 0x61, 0x78, 0x5f, 0x70,
  0x6f, 0x6f, 0x6c, 0x69, 0x6e, 0x67, 0x32, 0x64, 0x2f, 0x4d, 0x61, 0x78,
  0x50, 0x6f, 0x6f, 0x6c, 0x00, 0x00, 0x00, 0x00, 0x04, 0x00, 0x00, 0x00,
  0xff, 0xff, 0xff, 0xff, 0x15, 0x00, 0x00, 0x00, 0x01, 0x00, 0x00, 0x00,
  0x08, 0x00, 0x00, 0x00, 0x1c, 0xd5, 0xff, 0xff, 0x00, 0x00, 0x0e, 0x00,
  0x14, 0x00, 0x00, 0x00, 0x08, 0x00, 0x0c, 0x00, 0x07, 0x00, 0x10, 0x00,
  0x0e, 0x00, 0x00, 0x00, 0x00, 0x00, 0x00, 0x01, 0x30, 0x00, 0x00, 0x00,
  0x24, 0x00, 0x00, 0x00, 0x10, 0x00, 0x00, 0x00, 0x0c, 0x00, 0x10, 0x00,
  0x00, 0x00, 0x04, 0x00, 0x08, 0x00, 0x0f, 0x00, 0x0c, 0x00, 0x00, 0x00,
  0x01, 0x00, 0x00, 0x00, 0x01, 0x00, 0x00, 0x00, 0x00, 0x00, 0x00, 0x01,
  0x01, 0x00, 0x00, 0x00, 0x0a, 0x00, 0x00, 0x00, 0x03, 0x00, 0x00, 0x00,
  0x00, 0x00, 0x00, 0x00, 0x08, 0x00, 0x00, 0x00, 0x01, 0x00, 0x00, 0x00,
  0x0c, 0x00, 0x10, 0x00, 0x0b, 0x00, 0x00, 0x00, 0x0c, 0x00, 0x04, 0x00,
  0x0c, 0x00, 0x00, 0x00, 0x03, 0x00, 0x00, 0x00, 0x00, 0x00, 0x00, 0x03,
  0x01, 0x00, 0x00, 0x00, 0xf0, 0xd4, 0xff, 0xff, 0x14, 0x00, 0x00, 0x00,
  0x0b, 0x00, 0x00, 0x00, 0x20, 0x00, 0x00, 0x00, 0xb0, 0x00, 0x00, 0x00,
  0x98, 0x00, 0x00, 0x00, 0x04, 0x00, 0x00, 0x00, 0x01, 0x00, 0x00, 0x00,
  0x40, 0x00, 0x00, 0x00, 0x03, 0x00, 0x00, 0x00, 0x08, 0x00, 0x00, 0x00,
  0x7b, 0x00, 0x00, 0x00, 0x73, 0x65, 0x71, 0x75, 0x65, 0x6e, 0x74, 0x69,
  0x61, 0x6c, 0x2f, 0x63, 0x6f, 0x6e, 0x76, 0x32, 0x64, 0x2f, 0x52, 0x65,
  0x6c, 0x75, 0x3b, 0x73, 0x65, 0x71, 0x75, 0x65, 0x6e, 0x74, 0x69, 0x61,
  0x6c, 0x2f, 0x63, 0x6f, 0x6e, 0x76, 0x32, 0x64, 0x2f, 0x42, 0x69, 0x61,
  0x73, 0x41, 0x64, 0x64, 0x3b, 0x73, 0x65, 0x71, 0x75, 0x65, 0x6e, 0x74,
  0x69, 0x61, 0x6c, 0x2f, 0x63, 0x6f, 0x6e, 0x76, 0x32, 0x64, 0x2f, 0x43,
  0x6f, 0x6e, 0x76, 0x32, 0x44, 0x3b, 0x73, 0x65, 0x71, 0x75, 0x65, 0x6e,
  0x74, 0x69, 0x61, 0x6c, 0x2f, 0x63, 0x6f, 0x6e, 0x76, 0x32, 0x64, 0x2f,
  0x42, 0x69, 0x61, 0x73, 0x41, 0x64, 0x64, 0x2f, 0x52, 0x65, 0x61, 0x64,
  0x56, 0x61, 0x72, 0x69, 0x61, 0x62, 0x6c, 0x65, 0x4f, 0x70, 0x2f, 0x72,
  0x65, 0x73, 0x6f, 0x75, 0x72, 0x63, 0x65, 0x00, 0x04, 0x00, 0x00, 0x00,
  0xff, 0xff, 0xff, 0xff, 0x40, 0x00, 0x00, 0x00, 0x03, 0x00, 0x00, 0x00,
  0x08, 0x00, 0x00, 0x00, 0x44, 0xd5, 0xff, 0xff, 0x4e, 0xd6, 0xff, 0xff,
  0x04, 0x00, 0x00, 0x00, 0x00, 0x08, 0x00, 0x00, 0x9c, 0xd1, 0x16, 0xbe,
  0x55, 0x99, 0xea, 0xbd, 0x85, 0x84, 0x3a, 0xbe, 0x18, 0x4e, 0x23, 0xbf,
  0x73, 0xa0, 0x50, 0x3d, 0xde, 0x43, 0x86, 0xbe, 0x29, 0xd0, 0x9c, 0xbe,
  0x2a, 0x1c, 0x81, 0x3d, 0x7c, 0x31, 0xff, 0x3d, 0x3b, 0xd5, 0x44, 0x3e,
  0xbb, 0x2d, 0x36, 0xbe, 0xf9, 0x5d, 0x40, 0x3e, 0xbd, 0xa0, 0xa2, 0x3e,
  0x80, 0x40, 0x42, 0x3c, 0x94, 0x21, 0x10, 0x3e, 0x4b, 0x55, 0x0c, 0xbe,
  0x28, 0xb7, 0x2d, 0xbd, 0x60, 0x13, 0x0a, 0xbe, 0xe0, 0xac, 0x42, 0xbe,
  0x15, 0xd7, 0x98, 0xbe, 0x73, 0x4e, 0xa2, 0xbd, 0xb0, 0x45, 0x3f, 0xbd,
  0x29, 0xc0, 0xd5, 0x3d, 0x42, 0x35, 0xd8, 0xbe, 0x2f, 0xe3, 0x32, 0x3e,
  0x43, 0x2d, 0xd1, 0x3d, 0x1c, 0x6e, 0x19, 0xbe, 0x36, 0x92, 0xa9, 0xbe,
  0xb6, 0x3b, 0x92, 0x3e, 0xde, 0xf7, 0x05, 0xbe, 0x58, 0x4a, 0x99, 0xbc,
  0x6f, 0xfb, 0xa7, 0xbe, 0xd7, 0x99, 0x2d, 0xbe, 0x61, 0x4b, 0xda, 0x3b,
  0x24, 0x85, 0x1a, 0xbe, 0x44, 0xb0, 0x05, 0xbe, 0xa6, 0xcc, 0xb6, 0xbd,
  0x65, 0xd8, 0x77, 0xbd, 0xfb, 0x6b, 0x55, 0xbf, 0x88, 0x68, 0x45, 0xbe,
  0xcc, 0x0c, 0x21, 0x3e, 0xf8, 0x13, 0x9f, 0x3d, 0x2d, 0x4b, 0xea, 0x3c,
  0x33, 0xe9, 0xa1, 0x3d, 0xcb, 0xc7, 0x4a, 0xbe, 0x99, 0x58, 0x5c, 0xbd,
  0xfd, 0xd2, 0x03, 0xbe, 0xfc, 0xb6, 0xe5, 0x3c, 0x71, 0xcc, 0x40, 0x3e,
  0x59, 0xec, 0x38, 0xbe, 0x0b, 0x36, 0x5f, 0xbb, 0xf2, 0xff, 0x80, 0x3c,
  0x3b, 0x80, 0x94, 0xbe, 0x12, 0x6d, 0x52, 0x3b, 0x59, 0xfa, 0xe7, 0xbe,
  0x59, 0xc6, 0xa3, 0xbe, 0xb7, 0xbd, 0x6a, 0x3e, 0x91, 0x4d, 0x5c, 0xbd,
  0x3a, 0x1f, 0xf2, 0x3d, 0x4d, 0x13, 0x92, 0x3d, 0x21, 0x27, 0x60, 0xbd,
  0x21, 0xa7, 0x93, 0x3d, 0xc3, 0x83, 0x03, 0xbf, 0xf6, 0xe9, 0xae, 0xbc,
  0x06, 0xbf, 0xa5, 0x3e, 0x48, 0xc0, 0x2c, 0xbe, 0xa4, 0x0c, 0xed, 0xbd,
  0x48, 0x07, 0x46, 0xbe, 0x07, 0x1a, 0x31, 0x3d, 0xe8, 0xba, 0xb2, 0xbe,
  0x40, 0x25, 0xfc, 0xbd, 0x75, 0x63, 0x4d, 0xbe, 0x99, 0xf6, 0xd4, 0xbd,
  0x81, 0x29, 0x8b, 0xbc, 0x29, 0x46, 0xb7, 0xbe, 0xb4, 0x5b, 0xeb, 0xbc,
  0x26, 0x5d, 0x87, 0xbe, 0x34, 0x03, 0xfb, 0xbe, 0x35, 0xaa, 0x53, 0x3e,
  0x58, 0x9f, 0xa4, 0xbd, 0x93, 0x9c, 0x48, 0x3d, 0x14, 0x04, 0x92, 0x3d,
  0x05, 0x65, 0x12, 0xbd, 0xf6, 0x1e, 0x40, 0x3c, 0x59, 0xb2, 0x5c, 0xbe,
  0xbb, 0x78, 0x89, 0xbe, 0xaf, 0xa9, 0x27, 0xbb, 0x47, 0x55, 0xa1, 0xbd,
  0x24, 0xe8, 0xb0, 0x3d, 0x02, 0x95, 0xf7, 0x3d, 0x5b, 0x6d, 0xfd, 0xbd,
  0x79, 0x3a, 0xca, 0x3c, 0xa7, 0xb0, 0x9a, 0xbe, 0x50, 0x3f, 0xd9, 0xbe,
  0xb5, 0x69, 0xf8, 0xbd, 0xa7, 0xce, 0x17, 0x3b, 0xe3, 0xaf, 0x31, 0xbe,
  0x84, 0xde, 0x9b, 0xbe, 0x7d, 0x22, 0x72, 0xbe, 0x5b, 0x42, 0x7c, 0xbe,
  0x64, 0x0a, 0xc1, 0xbd, 0x69, 0xf8, 0xac, 0xbd, 0xe0, 0xe0, 0xbd, 0x3e,
  0xe4, 0x74, 0x3b, 0xbf, 0x1f, 0x2e, 0xfb, 0xbd, 0x19, 0xbe, 0x7b, 0xbe,
  0xba, 0x38, 0x23, 0x3e, 0x0d, 0x98, 0xc6, 0xbd, 0x7f, 0xaf, 0x21, 0xbe,
  0x3d, 0xbb, 0xd5, 0xbd, 0x84, 0x89, 0x9e, 0xbc, 0x35, 0xf2, 0x3b, 0xbe,
  0x2f, 0x80, 0x8a, 0xbd, 0xb3, 0x9f, 0xc0, 0xbd, 0x5e, 0x5a, 0x45, 0x3e,
  0x58, 0x67, 0xb5, 0x3d, 0x70, 0xb4, 0x7e, 0xbe, 0x7e, 0xea, 0x80, 0xbd,
  0x38, 0x4b, 0x99, 0xbd, 0x47, 0x8a, 0x44, 0x3f, 0x5b, 0x0d, 0xd3, 0x3e,
  0x53, 0xe1, 0x05, 0x3e, 0x1f, 0x34, 0x98, 0xbd, 0x1a, 0x36, 0x4b, 0x3e,
  0xdc, 0x48, 0xb5, 0xbd, 0x19, 0x9d, 0xef, 0x3c, 0x85, 0x1d, 0xbc, 0xbd,
  0x48, 0x19, 0x11, 0x3f, 0x69, 0x33, 0x1f, 0x3e, 0x50, 0xea, 0xb2, 0xbd,
  0xbf, 0x71, 0x03, 0x3f, 0xbf, 0x2f, 0xb7, 0xbc, 0xb9, 0x30, 0xf9, 0xbd,
  0xf4, 0xa9, 0x7e, 0xbd, 0xa9, 0x9d, 0x24, 0xbe, 0x2a, 0xb6, 0xa2, 0x3d,
  0xb9, 0x37, 0xe7, 0xbd, 0xef, 0x6c, 0x0d, 0x3f, 0x20, 0x76, 0xb0, 0xbe,
  0x61, 0x9e, 0x09, 0x3c, 0x6e, 0x7c, 0xa2, 0xbd, 0xb7, 0xf4, 0xcd, 0x3d,
  0xf7, 0xd9, 0x23, 0xbe, 0xd2, 0xee, 0xfd, 0x3c, 0xed, 0xe9, 0x0b, 0xbe,
  0x70, 0x5e, 0x70, 0x3d, 0xf9, 0x87, 0xf2, 0xbe, 0x6f, 0xec, 0x70, 0xbe,
  0x6a, 0x8b, 0x57, 0x3d, 0x5e, 0x66, 0xfa, 0x3c, 0x4d, 0xc9, 0x9d, 0xbc,
  0xaf, 0x5e, 0x3e, 0x3e, 0x7a, 0x26, 0x0e, 0xbe, 0xfb, 0x35, 0x16, 0xbe,
  0x0f, 0x74, 0xa2, 0xbe, 0xa0, 0x0d, 0x9f, 0xbe, 0xa6, 0xa6, 0x01, 0x3c,
  0x84, 0x35, 0x45, 0xbd, 0x2e, 0xe4, 0x0b, 0x3e, 0x45, 0xe6, 0xa4, 0x3e,
  0xac, 0xef, 0x40, 0xbd, 0x3a, 0x6f, 0xe7, 0x3e, 0xf4, 0x06, 0xbd, 0xbe,
  0x3f, 0x1e, 0x04, 0xbd, 0x89, 0xc2, 0xa5, 0x3d, 0x62, 0x2d, 0x0a, 0x3e,
  0xbb, 0x1e, 0x81, 0xbe, 0xf1, 0xd0, 0xb2, 0x3e, 0x2b, 0xd0, 0x6f, 0xbe,
  0xe3, 0xbc, 0x37, 0x3c, 0xf5, 0xbf, 0x0f, 0xbf, 0x19, 0x9a, 0xb4, 0xbd,
  0xae, 0x93, 0x86, 0xbd, 0x66, 0xf7, 0x1a, 0xbc, 0x0c, 0x9d, 0x1e, 0xbf,
  0xea, 0xe5, 0x05, 0xbd, 0xd3, 0xfb, 0x99, 0xbe, 0xef, 0xa5, 0x0c, 0xbe,
  0xe0, 0xb7, 0x43, 0x3c, 0x93, 0x22, 0xc8, 0x3d, 0x2b, 0x50, 0xfb, 0x3d,
  0xdd, 0x87, 0x4d, 0xbc, 0x20, 0xa5, 0xed, 0xbe, 0xc4, 0x19, 0x1a, 0x3c,
  0x36, 0x66, 0x72, 0xbe, 0x2c, 0x1a, 0xb0, 0xbe, 0x73, 0xf3, 0x8d, 0x3d,
  0xdf, 0x1c, 0x6e, 0xbd, 0xeb, 0xea, 0xa8, 0x3d, 0x8a, 0x6d, 0x80, 0xbd,
  0x45, 0x0c, 0x8e, 0xbd, 0xf6, 0x30, 0x7a, 0xbe, 0xf2, 0x27, 0x3d, 0xbc,
  0x9f, 0x43, 0xb9, 0xbd, 0x21, 0x22, 0x89, 0xbe, 0xd6, 0x84, 0x97, 0x3e,
  0x61, 0x34, 0x2a, 0xbe, 0x84, 0x12, 0x10, 0xbe, 0x5d, 0xf1, 0x9b, 0xbe,
  0xd7, 0x60, 0xc3, 0xbe, 0x7d, 0x24, 0xac, 0xbd, 0xe9, 0x7b, 0xdf, 0xbd,
  0xe8, 0x9a, 0xfd, 0xbc, 0xac, 0x3c, 0xf4, 0xbb, 0xf4, 0xe8, 0xc0, 0x3e,
  0x82, 0x7b, 0x56, 0xbd, 0x17, 0x60, 0x12, 0x3e, 0xe4, 0x1d, 0x8a, 0xbe,
  0x9b, 0x4b, 0x2d, 0xbd, 0x14, 0x8b, 0x2d, 0xbc, 0xb4, 0x11, 0x81, 0xbe,
  0x44, 0x23, 0x42, 0xbd, 0x60, 0x36, 0x5f, 0x3e, 0x37, 0x05, 0x43, 0xbe,
  0x12, 0x68, 0x90, 0x3d, 0x8b, 0x08, 0xe8, 0xbe, 0x30, 0x0a, 0xcf, 0xbd,
  0xde, 0xbc, 0x65, 0x3e, 0x9d, 0x45, 0x42, 0xbe, 0x5d, 0x16, 0x72, 0x3e,
  0x1e, 0x3f, 0x3f, 0xbe, 0xbf, 0x16, 0x6a, 0xbe, 0x08, 0x66, 0xd2, 0x3d,
  0x93, 0x91, 0x5d, 0x3e, 0x8b, 0xa0, 0xf6, 0x3d, 0xc8, 0x92, 0x00, 0x3d,
  0x2c, 0xe5, 0x6e, 0xbd, 0x77, 0xb1, 0xf7, 0xbe, 0xb3, 0xad, 0xca, 0xbd,
  0x26, 0x2c, 0x6f, 0xbe, 0xc2, 0xa9, 0xd8, 0xbd, 0xa3, 0x77, 0xeb, 0xbd,
  0x0d, 0x09, 0x4a, 0x3d, 0x24, 0xa8, 0x86, 0xbd, 0x94, 0xfd, 0x00, 0x3e,
  0xda, 0x42, 0xf3, 0xbd, 0x7e, 0x00, 0x90, 0xbd, 0x2b, 0x56, 0x83, 0xbd,
  0xb6, 0x4e, 0x1a, 0x3f, 0x7c, 0xeb, 0xd9, 0x3d, 0x09, 0x73, 0x2c, 0xbe,
  0x9d, 0xa9, 0x34, 0xbe, 0x6e, 0xc0, 0xa6, 0x3d, 0xce, 0x34, 0x1b, 0xbe,
  0xb1, 0xc0, 0xc8, 0xbd, 0xcf, 0xc0, 0x81, 0x3d, 0x29, 0x55, 0xb0, 0xbd,
  0xe1, 0x52, 0x9a, 0xbd, 0x66, 0x78, 0x40, 0xbe, 0x18, 0xac, 0x9a, 0xbe,
  0x78, 0xce, 0x93, 0x3e, 0x87, 0xd2, 0x0a, 0x3e, 0xc5, 0x47, 0xe2, 0xbd,
  0xd8, 0x78, 0x8d, 0xbc, 0x07, 0x20, 0x5d, 0x3e, 0x5a, 0x22, 0x6f, 0xbe,
  0x96, 0x21, 0xd6, 0xbd, 0xde, 0x07, 0xea, 0x3d, 0x81, 0x45, 0x8e, 0xbe,
  0x90, 0x5c, 0x79, 0x3e, 0xf0, 0x98, 0xb9, 0xbe, 0x1e, 0xff, 0x1d, 0xbf,
  0x3c, 0xde, 0x73, 0xbe, 0xcd, 0xef, 0x9d, 0x3e, 0x1b, 0xd5, 0x32, 0xbd,
  0x2d, 0x61, 0x53, 0x3d, 0xcf, 0xe2, 0x10, 0xbf, 0xd0, 0x55, 0x4f, 0xbe,
  0x06, 0x32, 0x80, 0xbe, 0x2a, 0x87, 0x25, 0xbf, 0x81, 0x74, 0xf9, 0xbd,
  0xf3, 0x54, 0x29, 0x3b, 0xe7, 0x1c, 0x1c, 0xbd, 0x3e, 0xde, 0xb8, 0xbd,
  0x0d, 0x91, 0x06, 0xbc, 0xd0, 0x68, 0xdb, 0xbe, 0x17, 0xf5, 0xf7, 0x3b,
  0xa1, 0xb9, 0x05, 0xbe, 0xcd, 0x50, 0xb9, 0x3e, 0xe0, 0x88, 0x84, 0x3e,
  0xb9, 0x6c, 0x5a, 0xba, 0xa0, 0x30, 0x01, 0xbd, 0x9f, 0xe9, 0x26, 0x3f,
  0x25, 0xcc, 0xe8, 0x3c, 0x11, 0x21, 0x28, 0x3e, 0x45, 0x10, 0xf2, 0x38,
  0xeb, 0xb8, 0xa6, 0x3e, 0x66, 0xc8, 0xb7, 0x3d, 0xe9, 0x1a, 0x25, 0xbe,
  0x6f, 0x8d, 0x22, 0xbd, 0x5c, 0x8d, 0x81, 0x3d, 0xbb, 0x62, 0xd6, 0xbd,
  0xad, 0xbf, 0xe0, 0x3d, 0x89, 0xb2, 0xf1, 0x3c, 0xc0, 0x8a, 0x19, 0xbe,
  0xac, 0xf6, 0x6e, 0x3e, 0x5d, 0x62, 0x88, 0xbe, 0xb9, 0xbd, 0x07, 0xbc,
  0xff, 0xa4, 0x3b, 0x3d, 0xc7, 0x60, 0x26, 0xbd, 0x58, 0x1c, 0xc9, 0x3e,
  0x8c, 0xd9, 0x29, 0x3e, 0x86, 0x5f, 0x88, 0xbe, 0x36, 0x41, 0xd9, 0x3b,
  0x38, 0x54, 0x9e, 0xbe, 0x7b, 0x69, 0xa1, 0xbd, 0x51, 0xb0, 0x40, 0xbc,
  0x8b, 0xf9, 0x96, 0x3d, 0x43, 0xf3, 0x09, 0xbe, 0xb2, 0xa3, 0xc5, 0xbc,
  0x7c, 0x4c, 0x74, 0xbe, 0x9d, 0x3b, 0x70, 0x3e, 0x90, 0x93, 0xa1, 0xbe,
  0x3f, 0xb0, 0x09, 0xbe, 0x21, 0x12, 0x65, 0x3c, 0xb8, 0xb4, 0x8c, 0xbc,
  0xe8, 0x91, 0x89, 0x3e, 0x43, 0x11, 0x13, 0x3e, 0x6d, 0x49, 0x6e, 0xbe,
  0x2f, 0x31, 0x11, 0x3e, 0x3b, 0x22, 0x0c, 0x3e, 0x26, 0x0d, 0xcb, 0x3e,
  0xea, 0x33, 0x9b, 0xbd, 0x52, 0x8e, 0x01, 0xbd, 0xcc, 0x30, 0xae, 0xbd,
  0xec, 0x4e, 0x27, 0x3d, 0x62, 0x5c, 0x7d, 0xbe, 0x6f, 0x0c, 0x42, 0x3f,
  0x9c, 0x1a, 0x0a, 0xbd, 0x09, 0xef, 0x8f, 0x3d, 0xf7, 0x58, 0x42, 0xbd,
  0x8b, 0x1d, 0xc4, 0xbd, 0x4d, 0x71, 0x7a, 0x3d, 0x0f, 0x3c, 0xcc, 0xbc,
  0xb4, 0x79, 0x30, 0x3c, 0x84, 0xe7, 0xb5, 0xbd, 0xf1, 0x7c, 0xd7, 0xbd,
  0xb2, 0x3f, 0x1c, 0xbe, 0xb6, 0x82, 0xe3, 0xbd, 0xfc, 0x57, 0x1d, 0xbe,
  0xf5, 0xe0, 0x39, 0x3d, 0x9f, 0xad, 0xc0, 0xbc, 0x93, 0x0f, 0x77, 0xbe,
  0x50, 0x55, 0xa7, 0xbc, 0xf0, 0xdf, 0x18, 0xbe, 0xcf, 0x91, 0xc9, 0xbe,
  0xd7, 0xfd, 0xa8, 0xbd, 0xb2, 0xe7, 0x30, 0xbe, 0x20, 0x0e, 0xb7, 0xbd,
  0x99, 0x2d, 0x90, 0xbd, 0x1e, 0x54, 0xdf, 0xbe, 0xfc, 0xd1, 0x89, 0xbe,
  0xd4, 0x6b, 0xa6, 0xbe, 0x9f, 0xab, 0x13, 0xbf, 0x8d, 0x78, 0xb4, 0xbd,
  0x4b, 0x28, 0x8b, 0xbe, 0x6a, 0x89, 0x59, 0xbe, 0x22, 0x14, 0xb0, 0xbe,
  0x16, 0x76, 0xbf, 0xbd, 0x7f, 0x5b, 0x41, 0xbf, 0x39, 0xc6, 0xcd, 0xbd,
  0xc4, 0xd0, 0x2e, 0xbe, 0x00, 0x74, 0x08, 0x3d, 0x87, 0x0a, 0x03, 0xbe,
  0x41, 0x94, 0x93, 0x3c, 0x5d, 0x45, 0x56, 0x3d, 0x0a, 0x87, 0x28, 0x3d,
  0x89, 0xd8, 0x80, 0x3e, 0xaa, 0x0b, 0x00, 0xbe, 0xab, 0x7e, 0x6b, 0xbe,
  0xfc, 0xcb, 0xca, 0xbd, 0x69, 0x50, 0x2b, 0xbe, 0x17, 0x6c, 0x86, 0x3e,
  0xc2, 0x8b, 0x11, 0x3e, 0xaa, 0x1f, 0x55, 0x3c, 0x2a, 0x86, 0xc4, 0xbe,
  0xd8, 0x32, 0x22, 0xbd, 0x43, 0xa7, 0xb3, 0xbd, 0x2d, 0xe1, 0x9d, 0x3e,
  0x76, 0xc8, 0x65, 0xbe, 0xc8, 0xd8, 0x5b, 0x3d, 0xef, 0x0a, 0x4c, 0x3e,
  0x7d, 0x8a, 0xd7, 0x3b, 0x3a, 0x12, 0x8c, 0xbe, 0x29, 0x4c, 0xca, 0xbe,
  0xe2, 0x5b, 0xbd, 0xbe, 0xea, 0xc9, 0xf4, 0x3d, 0x9c, 0xaa, 0xfb, 0x3d,
  0x6c, 0xf5, 0x0a, 0xbf, 0xda, 0x99, 0x0b, 0x3d, 0xbf, 0x11, 0xc5, 0x3d,
  0x9b, 0x78, 0x8e, 0xbe, 0x32, 0x24, 0x8c, 0xbe, 0xaf, 0x59, 0x6a, 0xbe,
  0xf1, 0x6c, 0x32, 0x3e, 0x2f, 0x76, 0x31, 0xbe, 0x84, 0x24, 0xbc, 0xbe,
  0x30, 0xed, 0x39, 0xbe, 0xa6, 0xbb, 0xb5, 0x3e, 0xc8, 0x89, 0x0c, 0x3e,
  0xdc, 0xef, 0xb1, 0xbe, 0x1b, 0x6e, 0x81, 0xbe, 0x7b, 0xd4, 0x62, 0x3e,
  0x09, 0xc0, 0xdc, 0x3d, 0x00, 0x6b, 0x1e, 0xbf, 0x7f, 0x1e, 0xf3, 0x3d,
  0xe2, 0xd3, 0x62, 0x3e, 0x7f, 0x11, 0x85, 0xbd, 0x2f, 0xac, 0x78, 0xbe,
  0x19, 0x59, 0xb8, 0xbe, 0x5c, 0xfe, 0x0f, 0x3e, 0xeb, 0x1a, 0xfa, 0xbd,
  0x27, 0x88, 0xa5, 0xbe, 0x30, 0xa6, 0x94, 0x3d, 0x3b, 0x7a, 0x6c, 0x3e,
  0x3e, 0x00, 0x11, 0xbe, 0x93, 0x17, 0x9a, 0xbd, 0xf5, 0xac, 0x95, 0xbe,
  0xc7, 0x66, 0x47, 0x3e, 0x5e, 0x66, 0xdb, 0xbd, 0xd3, 0x75, 0x5f, 0xbc,
  0xca, 0x0a, 0x55, 0x3c, 0xe0, 0xca, 0xeb, 0x3e, 0x04, 0xc3, 0x3c, 0xbe,
  0x11, 0x81, 0x87, 0xbd, 0x06, 0x0f, 0x02, 0xbe, 0xe1, 0xdd, 0xd9, 0x3e,
  0x0f, 0x82, 0x9b, 0x3d, 0xc8, 0xb7, 0x6d, 0xbe, 0x0c, 0xfa, 0xdd, 0xbe,
  0xbd, 0x03, 0x90, 0xbe, 0xfd, 0x2d, 0x98, 0xbd, 0xcd, 0xa5, 0x4a, 0xbe,
  0xdc, 0x26, 0xdb, 0x3e, 0xf8, 0xce, 0xa2, 0x3e, 0x30, 0x40, 0xcc, 0x3e,
  0xad, 0x98, 0x11, 0xbf, 0x04, 0x36, 0x55, 0xbf, 0x50, 0x54, 0xe3, 0xbe,
  0xf1, 0xe8, 0xb0, 0xbc, 0x26, 0x55, 0xd1, 0xbc, 0x20, 0xdf, 0x29, 0x3e,
  0x66, 0x93, 0x45, 0xbe, 0xa0, 0xec, 0x22, 0xbe, 0x11, 0x9d, 0x26, 0xbe,
  0x66, 0xc4, 0x18, 0xbf, 0x5b, 0xc9, 0xfa, 0xbb, 0xeb, 0x02, 0xab, 0xbc,
  0xa4, 0x01, 0x9e, 0xbe, 0x27, 0x24, 0xc5, 0x3d, 0x1c, 0x53, 0x9d, 0x3e,
  0x1e, 0x01, 0xda, 0xbd, 0xd4, 0x5a, 0x82, 0xbe, 0x36, 0xe6, 0x05, 0xbf,
  0x37, 0x1a, 0x63, 0xbc, 0x11, 0xa4, 0x27, 0x3e, 0x8b, 0x7b, 0x6a, 0xbe,
  0x22, 0x7a, 0x9c, 0x3d, 0x4b, 0xd3, 0x3d, 0x3e, 0x05, 0x33, 0x91, 0x3e,
  0x08, 0x65, 0xd2, 0x3e, 0x8f, 0x1e, 0x0c, 0xbe, 0x6a, 0xc3, 0xe0, 0x3c,
  0x31, 0x52, 0x03, 0xbc, 0x93, 0x42, 0x5e, 0xbe, 0x05, 0xb9, 0x4b, 0xbe,
  0x1e, 0xf8, 0x63, 0x3e, 0x02, 0xe4, 0x8a, 0xbd, 0x84, 0xa6, 0x8e, 0x3e,
  0x08, 0xc3, 0x27, 0xbe, 0x7e, 0x87, 0xda, 0xbd, 0x96, 0x4b, 0x6f, 0x3c,
  0xfc, 0xa3, 0x72, 0xbe, 0x76, 0xc5, 0x26, 0xbe, 0xd0, 0x41, 0xb2, 0x3d,
  0x63, 0xe4, 0x96, 0x3d, 0x4d, 0x59, 0x13, 0x3e, 0xa2, 0xad, 0x39, 0xbe,
  0xe8, 0xe7, 0x21, 0xbe, 0x86, 0x16, 0x28, 0x3e, 0x5b, 0x5e, 0x4e, 0xbd,
  0xac, 0x8c, 0x7d, 0xbe, 0xf0, 0x6f, 0xfe, 0xbd, 0xec, 0xa3, 0x89, 0xbe,
  0x53, 0x2c, 0xa4, 0xbd, 0x88, 0xca, 0x40, 0xbd, 0x88, 0xa6, 0x94, 0x3d,
  0xa9, 0x3e, 0x8e, 0xbe, 0xf1, 0x56, 0x2e, 0xbd, 0xb4, 0x3e, 0x8a, 0xbe,
  0x36, 0xef, 0xc5, 0x3e, 0x34, 0x36, 0x89, 0xbd, 0xfa, 0x0b, 0x28, 0xbe,
  0x4d, 0xc1, 0xf6, 0xbd, 0x7e, 0x5e, 0x84, 0x3d, 0x95, 0x6c, 0x99, 0xbd,
  0x4a, 0xaf, 0xfe, 0x3c, 0xb9, 0x14, 0x81, 0x3e, 0x34, 0xa7, 0xfe, 0x3e,
  0x1a, 0x2a, 0x00, 0x3f, 0x38, 0xaa, 0x37, 0xbe, 0xae, 0x72, 0xee, 0xbd,
  0x58, 0x1b, 0xd9, 0xbd, 0xa2, 0x06, 0x06, 0x3d, 0x9c, 0x70, 0x7f, 0x3e,
  0x0e, 0x22, 0x87, 0xbd, 0xb1, 0xfe, 0x6d, 0xbe, 0xb9, 0x48, 0x64, 0xbe,
  0x4e, 0xd8, 0xe3, 0xbd, 0x47, 0x31, 0x31, 0xbd, 0x5c, 0xd4, 0x30, 0xbe,
  0xe3, 0x31, 0xaa, 0x3c, 0x26, 0xde, 0xff, 0xff, 0x10, 0x00, 0x00, 0x00,
  0x0a, 0x00, 0x00, 0x00, 0x1c, 0x00, 0x00, 0x00, 0x38, 0x00, 0x00, 0x00,
  0x04, 0x00, 0x00, 0x00, 0x10, 0x00, 0x00, 0x00, 0x04, 0x00, 0x00, 0x00,
  0x01, 0x00, 0x00, 0x00, 0x08, 0x00, 0x00, 0x00, 0x1a, 0x00, 0x00, 0x00,
  0x73, 0x65, 0x71, 0x75, 0x65, 0x6e, 0x74, 0x69, 0x61, 0x6c, 0x2f, 0x63,
  0x6f, 0x6e, 0x76, 0x32, 0x64, 0x5f, 0x31, 0x2f, 0x43, 0x6f, 0x6e, 0x76,
  0x32, 0x44, 0x00, 0x00, 0x9c, 0xdd, 0xff, 0xff, 0xa6, 0xde, 0xff, 0xff,
  0x04, 0x00, 0x00, 0x00, 0x80, 0x01, 0x00, 0x00, 0xde, 0x94, 0x2b, 0x3e,
  0xc2, 0x8a, 0x1d, 0x3d, 0x7c, 0x7b, 0x9c, 0x3d, 0x87, 0xe4, 0xaa, 0x3d,
  0x27, 0x10, 0x01, 0x3e, 0x98, 0x58, 0x80, 0x3d, 0x25, 0xfb, 0xe2, 0xbd,
  0x17, 0x22, 0x82, 0x3e, 0xef, 0x75, 0xa0, 0x3d, 0xe8, 0x29, 0xfd, 0xbd,
  0x90, 0xdd, 0x5d, 0x3e, 0x97, 0xc9, 0xa3, 0x3d, 0x2f, 0xf3, 0x97, 0xbe,
  0x72, 0xe0, 0x14, 0x3e, 0xec, 0xf9, 0x76, 0x3d, 0xce, 0x7d, 0x23, 0xbe,
  0x4a, 0x27, 0x4b, 0x3e, 0x5c, 0xa6, 0x31, 0xbc, 0x29, 0x67, 0xd9, 0x3e,
  0xd7, 0x6b, 0xd3, 0xbc, 0x59, 0x4b, 0x6a, 0x3d, 0x5a, 0x31, 0xc3, 0x3d,
  0x75, 0xbd, 0xe8, 0xbd, 0xba, 0x88, 0x27, 0xbd, 0xb1, 0x09, 0x52, 0x3e,
  0x83, 0x73, 0xfa, 0xbc, 0xce, 0x0d, 0xcb, 0x38, 0xa6, 0x43, 0x19, 0x3f,
  0x9f, 0x73, 0x5e, 0x3e, 0x99, 0x55, 0x85, 0xbe, 0x21, 0xa5, 0x01, 0x3e,
  0x2f, 0x64, 0xa9, 0x3d, 0x78, 0xef, 0x95, 0x3e, 0xed, 0x77, 0x38, 0xbf,
  0xa9, 0x0c, 0x71, 0xbe, 0x77, 0x1b, 0xea, 0x3d, 0x12, 0xc1, 0x31, 0x3e,
  0x28, 0x67, 0xcf, 0x3e, 0x76, 0xb5, 0x8a, 0x3d, 0x0b, 0x6f, 0xd7, 0xbc,
  0x49, 0x44, 0x6c, 0xbc, 0x7c, 0xcd, 0x9a, 0x3d, 0x1d, 0x64, 0x33, 0x3d,
  0x25, 0x12, 0x96, 0xbe, 0xd3, 0x0c, 0x3f, 0xbe, 0x06, 0x0e, 0xed, 0xbd,
  0x38, 0x8c, 0x02, 0xbe, 0xd4, 0xa7, 0xa0, 0x3d, 0x59, 0x0f, 0x9e, 0x3e,
  0xe3, 0x02, 0x17, 0x3e, 0xf5, 0x1b, 0x81, 0xbe, 0xd0, 0x04, 0x0d, 0x3f,
  0x97, 0x10, 0xae, 0xbd, 0xed, 0xd2, 0x03, 0x3e, 0x36, 0x15, 0x72, 0x3f,
  0xbc, 0x9e, 0xf0, 0x3d, 0x60, 0xe6, 0x17, 0xbd, 0xa4, 0x63, 0x2d, 0xbf,
  0xfe, 0xf9, 0xe8, 0x3e, 0x52, 0xfd, 0x15, 0x3e, 0xc8, 0x2b, 0xbc, 0x3e,
  0x3d, 0x95, 0x67, 0x3d, 0x3f, 0x13, 0x5d, 0xbe, 0x73, 0x09, 0x32, 0x3e,
  0xa9, 0x61, 0xc4, 0x3c, 0x1b, 0x8f, 0xe1, 0x3b, 0x45, 0x65, 0x74, 0x3e,
  0x72, 0xa1, 0x8d, 0x3d, 0xdd, 0x15, 0x4c, 0x3d, 0xdd, 0x19, 0x93, 0x3e,
  0x8b, 0x32, 0x21, 0x3e, 0x9e, 0x62, 0x74, 0x3d, 0x6e, 0x2f, 0x0b, 0x3d,
  0xd4, 0x5d, 0x82, 0x3e, 0xed, 0xc7, 0x83, 0x3e, 0x96, 0x2d, 0x2d, 0x3e,
  0x65, 0x9d, 0x51, 0xbb, 0x08, 0x0b, 0x86, 0x3c, 0xb3, 0x1b, 0x9d, 0x3e,
  0xa4, 0x0a, 0xcb, 0x38, 0xc3, 0x21, 0x41, 0x3d, 0x43, 0x25, 0xbf, 0x3e,
  0x59, 0x24, 0x5e, 0xbd, 0xe8, 0x43, 0x2c, 0xbd, 0x1f, 0x3b, 0x80, 0x3d,
  0x99, 0x05, 0xca, 0xbe, 0x7a, 0xcf, 0x67, 0x3e, 0x8c, 0xf4, 0x48, 0x3e,
  0x72, 0x97, 0xe3, 0xbd, 0x95, 0x8a, 0xbd, 0x3e, 0xa0, 0xc5, 0x9f, 0x3c,
  0x69, 0xa1, 0x0e, 0x3e, 0x3b, 0x8e, 0x4f, 0xbe, 0x7b, 0xac, 0x6c, 0xbe,
  0x4e, 0xa7, 0xc4, 0x3e, 0xf9, 0x8e, 0xc5, 0xbe, 0xfe, 0xdf, 0xff, 0xff,
  0x10, 0x00, 0x00, 0x00, 0x09, 0x00, 0x00, 0x00, 0x1c, 0x00, 0x00, 0x00,
  0x38, 0x00, 0x00, 0x00, 0x04, 0x00, 0x00, 0x00, 0x08, 0x00, 0x00, 0x00,
  0x04, 0x00, 0x00, 0x00, 0x03, 0x00, 0x00, 0x00, 0x01, 0x00, 0x00, 0x00,
  0x18, 0x00, 0x00, 0x00, 0x73, 0x65, 0x71, 0x75, 0x65, 0x6e, 0x74, 0x69,
  0x61, 0x6c, 0x2f, 0x63, 0x6f, 0x6e, 0x76, 0x32, 0x64, 0x2f, 0x43, 0x6f,
  0x6e, 0x76, 0x32, 0x44, 0x00, 0x00, 0x00, 0x00, 0x74, 0xdf, 0xff, 0xff,
  0x7e, 0xe0, 0xff, 0xff, 0x04, 0x00, 0x00, 0x00, 0xc0, 0x00, 0x00, 0x00,
  0xbc, 0x29, 0x29, 0xbe, 0xfb, 0x22, 0x80, 0x3e, 0x3b, 0x0d, 0x40, 0x3e,
  0x51, 0x34, 0x92, 0xbd, 0x97, 0xcb, 0x23, 0x3e, 0xc5, 0xd8, 0x36, 0x3e,
  0xa4, 0xf8, 0x6c, 0x3e, 0x2c, 0xec, 0xa0, 0x3e, 0x93, 0x0d, 0xad, 0xbe,
  0x50, 0x8e, 0x9b, 0x3e, 0x2e, 0x60, 0xde, 0xbd, 0x33, 0x06, 0xbd, 0xbe,
  0x09, 0x63, 0x2b, 0xbe, 0x58, 0x6d, 0x08, 0x3d, 0x1e, 0x08, 0x30, 0x3d,
  0x88, 0xcf, 0x08, 0xbe, 0xfa, 0x53, 0x12, 0x3e, 0x00, 0xfd, 0xad, 0x3e,
  0xea, 0x55, 0x04, 0x3e, 0xd0, 0xb3, 0x0d, 0xbe, 0xaf, 0x18, 0xac, 0x3e,
  0x68, 0x81, 0x82, 0x3e, 0xff, 0xb3, 0x4e, 0x3e, 0x98, 0xa3, 0x3b, 0xbe,
  0xe3, 0x98, 0xd2, 0xbe, 0x95, 0x34, 0xa2, 0x3e, 0xff, 0x06, 0xa4, 0x3e,
  0xc5, 0x4a, 0xb2, 0xbe, 0xc2, 0xac, 0x31, 0xbe, 0x4b, 0xbf, 0xa8, 0xbc,
  0x5d, 0x65, 0x0d, 0x3d, 0xb4, 0x64, 0x66, 0xbe, 0xa3, 0x7c, 0x22, 0x3e,
  0xd7, 0x4a, 0x65, 0x3e, 0x5c, 0x66, 0x70, 0x3e, 0x64, 0xe4, 0xdf, 0xbd,
  0xed, 0xc4, 0x82, 0xbe, 0x5a, 0x7a, 0x2a, 0x3e, 0xa8, 0x83, 0x8d, 0x3e,
  0xf1, 0x2a, 0x88, 0xbe, 0xcf, 0xc3, 0xc3, 0xbe, 0xbf, 0xdf, 0xc8, 0x3e,
  0x31, 0xee, 0x79, 0xbe, 0x7b, 0x96, 0xa0, 0xbe, 0xe2, 0xc1, 0xdd, 0xbd,
  0x97, 0x89, 0xbb, 0x3d, 0x9c, 0x76, 0x1f, 0xbd, 0x6f, 0x6d, 0x3c, 0xbe,
  0x16, 0xe1, 0xff, 0xff, 0x10, 0x00, 0x00, 0x00, 0x08, 0x00, 0x00, 0x00,
  0x14, 0x00, 0x00, 0x00, 0x30, 0x00, 0x00, 0x00, 0x02, 0x00, 0x00, 0x00,
  0x03, 0x00, 0x00, 0x00, 0x10, 0x00, 0x00, 0x00, 0x19, 0x00, 0x00, 0x00,
  0x73, 0x65, 0x71, 0x75, 0x65, 0x6e, 0x74, 0x69, 0x61, 0x6c, 0x2f, 0x64,
  0x65, 0x6e, 0x73, 0x65, 0x5f, 0x31, 0x2f, 0x4d, 0x61, 0x74, 0x4d, 0x75,
  0x6c, 0x00, 0x00, 0x00, 0x84, 0xe0, 0xff, 0xff, 0x8e, 0xe1, 0xff, 0xff,
  0x04, 0x00, 0x00, 0x00, 0x00, 0x1c, 0x00, 0x00, 0x25, 0x8b, 0x32, 0xbe,
  0xf6, 0x5e, 0x9a, 0xbd, 0xc0, 0xee, 0x4d, 0x3e, 0xbc, 0x9c, 0x8e, 0xbe,
  0x11, 0x8e, 0x8d, 0xbe, 0xe0, 0x8a, 0x9b, 0x3e, 0x00, 0x61, 0x26, 0x3e,
  0x0b, 0x05, 0x30, 0xbe, 0x5f, 0x23, 0xc7, 0xbd, 0xd8, 0x99, 0x3b, 0x3e,
  0x06, 0xca, 0x0e, 0xbe, 0xf2, 0x0b, 0x94, 0xbe, 0x7a, 0x26, 0xf2, 0x3e,
  0xd8, 0x9d, 0x8b, 0xbb, 0xf6, 0xc2, 0xad, 0xbd, 0xc1, 0xf9, 0x9d, 0xbe,
  0x2a, 0xb5, 0xef, 0x3b, 0x54, 0xad, 0x15, 0xbe, 0xac, 0xf9, 0x34, 0x3e,
  0x9e, 0xfc, 0xcb, 0xbd, 0xc0, 0xb1, 0x25, 0x3e, 0xb8, 0x81, 0x9a, 0xbd,
  0xf0, 0x8e, 0x20, 0x38, 0x15, 0xdd, 0xb9, 0xbd, 0xb5, 0xf1, 0x1c, 0x3d,
  0x32, 0x77, 0x50, 0xbc, 0xf7, 0xf5, 0x2a, 0xbe, 0x5e, 0x7f, 0x2c, 0xbe,
  0x92, 0xf2, 0x74, 0x3e, 0x5b, 0x6c, 0x3f, 0x3b, 0xed, 0x2c, 0xc2, 0x3d,
  0xd5, 0x16, 0xfc, 0x3d, 0xcf, 0xbb, 0x9d, 0x3c, 0x67, 0xb8, 0x0d, 0x3e,
  0x53, 0xdc, 0x7e, 0x3b, 0x84, 0x25, 0x8d, 0xbe, 0x1c, 0x97, 0xdb, 0xbd,
  0xb2, 0xcd, 0x0a, 0xbd, 0x73, 0xde, 0xe1, 0xbc, 0x08, 0xe9, 0x0b, 0xbe,
  0x55, 0xdf, 0x97, 0xbe, 0xc0, 0x38, 0x71, 0xbd, 0x03, 0x1d, 0x29, 0x3d,
  0x59, 0x74, 0xca, 0x3d, 0x67, 0x72, 0x14, 0x3d, 0x6c, 0x92, 0x67, 0xbd,
  0xce, 0xc1, 0xc9, 0x3d, 0xce, 0xee, 0x2a, 0xbc, 0xef, 0x0a, 0x14, 0x3e,
  0xa6, 0x28, 0xe0, 0xbd, 0x64, 0xf4, 0x8b, 0xbe, 0xa2, 0xa5, 0x6c, 0xbe,
  0x8e, 0x97, 0x32, 0xbe, 0xa0, 0x0d, 0x3f, 0xbe, 0x4a, 0x39, 0x3c, 0xbe,
  0xcd, 0x38, 0xd2, 0x3d, 0xb6, 0xb0, 0x79, 0xbd, 0xf5, 0x1a, 0xd9, 0x3d,
  0x31, 0x41, 0x79, 0xbd, 0xb4, 0x25, 0x75, 0xbd, 0x16, 0x91, 0x7e, 0x3e,
  0xc9, 0x93, 0x84, 0xbd, 0x1e, 0xe8, 0x74, 0xbe, 0x40, 0x34, 0x2c, 0xbe,
  0x5a, 0xdb, 0xb6, 0x3d, 0x8c, 0xbd, 0x46, 0xbd, 0x40, 0x00, 0x85, 0x3d,
  0x9e, 0xac, 0xac, 0xbd, 0xe5, 0x91, 0xfd, 0xbd, 0x61, 0x36, 0x2a, 0xbe,
  0x8a, 0xdb, 0xe1, 0x3c, 0x59, 0x39, 0xca, 0xbd, 0x31, 0xec, 0x61, 0xbe,
  0xbf, 0x6a, 0x1e, 0xbe, 0x32, 0x78, 0x89, 0x3e, 0xfd, 0xa5, 0x11, 0x3e,
  0xd9, 0xce, 0x3d, 0x3e, 0x4c, 0xa1, 0x01, 0xbd, 0x9d, 0x1a, 0x67, 0xbe,
  0x25, 0xb0, 0x8c, 0x3d, 0xcb, 0x46, 0xc9, 0x3d, 0xdb, 0xa8, 0x1c, 0x3e,
  0x15, 0x3e, 0x39, 0xbd, 0xbb, 0x36, 0xd1, 0x3d, 0xf4, 0x4f, 0x7b, 0xbc,
  0x64, 0x37, 0x1d, 0xbe, 0x91, 0x0a, 0x99, 0x3d, 0xc3, 0xd7, 0xc0, 0xbe,
  0xf9, 0xb5, 0x54, 0x3c, 0xd6, 0xf2, 0xd7, 0x3d, 0xc0, 0x0b, 0x38, 0xbe,
  0x02, 0xc1, 0x15, 0xbe, 0xfb, 0x00, 0x8a, 0xbd, 0x8c, 0xdc, 0xcd, 0x3d,
  0x4b, 0x4c, 0xed, 0x3b, 0x3c, 0x52, 0xe6, 0xbd, 0x4f, 0x8b, 0x0d, 0xbe,
  0x96, 0x7a, 0x68, 0x3e, 0xb1, 0x6f, 0x73, 0x3d, 0x15, 0x16, 0x40, 0xbe,
  0x18, 0xbb, 0x72, 0xbe, 0xc3, 0xa9, 0x9c, 0x3c, 0x65, 0x97, 0xb7, 0xbd,
  0xb2, 0x05, 0x43, 0xbd, 0x4d, 0x0a, 0x6e, 0xbe, 0x7b, 0xf9, 0x07, 0x3c,
  0x49, 0x26, 0xf9, 0xbe, 0x83, 0xd3, 0x18, 0x3e, 0x97, 0xd0, 0x89, 0x3e,
  0x7c, 0x10, 0xde, 0x3c, 0x7d, 0xaa, 0xaf, 0xbe, 0x87, 0xfb, 0xeb, 0xbd,
  0xce, 0x8f, 0x90, 0x3d, 0x1a, 0xf5, 0x20, 0x3e, 0x45, 0x88, 0xbd, 0x3d,
  0x90, 0xaa, 0xd3, 0xbc, 0x45, 0xf3, 0x0e, 0xbe, 0x58, 0x6d, 0x9c, 0xbe,
  0xbf, 0xd1, 0x82, 0xbe, 0xab, 0xc9, 0xd6, 0x3d, 0x0e, 0xe7, 0x99, 0xbe,
  0xe3, 0xb2, 0x00, 0xbf, 0x45, 0xfa, 0x22, 0xbd, 0x27, 0x17, 0x6b, 0xbc,
  0xb8, 0x95, 0x5c, 0xbe, 0x02, 0x79, 0x8e, 0xbe, 0x87, 0x8e, 0x57, 0xbe,
  0xa5, 0xc7, 0xa9, 0x3d, 0x96, 0x37, 0xa9, 0xbd, 0x1e, 0xcc, 0xed, 0x3d,
  0x3b, 0x85, 0x9d, 0xbe, 0x2f, 0x10, 0xd1, 0x3c, 0xc7, 0xb2, 0xd2, 0x3d,
  0xd7, 0x5e, 0x89, 0x3e, 0x3f, 0x2f, 0xa4, 0xbc, 0x53, 0x01, 0x35, 0xbd,
  0x94, 0xde, 0xba, 0xbe, 0x6e, 0xed, 0x26, 0xbe, 0xd9, 0x80, 0xa2, 0x3e,
  0xe1, 0x01, 0xa5, 0xbd, 0x23, 0x4a, 0x9c, 0xbd, 0x32, 0xa5, 0x6e, 0xbd,
  0x12, 0xc2, 0x45, 0xbe, 0x94, 0x2b, 0x4a, 0x3e, 0xbe, 0x91, 0x37, 0xbe,
  0x8a, 0xc5, 0x4d, 0x3d, 0x92, 0x8e, 0x32, 0xbe, 0x10, 0x91, 0xf4, 0x3d,
  0x9b, 0xd8, 0x59, 0x3e, 0x23, 0x0b, 0xbd, 0x3e, 0x08, 0x67, 0x77, 0xbd,
  0x6d, 0xa4, 0xd1, 0xbd, 0x37, 0xf3, 0x5d, 0xbe, 0x08, 0xf8, 0xe5, 0xbd,
  0xc2, 0x9b, 0xcd, 0x3e, 0x70, 0xcc, 0x6a, 0xbe, 0x55, 0x0b, 0x84, 0xbb,
  0xa7, 0x73, 0xbb, 0xbd, 0xc5, 0x0b, 0x72, 0xbd, 0xa8, 0xda, 0xd7, 0x3d,
  0x5d, 0x15, 0xad, 0xbe, 0x4b, 0x61, 0x43, 0x3c, 0x96, 0x77, 0x89, 0xbc,
  0x66, 0x4e, 0x2b, 0x3d, 0xa3, 0xc2, 0x1b, 0x3e, 0x0d, 0x59, 0xde, 0x3d,
  0x7c, 0xff, 0x6f, 0xbd, 0x08, 0x0c, 0x16, 0xbe, 0x2f, 0x0c, 0x6b, 0xbe,
  0x16, 0xdd, 0x82, 0x3d, 0x50, 0x19, 0x5a, 0x3e, 0x02, 0xa9, 0x87, 0x3d,
  0x74, 0x50, 0x04, 0x3e, 0xc4, 0xf3, 0x2b, 0xbe, 0x42, 0xa7, 0xfd, 0xbd,
  0x2e, 0x16, 0xfe, 0x3d, 0x21, 0x2f, 0x50, 0xbd, 0x63, 0xbc, 0x67, 0xbd,
  0x90, 0xf9, 0x97, 0xbd, 0x4f, 0x4d, 0xca, 0x3d, 0xd4, 0xb4, 0x0c, 0x3e,
  0x80, 0x34, 0x29, 0x3e, 0x45, 0xf4, 0xf9, 0x3d, 0xfe, 0xe2, 0x67, 0x3c,
  0x33, 0x91, 0x91, 0xbe, 0x72, 0x7b, 0xab, 0x3b, 0x67, 0xd6, 0x21, 0x3e,
  0xf4, 0x47, 0x10, 0x3e, 0x9b, 0xd3, 0x66, 0x3e, 0x71, 0x3f, 0x90, 0xbe,
  0xef, 0x69, 0x9a, 0xbd, 0x9b, 0x89, 0x0c, 0xbd, 0x48, 0x95, 0x7f, 0xbe,
  0x4a, 0x69, 0x1a, 0xbe, 0xe3, 0x7c, 0xea, 0xbe, 0x9b, 0xdf, 0xdb, 0x3d,
  0xe8, 0x44, 0x46, 0x3e, 0xf8, 0xcb, 0xba, 0x3d, 0xf8, 0x7f, 0xe6, 0x3d,
  0x0c, 0xcb, 0xaf, 0xbe, 0x1b, 0xfa, 0x60, 0xbe, 0xe5, 0x81, 0x3c, 0x3e,
  0x87, 0x48, 0x2b, 0x3e, 0x06, 0xfb, 0x51, 0x3d, 0x76, 0x9f, 0xc8, 0x3e,
  0x1c, 0x34, 0xd7, 0xbd, 0x64, 0x66, 0x2e, 0xbe, 0xf2, 0xa9, 0x00, 0x3d,
  0xf2, 0x52, 0xd0, 0xbe, 0x80, 0x17, 0xe3, 0xbe, 0x67, 0x92, 0x75, 0xbe,
  0x4e, 0x9a, 0xee, 0xbd, 0x49, 0xaf, 0x36, 0xbd, 0xa5, 0x0d, 0xcf, 0x3e,
  0x23, 0x66, 0xd1, 0xbd, 0xd5, 0x6c, 0x2f, 0xbf, 0x6d, 0xbd, 0x6d, 0xbe,
  0x4a, 0xa4, 0x0e, 0x3d, 0xec, 0x66, 0x9d, 0xbc, 0x28, 0x66, 0x46, 0x3e,
  0xed, 0x22, 0xb0, 0x3e, 0x59, 0x95, 0xd9, 0xbe, 0x05, 0x0c, 0xa2, 0xbc,
  0x3b, 0x3a, 0xdd, 0xbe, 0x98, 0xf0, 0x13, 0xbe, 0x7f, 0x5b, 0x9b, 0xbe,
  0x03, 0x30, 0x0d, 0x3f, 0x96, 0xc5, 0xc3, 0xbd, 0x26, 0x86, 0x49, 0xbe,
  0x5b, 0xd6, 0x10, 0x3e, 0xcb, 0x2e, 0x72, 0x3e, 0x5a, 0x19, 0xa2, 0x3c,
  0xe4, 0xe1, 0xd7, 0xbd, 0xbe, 0xbd, 0x0d, 0x3e, 0x29, 0xc3, 0xe3, 0xbc,
  0xe4, 0x3f, 0x63, 0x3e, 0x7e, 0x68, 0x37, 0x3e, 0xa3, 0x79, 0x15, 0xbe,
  0x7e, 0xec, 0x92, 0x3e, 0xf5, 0x90, 0xb5, 0xbe, 0x39, 0xd0, 0x64, 0xbe,
  0x40, 0x77, 0xc7, 0xbe, 0x44, 0xf1, 0x0f, 0x3f, 0x14, 0xd9, 0x22, 0x3d,
  0xc1, 0xa2, 0xb8, 0xbe, 0x1e, 0xb1, 0xef, 0x3b, 0xab, 0xed, 0xc0, 0x3d,
  0xca, 0xb3, 0x9b, 0xbe, 0x60, 0xc3, 0x91, 0x3c, 0x98, 0xa5, 0xb0, 0x3d,
  0x0f, 0x89, 0x38, 0xbe, 0x3e, 0x8c, 0x5b, 0x3e, 0x0e, 0x33, 0x26, 0x3e,
  0xc8, 0x91, 0x81, 0x3e, 0x12, 0x81, 0xe9, 0x3e, 0x10, 0x3d, 0x83, 0xbe,
  0x30, 0xbc, 0x4b, 0x3e, 0x97, 0x35, 0x16, 0xbe, 0x4c, 0x3b, 0x1f, 0x3f,
  0x14, 0xa0, 0x7a, 0xbd, 0x97, 0x01, 0x4e, 0xbe, 0x07, 0xe7, 0xb6, 0x3d,
  0x61, 0x0e, 0xe7, 0xbb, 0x2c, 0x03, 0x88, 0xbe, 0x22, 0xc6, 0x21, 0x3e,
  0x00, 0x2e, 0x19, 0x3d, 0x8a, 0xbc, 0xa8, 0xbe, 0x9f, 0xde, 0xbf, 0x3d,
  0x2e, 0xf1, 0x3b, 0xbe, 0xab, 0x9b, 0x2a, 0x3d, 0xa4, 0x7b, 0x8b, 0x3e,
  0x53, 0xf8, 0xcf, 0xbe, 0x6f, 0x15, 0xa4, 0xbc, 0xb0, 0x0a, 0xe7, 0xbe,
  0x9d, 0x64, 0x14, 0x3e, 0x13, 0xde, 0x07, 0x3d, 0xc5, 0xf7, 0x41, 0xbe,
  0xfa, 0x8b, 0xa7, 0x3c, 0x39, 0xfe, 0xb0, 0xbd, 0x1a, 0x1e, 0x2c, 0xbe,
  0x9d, 0x66, 0x61, 0x3e, 0x1b, 0x0b, 0xb1, 0x3a, 0x25, 0x1d, 0x73, 0x3d,
  0xda, 0x06, 0xd1, 0xbd, 0xab, 0x87, 0xca, 0x3e, 0xf6, 0x33, 0x8f, 0x3d,
  0xa9, 0x89, 0x4a, 0x3e, 0x6e, 0x05, 0xba, 0xbe, 0x29, 0x44, 0x48, 0xbc,
  0x06, 0x66, 0x1c, 0xbe, 0xd1, 0x1d, 0xe7, 0x3e, 0x47, 0xfe, 0x4a, 0xbd,
  0xcf, 0x59, 0x63, 0xbd, 0xc7, 0x59, 0x2d, 0x3c, 0x60, 0x0c, 0x5a, 0xbd,
  0x51, 0x82, 0x00, 0xbd, 0xfb, 0xad, 0x2e, 0x3e, 0x24, 0x92, 0x32, 0x3e,
  0x2e, 0x1a, 0x04, 0x3d, 0xda, 0x5a, 0x49, 0xbd, 0x90, 0x67, 0x6d, 0x3e,
  0xba, 0xb5, 0x52, 0x3d, 0xfb, 0xaa, 0x54, 0x3d, 0x26, 0xa1, 0x84, 0xbe,
  0x10, 0xb4, 0x11, 0xbe, 0x77, 0xcd, 0x84, 0xbe, 0xa6, 0xb6, 0xbd, 0x3e,
  0x41, 0xe1, 0x67, 0xbe, 0xb4, 0x08, 0x39, 0xbe, 0x36, 0x63, 0x20, 0x3c,
  0x33, 0x36, 0x6a, 0xbe, 0x62, 0x5b, 0x76, 0xbe, 0x2a, 0x68, 0xa6, 0x3d,
  0xb9, 0xc4, 0x06, 0x3e, 0x00, 0x9f, 0x60, 0xbd, 0x16, 0x2f, 0x47, 0xbe,
  0x85, 0x30, 0x0d, 0x3f, 0x31, 0xe0, 0x9c, 0x3c, 0x02, 0x8e, 0x23, 0x3e,
  0xaf, 0x6c, 0x6f, 0xbe, 0x20, 0x98, 0x39, 0xbe, 0xca, 0x97, 0x8a, 0x3e,
  0xbe, 0xef, 0x3b, 0xbe, 0xb5, 0x43, 0x05, 0x3d, 0x7e, 0xc7, 0x99, 0xbd,
  0xa7, 0xea, 0x89, 0x3e, 0x47, 0x6f, 0x63, 0x3e, 0x8c, 0x74, 0x2b, 0xbd,
  0xe8, 0xba, 0x82, 0x3e, 0xd6, 0x0c, 0xad, 0x3d, 0x46, 0xde, 0x73, 0xbe,
  0x69, 0xc5, 0x36, 0x3e, 0x4e, 0xe3, 0xe2, 0x3e, 0x36, 0xe8, 0x9a, 0xbe,
  0x42, 0x3b, 0x2e, 0x3d, 0x61, 0xe2, 0xba, 0xbe, 0xe6, 0xee, 0x14, 0xbe,
  0x84, 0x09, 0x62, 0xbe, 0xf8, 0x98, 0x8d, 0xbc, 0xfb, 0xdc, 0x5b, 0x3e,
  0x51, 0xf9, 0x95, 0x3e, 0xff, 0xb0, 0x58, 0xbd, 0x74, 0x8e, 0x3b, 0xbe,
  0x5d, 0x47, 0x73, 0xbe, 0x66, 0xcd, 0x4c, 0x3d, 0x17, 0xbe, 0x11, 0xbe,
  0x92, 0xe5, 0x8e, 0xbd, 0x17, 0x78, 0x51, 0xbe, 0x74, 0x98, 0x81, 0xbe,
  0xea, 0x99, 0xef, 0x3e, 0x9b, 0x7e, 0x0b, 0xbe, 0x0c, 0x10, 0x24, 0x3d,
  0x29, 0x48, 0x61, 0xbd, 0x24, 0x11, 0x42, 0xbe, 0x3f, 0xf4, 0xd7, 0xbd,
  0x24, 0x24, 0x6b, 0x3d, 0xbb, 0x7a, 0x84, 0x3e, 0xd5, 0x17, 0x8c, 0xbe,
  0xd3, 0x31, 0x2e, 0xbe, 0xe5, 0x5b, 0x00, 0xbd, 0xfe, 0x44, 0x94, 0x3e,
  0xe1, 0xd7, 0xfe, 0xbe, 0xd5, 0xf8, 0xb7, 0xbc, 0x27, 0x32, 0xc7, 0xbe,
  0x25, 0x60, 0x66, 0xbe, 0x75, 0x33, 0x47, 0x3e, 0xeb, 0x51, 0x01, 0xbf,
  0x10, 0xc9, 0xe4, 0x3c, 0x2b, 0x69, 0x9a, 0xbd, 0x05, 0xbb, 0x8b, 0xbe,
  0xf1, 0xd9, 0xc6, 0xbc, 0x3e, 0x02, 0x93, 0x3d, 0x9f, 0xbb, 0x2c, 0x3d,
  0xaf, 0xbb, 0x1f, 0xbe, 0x37, 0xd5, 0xa0, 0xbd, 0xe3, 0x20, 0x84, 0xbd,
  0xf8, 0x3d, 0xd5, 0x3e, 0x4c, 0x5e, 0xa4, 0xbe, 0xd3, 0x7a, 0xd9, 0xbd,
  0x1e, 0x77, 0xeb, 0x3d, 0x7a, 0xf4, 0x37, 0xbe, 0x72, 0x76, 0xa9, 0x3e,
  0x76, 0x53, 0xbd, 0xbc, 0x42, 0x99, 0x76, 0x3d, 0x8e, 0x15, 0x1a, 0x3d,
  0x7b, 0x44, 0x49, 0xbe, 0xd2, 0xe2, 0x97, 0x3c, 0x0b, 0x8e, 0x5f, 0x3e,
  0x31, 0x48, 0x33, 0xb9, 0xc4, 0x13, 0x1c, 0x3d, 0x92, 0x3d, 0xef, 0x3c,
  0xe9, 0x80, 0x8b, 0xbc, 0xba, 0x99, 0x33, 0x3e, 0x9b, 0x7f, 0xad, 0xbe,
  0x58, 0x82, 0x82, 0xbd, 0x2d, 0x6d, 0x85, 0x3e, 0xab, 0x27, 0x26, 0xbe,
  0xe2, 0x72, 0xaa, 0x3e, 0x4e, 0x38, 0x2f, 0xbe, 0x26, 0xb5, 0x67, 0x3d,
  0xa8, 0xe5, 0x88, 0x3c, 0xb4, 0x09, 0x42, 0xbd, 0x8a, 0x5c, 0x09, 0x3d,
  0x2d, 0x95, 0x3e, 0x3e, 0xc4, 0x7e, 0x06, 0x3e, 0x15, 0x84, 0x59, 0xbe,
  0xfc, 0x81, 0xd3, 0x3d, 0xd1, 0xe7, 0x44, 0xbd, 0x3b, 0x4e, 0xdd, 0x3e,
  0x05, 0x91, 0x1a, 0xbf, 0x7f, 0xb8, 0x5d, 0x3d, 0x15, 0xaa, 0xda, 0x3d,
  0x72, 0xe2, 0xa8, 0xbe, 0xa3, 0xa4, 0xf2, 0x3e, 0xec, 0x8b, 0xc5, 0xbe,
  0x6c, 0x50, 0x38, 0xbd, 0xed, 0x42, 0xb9, 0xbc, 0x21, 0x9d, 0x6f, 0xbe,
  0x71, 0xb4, 0xc7, 0x3d, 0x3f, 0x64, 0xee, 0x3d, 0x15, 0xdc, 0xb8, 0x3d,
  0xd8, 0x2a, 0x0c, 0xbf, 0xb1, 0x6b, 0x46, 0xbd, 0x62, 0xfc, 0x17, 0x3e,
  0x20, 0x8d, 0x9d, 0x3e, 0x6b, 0x34, 0xe7, 0xbe, 0xb7, 0xd9, 0xf8, 0xbd,
  0x48, 0xbd, 0x00, 0x3e, 0x76, 0x00, 0xc3, 0xbe, 0x66, 0x37, 0xb0, 0x3e,
  0x00, 0x3e, 0xc4, 0x3c, 0x43, 0x56, 0xa4, 0x3b, 0x50, 0xaf, 0xd4, 0x3d,
  0x51, 0x2c, 0x54, 0xbd, 0x1b, 0xc3, 0x22, 0x3e, 0xa0, 0xf9, 0x77, 0xbc,
  0x3a, 0x9b, 0x7a, 0xbd, 0xf6, 0x9c, 0x25, 0xbd, 0x67, 0xcf, 0x6b, 0xbd,
  0x64, 0xb0, 0xdb, 0x3d, 0x11, 0x1e, 0x27, 0x3e, 0x75, 0x87, 0xb0, 0xbe,
  0x3c, 0x9a, 0x5e, 0xbd, 0xf9, 0x6e, 0x70, 0xbd, 0x73, 0x17, 0x0b, 0x3e,
  0x54, 0x53, 0x60, 0x3e, 0x38, 0x23, 0x4a, 0xbd, 0x41, 0xc6, 0x0d, 0x3e,
  0x0e, 0x11, 0x64, 0xbe, 0x33, 0x95, 0x64, 0xbe, 0xf6, 0xa7, 0x61, 0xbe,
  0xed, 0x35, 0x94, 0xbe, 0x77, 0xc2, 0x3b, 0xbe, 0x4e, 0xb8, 0x93, 0xbd,
  0x54, 0x72, 0x4b, 0xbe, 0x95, 0x65, 0x6e, 0xbe, 0xa9, 0x81, 0xce, 0x3c,
  0x3d, 0xae, 0x12, 0xbd, 0x95, 0x13, 0xcc, 0x3c, 0xc0, 0xb4, 0x0a, 0xbe,
  0x4b, 0x75, 0xc1, 0x3d, 0x75, 0x2b, 0x23, 0xbd, 0xa0, 0x99, 0xf4, 0xbd,
  0xd4, 0x66, 0x66, 0xbe, 0x09, 0x98, 0xb7, 0x3c, 0x3c, 0x02, 0x77, 0xbe,
  0x4a, 0x3f, 0x45, 0x3d, 0xb7, 0x4a, 0x3d, 0xbb, 0x59, 0xd1, 0x61, 0xbe,
  0x91, 0x7c, 0x16, 0xbe, 0xed, 0xa0, 0xc0, 0xbd, 0xec, 0xfc, 0x6a, 0xbe,
  0x13, 0xde, 0xf4, 0x3b, 0x47, 0xbf, 0x77, 0x3c, 0x73, 0x4f, 0x5d, 0xbe,
  0x18, 0x03, 0x87, 0x3d, 0x1e, 0x01, 0xc0, 0x3d, 0xb9, 0xa8, 0xfb, 0xbc,
  0x3c, 0xc4, 0x44, 0xbe, 0x90, 0x4d, 0x16, 0xbd, 0x47, 0x96, 0x84, 0xbc,
  0xad, 0x8b, 0x61, 0xbd, 0x54, 0xfa, 0xad, 0x3d, 0x5f, 0xb5, 0x33, 0xbe,
  0x9b, 0x70, 0x53, 0xbe, 0xf9, 0x7b, 0x23, 0x3d, 0x4a, 0x1f, 0xaf, 0xbc,
  0x65, 0x0a, 0xd6, 0xbd, 0x43, 0x13, 0x8c, 0x3d, 0x23, 0x44, 0x97, 0x3d,
  0xc6, 0x24, 0xe2, 0xbd, 0xb6, 0x7c, 0x2e, 0xbe, 0xcc, 0x1d, 0x64, 0xbe,
  0xa8, 0x5e, 0xce, 0x3c, 0xc7, 0x32, 0x39, 0xbe, 0x27, 0xde, 0x07, 0x3d,
  0x5c, 0x3d, 0xb9, 0xbd, 0x8a, 0x5a, 0x36, 0xbc, 0xce, 0x51, 0x3b, 0x3e,
  0xd6, 0x91, 0x44, 0xbe, 0xf9, 0x66, 0xa6, 0x3d, 0xe3, 0x48, 0xf8, 0xbd,
  0xa0, 0xee, 0x5d, 0xbd, 0xec, 0xcc, 0x93, 0xbe, 0x56, 0x57, 0x01, 0x3c,
  0xbe, 0x08, 0x4b, 0xbe, 0x98, 0x91, 0x90, 0x3d, 0x86, 0x33, 0xa6, 0x3d,
  0xf5, 0x2c, 0x06, 0x3e, 0xdb, 0xd4, 0x21, 0x3e, 0xf3, 0x84, 0x50, 0xbe,
  0x6d, 0x04, 0x3a, 0xbd, 0x74, 0x22, 0x60, 0xbe, 0x98, 0x45, 0xc6, 0xbc,
  0xaf, 0x7e, 0x68, 0xbe, 0xa2, 0x55, 0x19, 0xbe, 0x7a, 0x48, 0xf2, 0x39,
  0x97, 0x0d, 0x0c, 0x3e, 0x31, 0xfa, 0x46, 0xbe, 0xb5, 0xba, 0x1f, 0xbe,
  0x14, 0xc6, 0xdd, 0x3d, 0x10, 0xce, 0x24, 0xbe, 0x7c, 0x07, 0x83, 0x3c,
  0x97, 0x86, 0xfc, 0xbd, 0x1e, 0xc8, 0xcf, 0xbd, 0x3e, 0xc9, 0xb9, 0x3d,
  0x56, 0xdd, 0x54, 0xbe, 0xf4, 0xc4, 0xd7, 0xbd, 0x39, 0x80, 0x95, 0x3d,
  0xe9, 0xc1, 0x19, 0xbe, 0xc4, 0x07, 0x08, 0xbe, 0x9e, 0xd9, 0xb2, 0x3d,
  0x1f, 0x7a, 0x43, 0xbc, 0xe3, 0xd6, 0x2a, 0xbd, 0xfd, 0x84, 0xd6, 0x3b,
  0x56, 0xac, 0x25, 0xbe, 0xf1, 0xed, 0x3b, 0xbe, 0x2f, 0xcd, 0x03, 0xbe,
  0x3a, 0x2a, 0xdf, 0x3c, 0x9f, 0x74, 0xb5, 0xbd, 0x92, 0xdb, 0x18, 0xbe,
  0x20, 0xf5, 0x10, 0xbe, 0x78, 0x8e, 0x91, 0xbe, 0x0b, 0xa5, 0x9f, 0xbd,
  0xdf, 0x73, 0x2e, 0xbe, 0xaf, 0x8c, 0xc2, 0x3d, 0xb6, 0x5f, 0xa1, 0xbd,
  0x9e, 0x6e, 0xa6, 0x3b, 0xa7, 0x93, 0x3b, 0xbe, 0x05, 0x65, 0x70, 0x3d,
  0xc2, 0x19, 0xe6, 0xbc, 0x0c, 0xe7, 0xd6, 0xbd, 0x04, 0x64, 0xfa, 0xbc,
  0x20, 0x55, 0x84, 0xbc, 0x6d, 0x4e, 0x86, 0xbe, 0x6f, 0x0e, 0x61, 0xbe,
  0xa5, 0x9a, 0xcd, 0x3d, 0x5c, 0xed, 0x70, 0xbd, 0x6a, 0xc3, 0x62, 0xbe,
  0xc0, 0x3f, 0xf9, 0xbd, 0x08, 0x29, 0x8f, 0xbc, 0x73, 0x7b, 0xc6, 0xbc,
  0x36, 0x65, 0xfe, 0xbe, 0x62, 0x94, 0x3f, 0x3e, 0x86, 0x8e, 0x26, 0x3e,
  0x3a, 0xa8, 0x77, 0xbd, 0x08, 0xa8, 0xc0, 0xbd, 0x72, 0x43, 0x68, 0xbd,
  0x62, 0xcb, 0xf8, 0xbe, 0xfe, 0x9b, 0x37, 0xbe, 0x2e, 0x15, 0xcc, 0xbd,
  0x94, 0xd1, 0x2f, 0xbc, 0x0f, 0x44, 0xa6, 0x3c, 0xbc, 0xaf, 0x16, 0xbf,
  0x1d, 0x74, 0x5c, 0xbe, 0x21, 0x89, 0xff, 0xbc, 0x46, 0x3a, 0xd1, 0xbe,
  0xa4, 0x5c, 0x28, 0xbd, 0xa4, 0xe5, 0x43, 0xbe, 0xf3, 0xd2, 0x97, 0x3e,
  0x57, 0xcc, 0x7f, 0x3e, 0x1f, 0x70, 0x83, 0x3e, 0x5f, 0xed, 0x01, 0xbb,
  0x67, 0xb5, 0x07, 0xbe, 0xfb, 0x53, 0x4a, 0xbf, 0xe7, 0x45, 0xea, 0xbd,
  0x68, 0xcf, 0xc4, 0x3e, 0xf6, 0x76, 0x12, 0xbe, 0xfa, 0x13, 0xc5, 0x3d,
  0x5f, 0x23, 0xcb, 0xbe, 0xc7, 0xe5, 0x3b, 0xbf, 0x9e, 0xf1, 0xcb, 0x3d,
  0x24, 0x9c, 0x22, 0xbf, 0x9b, 0xfd, 0xef, 0xbc, 0xd7, 0x4f, 0xcd, 0xbd,
  0x00, 0xe8, 0x52, 0x3d, 0x6a, 0xda, 0x53, 0x3e, 0x3e, 0x0d, 0x25, 0x3e,
  0xe4, 0x39, 0xab, 0x3d, 0xcc, 0x2a, 0x1c, 0xbe, 0x7b, 0x65, 0x1a, 0xbf,
  0xf9, 0x0a, 0xc5, 0xbb, 0x7d, 0xda, 0xba, 0x3e, 0x51, 0xb4, 0xa0, 0xbe,
  0x86, 0x2a, 0x4b, 0x3e, 0x37, 0x57, 0x9a, 0xbe, 0xf9, 0xbf, 0x8a, 0xbe,
  0xf2, 0x06, 0xba, 0xbd, 0x42, 0x7b, 0x03, 0xbf, 0x59, 0xdc, 0xb0, 0x3b,
  0x3d, 0xb8, 0x33, 0xbe, 0x61, 0x2f, 0x0a, 0x3e, 0xf2, 0xb7, 0xbc, 0x3e,
  0xc4, 0x4c, 0x91, 0x3e, 0xbd, 0x0f, 0x24, 0xbe, 0x3a, 0xe5, 0x6b, 0xbe,
  0xc3, 0x33, 0x16, 0xbf, 0xff, 0x08, 0x37, 0xbd, 0xd9, 0x6c, 0x90, 0x3e,
  0xb7, 0x48, 0x8a, 0xbd, 0xff, 0x89, 0x8f, 0x3d, 0x95, 0x41, 0xd7, 0xbe,
  0x65, 0x6d, 0x8d, 0xbe, 0xad, 0x41, 0x3e, 0xbd, 0x06, 0x0d, 0xc0, 0xbe,
  0x52, 0x65, 0xa3, 0x3d, 0xfe, 0xd2, 0x56, 0xbe, 0xed, 0xc3, 0x41, 0x3e,
  0x6f, 0xa0, 0xa5, 0x3e, 0x11, 0x7a, 0xa3, 0x3d, 0xe3, 0xd4, 0x48, 0x3e,
  0xed, 0xdd, 0x25, 0xbe, 0xed, 0x24, 0x3b, 0xbf, 0x65, 0xa9, 0xb0, 0xbb,
  0x4a, 0x49, 0xc6, 0x3d, 0xc3, 0xf8, 0xcf, 0x3d, 0x0b, 0x74, 0x2d, 0x3e,
  0x9c, 0x2b, 0x05, 0xbf, 0x20, 0xb5, 0x96, 0xbe, 0x5f, 0x9a, 0xb6, 0x3b,
  0xbf, 0xbb, 0x18, 0xbf, 0xd6, 0xd9, 0xbe, 0x3d, 0x10, 0xc1, 0xa2, 0xbe,
  0x7b, 0x10, 0xac, 0x3e, 0x03, 0xdc, 0x10, 0x3e, 0x79, 0x94, 0x4d, 0x3e,
  0x3d, 0x93, 0x06, 0xbe, 0x20, 0x9d, 0x65, 0xbe, 0x06, 0x11, 0x31, 0xbf,
  0x26, 0x5e, 0xee, 0x3c, 0x25, 0xab, 0xbb, 0x3e, 0x3a, 0x78, 0xd1, 0xbc,
  0x1c, 0xf9, 0x26, 0x3e, 0x90, 0x1a, 0x0a, 0xbf, 0x05, 0xc7, 0xa7, 0xbe,
  0xa4, 0xf7, 0x0d, 0xbd, 0x46, 0xa4, 0x5d, 0xbe, 0xf2, 0x18, 0xa8, 0xbd,
  0xb7, 0x7a, 0xe4, 0xbe, 0x51, 0x1e, 0x83, 0xbc, 0xe2, 0xee, 0xbb, 0x3d,
  0xb0, 0x9d, 0x3e, 0x3e, 0xab, 0xd5, 0x09, 0x3e, 0x4e, 0x03, 0xc3, 0xbe,
  0x6c, 0x3b, 0x4b, 0xbf, 0xa5, 0xab, 0x2b, 0x3e, 0xec, 0xbf, 0xbc, 0x3d,
  0xab, 0x9b, 0x75, 0x3e, 0xb5, 0xcf, 0xf6, 0x3d, 0x97, 0xed, 0x04, 0xbf,
  0x31, 0x80, 0x05, 0xbe, 0xa8, 0x18, 0x1a, 0xbe, 0x46, 0x40, 0xed, 0x3d,
  0x65, 0x69, 0x3f, 0xbe, 0x2c, 0x95, 0x12, 0x3f, 0xfe, 0xaa, 0x9c, 0xbe,
  0x6e, 0x0e, 0x8a, 0xbe, 0xdc, 0xf4, 0xbd, 0xbe, 0x78, 0x69, 0x8d, 0xbc,
  0x3e, 0xfe, 0xd5, 0x3d, 0x2b, 0x84, 0xdf, 0xbd, 0xaa, 0xee, 0x85, 0xbd,
  0x87, 0x2d, 0xa9, 0xbc, 0xf7, 0x5f, 0x98, 0x3e, 0x2c, 0x5a, 0x8e, 0x3e,
  0x50, 0xfc, 0xcb, 0xbd, 0xc2, 0x14, 0x07, 0x3e, 0x37, 0xe0, 0x84, 0xbe,
  0x57, 0xcd, 0x8e, 0x3d, 0x7c, 0x1e, 0xfe, 0x3d, 0xe6, 0x38, 0xa8, 0x3e,
  0xc6, 0x80, 0xbd, 0xbd, 0x80, 0x68, 0x34, 0xbd, 0xc9, 0x7e, 0x89, 0x3d,
  0xf5, 0xa1, 0x48, 0x3e, 0xfe, 0x01, 0x49, 0x3d, 0x3d, 0x03, 0x96, 0xbc,
  0x2b, 0x90, 0x51, 0xbd, 0xe0, 0x6c, 0x66, 0xbd, 0x3b, 0x40, 0x99, 0x3e,
  0x92, 0x1c, 0x10, 0x3f, 0x73, 0x11, 0xea, 0x3e, 0x8f, 0x26, 0x2f, 0x3e,
  0x1b, 0x60, 0x18, 0xbe, 0xf9, 0x0c, 0x0f, 0xbe, 0x4f, 0xfb, 0x3d, 0x3e,
  0xbe, 0x65, 0xc9, 0x3e, 0x05, 0xf8, 0xa0, 0xbe, 0xb5, 0x93, 0x63, 0xbe,
  0xf6, 0x78, 0x3f, 0xbe, 0x08, 0xed, 0x40, 0x3e, 0x67, 0xa6, 0xe0, 0xbb,
  0x76, 0x58, 0x0e, 0xbe, 0xde, 0x17, 0x42, 0x3e, 0xfc, 0x08, 0x62, 0xbe,
  0xc9, 0x95, 0xe6, 0x3d, 0xb0, 0xa3, 0x10, 0x3e, 0x2e, 0x10, 0x1b, 0x3e,
  0x25, 0x3d, 0x16, 0x3e, 0xbb, 0x79, 0x61, 0xbe, 0x2e, 0x5c, 0x1e, 0x3e,
  0xbc, 0xaf, 0x92, 0xbb, 0x81, 0x3d, 0x00, 0x3e, 0x1e, 0x42, 0x5c, 0xbe,
  0xdf, 0x90, 0x8a, 0xbd, 0x89, 0x11, 0x2d, 0xbe, 0x4f, 0xab, 0x97, 0xbc,
  0x03, 0xec, 0xea, 0x3b, 0x98, 0xa6, 0xdd, 0x3d, 0x32, 0xd9, 0x04, 0x3e,
  0xfd, 0x67, 0x61, 0xbe, 0x71, 0x50, 0x02, 0x3e, 0x2f, 0x7e, 0x6a, 0x3e,
  0x39, 0x13, 0x92, 0x3e, 0xc1, 0xff, 0x43, 0x3e, 0xd0, 0x9c, 0x6c, 0xbe,
  0xd9, 0xb0, 0x1f, 0xbe, 0x88, 0xa6, 0x23, 0xbe, 0xb6, 0xf9, 0x89, 0x3e,
  0x17, 0xf6, 0x49, 0xbe, 0xf4, 0x24, 0x84, 0xbe, 0x79, 0x91, 0xf9, 0x3d,
  0xae, 0x59, 0x8d, 0x3e, 0x67, 0x08, 0x08, 0xbd, 0x40, 0x31, 0x51, 0xbe,
  0x02, 0x9e, 0x8d, 0x3d, 0x8d, 0xb2, 0x71, 0x3d, 0xed, 0xf2, 0xf6, 0xbd,
  0xbd, 0x78, 0xcc, 0x3e, 0xae, 0x62, 0x71, 0x3e, 0xbd, 0x25, 0x7a, 0x3e,
  0x74, 0xd5, 0xf0, 0xbd, 0xab, 0x0b, 0x63, 0x3e, 0x6a, 0xcc, 0x03, 0xbe,
  0xd0, 0x2c, 0x0f, 0x3e, 0xd0, 0x19, 0xbd, 0xbe, 0x02, 0xf6, 0x4c, 0xbe,
  0x99, 0xd9, 0x12, 0xbe, 0xa7, 0x32, 0xf8, 0xbd, 0x66, 0x3b, 0x8d, 0x3c,
  0x12, 0x2e, 0x25, 0xbe, 0x11, 0x5b, 0x97, 0xbc, 0x59, 0xc4, 0x81, 0xbe,
  0x3c, 0x13, 0x40, 0xbb, 0x1e, 0x76, 0x1e, 0x3f, 0x84, 0x59, 0x5d, 0x3e,
  0xc5, 0x92, 0x2d, 0x3e, 0x55, 0xf2, 0x5e, 0xbe, 0x50, 0x1b, 0x77, 0xbe,
  0x20, 0xd0, 0x9c, 0xbe, 0xea, 0x28, 0xfd, 0x3d, 0x92, 0xa7, 0x07, 0x3d,
  0x16, 0xf4, 0x27, 0xbd, 0x2d, 0xa6, 0xfd, 0xbd, 0x30, 0x4b, 0x31, 0x3e,
  0xce, 0x60, 0x19, 0xbe, 0x52, 0x46, 0x2c, 0x3e, 0x78, 0x65, 0xb9, 0x3d,
  0xc8, 0xee, 0xce, 0xbe, 0xcb, 0x5f, 0x88, 0x3e, 0x21, 0x88, 0x18, 0x3f,
  0x65, 0x4a, 0x81, 0xbe, 0x11, 0x73, 0xf6, 0xbd, 0x3e, 0xb1, 0xb5, 0xbe,
  0x55, 0x22, 0x53, 0xbe, 0xfe, 0x01, 0x67, 0xbd, 0xba, 0x2d, 0x05, 0xbe,
  0xd2, 0xf7, 0xb9, 0x3c, 0x13, 0x95, 0x03, 0xbe, 0xdc, 0x68, 0x63, 0xbc,
  0x39, 0xed, 0x84, 0xbe, 0xd1, 0x66, 0x54, 0xbe, 0x7e, 0xfd, 0x01, 0xbe,
  0x32, 0xce, 0xce, 0x3d, 0x13, 0x01, 0x41, 0xbd, 0x73, 0x8a, 0xdf, 0xbc,
  0x1e, 0xd5, 0x70, 0xbc, 0x4c, 0x16, 0x0d, 0x3c, 0x10, 0xe3, 0x84, 0xbe,
  0x42, 0x95, 0x3b, 0xbe, 0xa2, 0x10, 0x52, 0xbe, 0xd5, 0x0a, 0xe3, 0x3d,
  0x6d, 0xf6, 0x94, 0x3d, 0x5a, 0x51, 0x6c, 0x3b, 0xe7, 0x47, 0xf4, 0xbd,
  0x41, 0xa7, 0x43, 0xbe, 0xf0, 0x59, 0xe8, 0xbd, 0x5d, 0x4e, 0x8d, 0xbe,
  0xcf, 0x25, 0x11, 0xbe, 0x97, 0xb6, 0x81, 0xbe, 0x3e, 0x95, 0xe6, 0x3c,
  0xaf, 0x45, 0xee, 0x3d, 0xb5, 0x21, 0x82, 0xbd, 0x2e, 0x24, 0x57, 0xbd,
  0xc8, 0x84, 0x13, 0xbd, 0x50, 0x1e, 0x8e, 0xbe, 0xd4, 0xdf, 0xfd, 0xbd,
  0x23, 0x6c, 0x6f, 0xbe, 0x33, 0x8b, 0x19, 0xbb, 0xef, 0xd0, 0x6a, 0xbe,
  0x19, 0xb8, 0x0c, 0xbe, 0x3d, 0x4f, 0x07, 0xbe, 0x1e, 0x4f, 0x37, 0xbe,
  0x39, 0xa1, 0x3e, 0xbe, 0xdf, 0xe0, 0x52, 0xbe, 0x0d, 0x75, 0x01, 0xbe,
  0x27, 0xe1, 0x80, 0xbe, 0xf7, 0x40, 0x39, 0x3d, 0x97, 0x6b, 0xfb, 0x3c,
  0x47, 0x25, 0x54, 0xbe, 0xac, 0x18, 0x9f, 0xbd, 0xdf, 0x73, 0xf8, 0x3c,
  0x26, 0x1b, 0xc6, 0x39, 0x53, 0xa6, 0x67, 0xbd, 0x86, 0x4c, 0xe4, 0xbc,
  0x26, 0x0f, 0x35, 0x3c, 0x85, 0xb8, 0x20, 0x3d, 0xfe, 0x7e, 0x0e, 0x3e,
  0x9d, 0x18, 0x2b, 0xbe, 0xc2, 0xc0, 0x39, 0xbe, 0x1d, 0x09, 0x28, 0x3d,
  0x85, 0xd8, 0x32, 0x3d, 0x4a, 0x6f, 0x9a, 0xbd, 0xd0, 0xbb, 0x8f, 0xbd,
  0xd6, 0x61, 0x42, 0x3e, 0x76, 0x24, 0x43, 0xbe, 0x80, 0xba, 0x13, 0x3c,
  0x6c, 0xb9, 0x01, 0xbd, 0x6e, 0xf6, 0x48, 0x3d, 0x41, 0x9f, 0x82, 0x3b,
  0x8a, 0xb3, 0x61, 0x3d, 0x33, 0x08, 0x2c, 0xbe, 0xa9, 0x35, 0x35, 0xbc,
  0x77, 0xde, 0xec, 0xbd, 0x19, 0xe5, 0xb9, 0xbd, 0xd6, 0x52, 0x8b, 0xbd,
  0x9a, 0x63, 0x26, 0xbe, 0x48, 0x70, 0x5f, 0xbe, 0x77, 0xbc, 0xc4, 0xbd,
  0xfa, 0x7e, 0x80, 0x3d, 0x43, 0xd5, 0x4b, 0x3c, 0xf8, 0xc7, 0x1f, 0xbe,
  0xab, 0x76, 0xe7, 0xbd, 0x83, 0x9f, 0x83, 0xbe, 0xd9, 0x59, 0x1b, 0xbe,
  0x06, 0x45, 0xd4, 0x3d, 0x63, 0x2f, 0x18, 0x3e, 0x3d, 0x5c, 0xe7, 0x3c,
  0xe6, 0x5a, 0x0b, 0xbd, 0x3b, 0xa6, 0x06, 0x3e, 0x60, 0x80, 0x0c, 0xbe,
  0x85, 0x5a, 0x4a, 0x3d, 0xf1, 0x2e, 0xdd, 0x3c, 0x81, 0x53, 0xdb, 0x3c,
  0xf1, 0xaa, 0x51, 0xbe, 0x6e, 0x31, 0xc5, 0x3d, 0x9e, 0xac, 0x28, 0x3e,
  0x89, 0xfa, 0x95, 0x3e, 0x87, 0x02, 0xa4, 0xbc, 0x93, 0x23, 0x21, 0xbe,
  0xb5, 0x30, 0x5b, 0xbe, 0xe6, 0x41, 0xbd, 0xbd, 0xd2, 0xf5, 0x5d, 0xbc,
  0x2f, 0xfe, 0x38, 0xbe, 0x56, 0xa8, 0x0c, 0xbd, 0xaf, 0x97, 0x8c, 0xbd,
  0xcd, 0x77, 0x27, 0xbe, 0x0c, 0xa5, 0x09, 0xbe, 0x47, 0xe2, 0x3d, 0x3e,
  0x7b, 0x4f, 0x6d, 0xbe, 0x10, 0x73, 0xb2, 0x3c, 0xab, 0x98, 0x58, 0xbd,
  0x6b, 0xf7, 0x69, 0x3c, 0xf2, 0x50, 0x26, 0xbe, 0x2f, 0xb9, 0x6d, 0xbd,
  0x96, 0x0f, 0x1b, 0x3d, 0x4a, 0x7b, 0x10, 0xbe, 0xe6, 0x37, 0xfa, 0xbd,
  0x25, 0x66, 0xfc, 0xbd, 0x75, 0x5a, 0x10, 0x3d, 0xdd, 0x5a, 0x45, 0x3e,
  0x56, 0x6f, 0xf1, 0x3d, 0xa1, 0x39, 0x4e, 0x3e, 0x80, 0x2b, 0x6d, 0xbe,
  0xf7, 0x49, 0x19, 0x3e, 0xfa, 0xd4, 0xbd, 0xbe, 0xba, 0x0a, 0x80, 0xbc,
  0x5f, 0x53, 0x76, 0xbe, 0xa5, 0x5c, 0xd2, 0x3d, 0x96, 0x7d, 0x04, 0x3f,
  0xb8, 0x23, 0x6b, 0x3e, 0x8d, 0xd2, 0xc8, 0x3d, 0x86, 0xb2, 0x1c, 0xbe,
  0x80, 0xae, 0x28, 0xbe, 0xac, 0x94, 0x29, 0x3e, 0xa7, 0x7f, 0xb0, 0xbc,
  0x05, 0xa7, 0x2b, 0x3e, 0x63, 0x30, 0xfc, 0xbe, 0x3b, 0x08, 0xeb, 0x3c,
  0x1c, 0x80, 0x65, 0x3c, 0xee, 0xe0, 0x7a, 0x3e, 0xdd, 0x6e, 0x2f, 0xbf,
  0x34, 0x12, 0x14, 0x3e, 0x84, 0x84, 0x6d, 0xbe, 0xff, 0x01, 0x32, 0xbe,
  0xae, 0xbf, 0x49, 0xbc, 0x6a, 0x90, 0xe8, 0xbe, 0xb2, 0xf0, 0xf7, 0xbd,
  0x64, 0xae, 0x4b, 0xbe, 0x7f, 0x6c, 0x5c, 0xbe, 0xa5, 0x2a, 0xa7, 0x3d,
  0x12, 0x7b, 0x37, 0x3d, 0x53, 0x2a, 0x2c, 0xbe, 0xfe, 0x19, 0x33, 0xbe,
  0x79, 0x01, 0xe3, 0xbd, 0xcc, 0x13, 0x69, 0x3d, 0xe5, 0x47, 0xaf, 0x3e,
  0xa0, 0xc3, 0xc0, 0xbe, 0xf6, 0x85, 0x03, 0xbc, 0x63, 0xc3, 0x0d, 0x3e,
  0x26, 0x55, 0x87, 0xbe, 0x62, 0xb9, 0x4b, 0x3d, 0x33, 0x19, 0x8c, 0xbe,
  0xc1, 0x64, 0x10, 0xbd, 0xe6, 0x17, 0x54, 0x3a, 0x4d, 0x16, 0x25, 0xbe,
  0xd2, 0x04, 0xf7, 0xbc, 0x9e, 0x75, 0x13, 0x3e, 0x65, 0x30, 0xec, 0xbc,
  0x80, 0x0a, 0xa2, 0x3b, 0x84, 0x78, 0x23, 0xbc, 0x20, 0xb8, 0xd3, 0x3c,
  0x64, 0xa9, 0x66, 0x3e, 0x18, 0x91, 0x9b, 0xbe, 0x3f, 0x55, 0x2e, 0xbe,
  0xd0, 0x10, 0xa7, 0x3e, 0xd7, 0xba, 0x45, 0xbe, 0x4d, 0xb6, 0x48, 0x3e,
  0x9a, 0x98, 0xb9, 0xbe, 0x92, 0x64, 0x97, 0x3d, 0x99, 0xa1, 0x02, 0x3e,
  0xc6, 0xef, 0x41, 0xbe, 0x1b, 0xf5, 0x19, 0x3d, 0xc0, 0xbb, 0xca, 0x3d,
  0xe6, 0xa6, 0x92, 0x3d, 0x43, 0x20, 0xa9, 0xbd, 0xf0, 0xd3, 0x6e, 0x3e,
  0x83, 0xc2, 0xf4, 0xbd, 0x72, 0x70, 0x85, 0x3e, 0x33, 0x73, 0x0b, 0xbf,
  0x18, 0x22, 0x98, 0xbd, 0x5f, 0x37, 0x5d, 0x3e, 0xf7, 0x52, 0x1c, 0xbe,
  0xcc, 0x96, 0xaf, 0x3e, 0xe7, 0xd5, 0x13, 0xbe, 0x92, 0xd4, 0xd7, 0x3d,
  0x04, 0xaf, 0xd4, 0x3d, 0xec, 0x94, 0x85, 0xbe, 0xbd, 0x75, 0xb1, 0x3d,
  0xbb, 0x35, 0xa3, 0x3d, 0x9e, 0xa4, 0xd9, 0xbc, 0x7d, 0x90, 0x5a, 0xbe,
  0xf9, 0xbb, 0xc2, 0x3e, 0x93, 0x2a, 0xac, 0x3b, 0x84, 0x59, 0xcb, 0x3e,
  0x20, 0x28, 0x5c, 0xbe, 0x43, 0x90, 0xa3, 0xbe, 0xb0, 0x57, 0x6d, 0x3d,
  0xc9, 0x27, 0x3d, 0xbe, 0xb4, 0x61, 0xd2, 0x3e, 0x17, 0x9a, 0x8a, 0x3d,
  0x6b, 0x9c, 0xab, 0x3c, 0x5b, 0x80, 0x75, 0x3e, 0xe2, 0xdf, 0xd2, 0xbd,
  0x79, 0x2c, 0xa9, 0x3e, 0xde, 0xb4, 0x3f, 0xbd, 0x9f, 0xd1, 0x7a, 0xbd,
  0xce, 0xcb, 0x73, 0xbd, 0x1d, 0xe7, 0x84, 0x3d, 0xba, 0xb4, 0xc5, 0x3a,
  0xf2, 0xb0, 0x82, 0x3e, 0xf8, 0x1f, 0x30, 0xbe, 0x4a, 0x8c, 0x3e, 0x3d,
  0xf8, 0x91, 0x16, 0xbf, 0x8a, 0x6e, 0xd4, 0x3c, 0x59, 0xcd, 0xd9, 0x3e,
  0x2b, 0xef, 0xa1, 0x3d, 0xa4, 0x53, 0x2a, 0x3d, 0xd3, 0x15, 0xe7, 0x3c,
  0xc5, 0x7a, 0xf7, 0xbd, 0x24, 0x0b, 0x0c, 0x3f, 0x69, 0x53, 0xd2, 0xbe,
  0x1a, 0x5b, 0xa6, 0xbe, 0xc2, 0x73, 0xd1, 0x3e, 0x0b, 0x86, 0x2f, 0xbd,
  0xed, 0x0f, 0x7a, 0x3d, 0xe9, 0x5a, 0xa5, 0xbd, 0xf3, 0xf4, 0x5d, 0x3e,
  0xd1, 0x10, 0xf6, 0xbd, 0x75, 0xfb, 0xec, 0x3d, 0x72, 0xca, 0xd5, 0x3e,
  0x17, 0x16, 0xa4, 0xbe, 0xac, 0xa3, 0xac, 0xbd, 0xc8, 0x9a, 0x0e, 0xbe,
  0x74, 0x7a, 0x29, 0x3e, 0x7f, 0xea, 0xd9, 0x3b, 0x69, 0x0b, 0xee, 0x3e,
  0xea, 0xe9, 0x57, 0x3d, 0x95, 0x66, 0xed, 0xbe, 0xaf, 0xd5, 0xa7, 0x3d,
  0x4f, 0x66, 0x2d, 0xbd, 0x2c, 0xb4, 0xb0, 0xbb, 0x3a, 0x09, 0x14, 0xbe,
  0xb7, 0x2b, 0x69, 0x3e, 0xc0, 0x7d, 0xe1, 0xbe, 0x30, 0xe3, 0xe3, 0x3d,
  0xc3, 0x49, 0xa4, 0x3e, 0x58, 0xcb, 0x04, 0x3e, 0xc2, 0x50, 0xed, 0x3d,
  0x4e, 0x4f, 0xe0, 0xbd, 0x2b, 0x64, 0x74, 0x3e, 0xed, 0xb7, 0x35, 0x3e,
  0x8a, 0xec, 0x95, 0x3e, 0xe6, 0x28, 0x49, 0xbe, 0xbe, 0x88, 0xb1, 0xbe,
  0xc2, 0xb1, 0xf4, 0xbd, 0xac, 0x8f, 0xa4, 0xbd, 0x5e, 0x4b, 0x79, 0xbd,
  0x1e, 0x6f, 0xea, 0xbd, 0x4d, 0x57, 0xac, 0x3e, 0xe9, 0x86, 0xdc, 0xbe,
  0x14, 0x3d, 0xab, 0x3d, 0x47, 0xf3, 0xff, 0x3d, 0xb6, 0xd9, 0x4f, 0xbd,
  0x99, 0xf4, 0xae, 0x3e, 0x46, 0x39, 0x11, 0xbe, 0x00, 0xb6, 0xc7, 0x3d,
  0x88, 0xe9, 0xb3, 0xbc, 0x13, 0xcc, 0x21, 0x3f, 0x60, 0xc5, 0x6b, 0xbe,
  0x42, 0x19, 0x3d, 0xbe, 0x86, 0x8b, 0xe4, 0xbd, 0x78, 0xb3, 0x19, 0xbe,
  0x72, 0x25, 0x88, 0xbb, 0xed, 0x00, 0x34, 0xbd, 0x4d, 0xec, 0x12, 0x3e,
  0xca, 0x82, 0xf2, 0xbb, 0x62, 0xa4, 0x9e, 0x3d, 0xde, 0xd3, 0xc6, 0x3e,
  0xd9, 0xdd, 0xed, 0x3d, 0x79, 0x26, 0x23, 0x3e, 0xfc, 0x0a, 0x82, 0xbd,
  0x17, 0x8f, 0x2d, 0xbb, 0xef, 0x41, 0xd8, 0x3c, 0x12, 0x6b, 0xe6, 0x3e,
  0x3b, 0x80, 0xc8, 0xbe, 0x2b, 0x31, 0xea, 0xbe, 0x50, 0x15, 0x87, 0x3e,
  0x19, 0x14, 0xee, 0xbc, 0x54, 0xb6, 0xc6, 0x3d, 0xed, 0xad, 0x15, 0xbc,
  0x35, 0xd9, 0xa1, 0xbc, 0x4c, 0x37, 0x96, 0xbe, 0x0b, 0x8b, 0xb4, 0x3c,
  0x3a, 0x51, 0xac, 0x3e, 0x25, 0xb4, 0x2d, 0x3e, 0x33, 0x41, 0xa6, 0x3e,
  0xa4, 0xed, 0xc7, 0x3c, 0x9a, 0x5f, 0xf2, 0xbd, 0x5d, 0x50, 0x58, 0xbe,
  0x56, 0xbe, 0x1e, 0x3e, 0x0b, 0x3d, 0x08, 0xbf, 0xbd, 0x56, 0xa6, 0xbe,
  0x82, 0xbd, 0x18, 0x3e, 0x1c, 0x28, 0x2c, 0x3d, 0x86, 0x53, 0x28, 0x3d,
  0x7b, 0x37, 0x0b, 0xbd, 0xf5, 0x7c, 0xd1, 0x3d, 0x57, 0xca, 0x01, 0xbe,
  0x91, 0xe1, 0xbd, 0x3d, 0x39, 0x01, 0x88, 0x3e, 0x99, 0x70, 0x19, 0x3e,
  0x24, 0x89, 0x64, 0x3e, 0x4c, 0x30, 0x10, 0xbe, 0x6a, 0x5e, 0x0d, 0x3d,
  0xdd, 0xc8, 0xe0, 0xbd, 0xf9, 0x8f, 0x49, 0x3e, 0x78, 0x59, 0x3a, 0xbd,
  0x05, 0x99, 0xd6, 0xbd, 0xb7, 0x71, 0x2d, 0xbe, 0xef, 0x87, 0xfe, 0x3d,
  0xcd, 0xac, 0xf4, 0x3d, 0x6d, 0xb4, 0x93, 0x3c, 0x4c, 0x94, 0xac, 0x3d,
  0x09, 0xa8, 0x26, 0x3d, 0xd0, 0xb9, 0x79, 0x3e, 0xfe, 0xd9, 0xdc, 0xbc,
  0xf8, 0x6c, 0x78, 0xbd, 0x65, 0x52, 0x01, 0x3d, 0xff, 0xa2, 0xe7, 0xbc,
  0xf8, 0x50, 0xb0, 0xbd, 0x4a, 0xb7, 0x68, 0xbe, 0x6d, 0x74, 0x02, 0xbe,
  0xaa, 0x59, 0x6c, 0xbe, 0xaa, 0xc7, 0x15, 0xbe, 0x60, 0xe7, 0x00, 0x3c,
  0x1c, 0x03, 0x87, 0xbe, 0xf5, 0x5e, 0x03, 0xbe, 0x36, 0x65, 0x8d, 0xbd,
  0x4b, 0x6e, 0x27, 0xbb, 0xa6, 0x65, 0x2f, 0xbd, 0x6a, 0xa6, 0xfa, 0xbd,
  0x84, 0x1a, 0xdc, 0xbd, 0x7c, 0x26, 0x88, 0x3c, 0x18, 0x28, 0x73, 0x3c,
  0x22, 0xae, 0x2b, 0xbd, 0x44, 0x27, 0x0d, 0xbe, 0x97, 0x87, 0x33, 0x3d,
  0x6b, 0x3f, 0x5a, 0x3d, 0x2b, 0x6f, 0x28, 0xbb, 0xae, 0x2f, 0x97, 0x3d,
  0x7e, 0x73, 0x2b, 0x3d, 0x0f, 0xae, 0xdd, 0xbc, 0xa3, 0x02, 0x8f, 0xbd,
  0x19, 0x97, 0xd9, 0xbd, 0x93, 0xa1, 0x5e, 0xbe, 0xa8, 0xd3, 0xaf, 0x3c,
  0x82, 0xed, 0x90, 0x3d, 0x10, 0xf2, 0xfc, 0xbd, 0x1d, 0x07, 0x08, 0xbe,
  0xd0, 0xa0, 0x5b, 0xbd, 0xe5, 0xa0, 0xb1, 0xbd, 0x5b, 0xd8, 0x6b, 0xbd,
  0x8a, 0x72, 0x61, 0x3c, 0x1c, 0xb3, 0x61, 0xbe, 0x81, 0xab, 0xc2, 0xbd,
  0x25, 0xb6, 0x6d, 0xbe, 0x04, 0x43, 0x3b, 0xbe, 0x5d, 0x7b, 0x48, 0xbe,
  0x93, 0x5d, 0x93, 0xbd, 0x4a, 0x2b, 0x11, 0xbe, 0x72, 0x7a, 0x03, 0x3d,
  0xa8, 0x4d, 0xec, 0xbd, 0x5e, 0x22, 0xae, 0x3d, 0x7f, 0x69, 0x20, 0x3e,
  0xad, 0x62, 0x05, 0xbe, 0x37, 0x8a, 0x60, 0xbd, 0x0b, 0x43, 0x83, 0x3c,
  0xf4, 0x7a, 0xf4, 0xbb, 0x31, 0x2d, 0x25, 0x3c, 0x7d, 0xc0, 0xc3, 0x3d,
  0xe0, 0xf7, 0x01, 0xbd, 0x64, 0x8d, 0x83, 0x3d, 0xb8, 0xca, 0xa6, 0xbc,
  0xe1, 0x9e, 0x1e, 0xbe, 0x50, 0x2d, 0x9b, 0xbe, 0x0c, 0xb0, 0xbf, 0x3c,
  0x2c, 0xb6, 0x32, 0xbe, 0xaf, 0x14, 0x30, 0xbe, 0xbe, 0x01, 0x66, 0xbd,
  0x3e, 0x43, 0xd5, 0x3d, 0xdc, 0x02, 0xc0, 0x3d, 0xa5, 0x1a, 0x8c, 0x3d,
  0xb0, 0x04, 0x28, 0xbe, 0x67, 0x2f, 0xe5, 0xbd, 0x61, 0x08, 0x67, 0x3d,
  0x33, 0xda, 0xff, 0xbd, 0x02, 0x25, 0xa3, 0xbc, 0x10, 0x15, 0x5c, 0xbe,
  0x9b, 0x7d, 0x58, 0xbe, 0xfc, 0x19, 0xf2, 0xbc, 0x94, 0x34, 0x40, 0xbe,
  0x18, 0x57, 0xaf, 0x3d, 0xa6, 0xdf, 0x04, 0xbd, 0x41, 0x18, 0x2a, 0x3d,
  0x92, 0x64, 0xda, 0x3d, 0x3a, 0x14, 0xb5, 0xbd, 0xf7, 0x9e, 0x2f, 0xbd,
  0xed, 0x34, 0x85, 0xbe, 0x29, 0x6c, 0x48, 0xbd, 0x80, 0xef, 0xa6, 0xbd,
  0x68, 0x53, 0x95, 0x3c, 0xf7, 0xf4, 0x17, 0xbe, 0x4a, 0x03, 0x44, 0xbe,
  0x10, 0xa2, 0x8a, 0xbd, 0x1c, 0x14, 0x1b, 0x3e, 0xb2, 0x04, 0x94, 0xbe,
  0x11, 0x30, 0x92, 0xbe, 0x3e, 0x1a, 0x30, 0xbe, 0xc4, 0x54, 0xb3, 0xbd,
  0x14, 0x4d, 0x44, 0xbe, 0xea, 0xb8, 0x38, 0xbe, 0x57, 0x58, 0xe2, 0xbd,
  0x8d, 0x17, 0xf0, 0x3c, 0x14, 0x19, 0x7a, 0xbe, 0xff, 0x7e, 0x5c, 0xbe,
  0x8d, 0xa8, 0x75, 0x3d, 0x74, 0xbe, 0x3c, 0xbe, 0x6a, 0xde, 0xc0, 0x3d,
  0x5f, 0xe6, 0xb6, 0xbd, 0xc8, 0x43, 0x4a, 0xbe, 0x93, 0x0d, 0x6f, 0xbd,
  0xbf, 0xa2, 0x9c, 0xbd, 0xa3, 0x57, 0x41, 0xbe, 0x66, 0xab, 0xb2, 0x3c,
  0xdf, 0xbd, 0xa2, 0xbd, 0x34, 0xff, 0x02, 0xbe, 0xe4, 0xf5, 0x99, 0xbc,
  0x07, 0xca, 0xad, 0xbb, 0x49, 0x8c, 0x86, 0x3c, 0x5c, 0x50, 0x8f, 0xbe,
  0xfd, 0xf2, 0x06, 0xbe, 0xf6, 0x38, 0x32, 0x3d, 0xac, 0x2c, 0x10, 0x3e,
  0xb8, 0xb8, 0x27, 0x3f, 0x66, 0x5e, 0xd1, 0xbe, 0x75, 0x40, 0x7c, 0xbe,
  0xd5, 0x8b, 0x83, 0x3c, 0xb6, 0x59, 0xa9, 0x3d, 0xd2, 0x1a, 0x56, 0x3e,
  0xc3, 0xd6, 0x3b, 0xbe, 0x1b, 0x9b, 0x11, 0x3d, 0x5e, 0x35, 0x9c, 0xbc,
  0xd9, 0x88, 0x3d, 0x3e, 0x2b, 0x9c, 0xa8, 0x3d, 0x07, 0xad, 0xaa, 0xbc,
  0x2e, 0xb5, 0xe4, 0x3d, 0x42, 0xc4, 0x3b, 0xbe, 0xfb, 0x27, 0x05, 0x3e,
  0x12, 0xd1, 0x8a, 0x3d, 0xba, 0x6f, 0xac, 0x3d, 0x6d, 0x7d, 0xa5, 0xbe,
  0x4f, 0xb8, 0xe2, 0xbe, 0xbd, 0x59, 0x16, 0xbc, 0x3a, 0xc0, 0x3c, 0x3e,
  0x3c, 0xee, 0xd4, 0xbd, 0x12, 0xc2, 0xc8, 0xbe, 0x4b, 0x2e, 0x9a, 0x3c,
  0xc9, 0xde, 0x0a, 0xbf, 0x1a, 0x90, 0x9c, 0x3e, 0x8e, 0x02, 0x2e, 0x3e,
  0xd2, 0x40, 0x00, 0x3f, 0x58, 0x1b, 0x37, 0xbc, 0x0b, 0x39, 0x20, 0xbe,
  0x28, 0xd1, 0x30, 0x3e, 0xc1, 0xbe, 0xc2, 0xbc, 0x7b, 0xd3, 0xe9, 0x3d,
  0x51, 0x90, 0xf3, 0xbe, 0xa1, 0x51, 0xb4, 0xbe, 0xf5, 0x7e, 0x97, 0xbe,
  0x3a, 0x0d, 0xa2, 0x3d, 0x6e, 0x8a, 0x89, 0xbe, 0x5d, 0x17, 0x21, 0xbf,
  0x39, 0x55, 0x91, 0x3d, 0x65, 0xc6, 0xff, 0xbe, 0x56, 0x03, 0xfe, 0x3d,
  0x77, 0xec, 0x7f, 0x3e, 0xaa, 0x8c, 0xf5, 0x3e, 0xfd, 0xa6, 0x10, 0xbd,
  0x8f, 0x49, 0xd4, 0xbd, 0xa3, 0x06, 0x35, 0xbd, 0x0b, 0x61, 0x72, 0xbd,
  0x49, 0x4f, 0x78, 0xbb, 0x56, 0x00, 0xb1, 0xbe, 0x93, 0x46, 0x40, 0x3e,
  0xcc, 0x3a, 0xf4, 0xbd, 0xe5, 0xb1, 0x0f, 0x3e, 0x78, 0x3a, 0x19, 0xbd,
  0xa5, 0xb7, 0x34, 0xbd, 0xbf, 0xa4, 0x8b, 0xbd, 0xed, 0x0a, 0xa5, 0xbe,
  0xb9, 0x51, 0x85, 0x3e, 0xeb, 0x4d, 0x74, 0x3e, 0xa0, 0x3d, 0xdf, 0x3e,
  0xcb, 0xbd, 0x91, 0xbd, 0x47, 0x6d, 0x14, 0xbc, 0x24, 0xf4, 0x88, 0x3d,
  0x12, 0x4d, 0xab, 0xbd, 0x17, 0xf0, 0x38, 0x3e, 0x7f, 0x8f, 0xe1, 0xbe,
  0x11, 0xcd, 0x9b, 0xbd, 0x82, 0xa7, 0x22, 0xbe, 0x3a, 0x80, 0x67, 0x3e,
  0x61, 0x21, 0x2c, 0x3e, 0x7d, 0x3b, 0x90, 0xbe, 0xd9, 0x6d, 0x4a, 0xbe,
  0xdb, 0x5f, 0x75, 0xbe, 0xf0, 0x40, 0x7f, 0x3e, 0xea, 0xc8, 0xa9, 0x3d,
  0x54, 0xaf, 0xa7, 0x3e, 0xd0, 0x7b, 0xa6, 0xbe, 0x1a, 0x89, 0x9e, 0xbd,
  0x76, 0x1c, 0x3f, 0x3e, 0x8d, 0xfd, 0x5a, 0xbd, 0x13, 0x31, 0x08, 0x3f,
  0xd2, 0xc3, 0x36, 0xbf, 0x40, 0xa9, 0xe4, 0xbe, 0x61, 0x42, 0xf2, 0xbe,
  0xca, 0x5e, 0x12, 0x3d, 0x31, 0x7d, 0x1b, 0x3e, 0x15, 0x37, 0x67, 0xbe,
  0x1a, 0x1a, 0xda, 0xbd, 0x16, 0xc6, 0x1b, 0xbf, 0x9d, 0xd3, 0xf8, 0xba,
  0x3f, 0xc2, 0x0a, 0x3e, 0xc1, 0x2f, 0x98, 0x3e, 0xfd, 0xb4, 0x20, 0xbf,
  0xa1, 0x4e, 0x64, 0xbe, 0x92, 0x03, 0xe9, 0x3d, 0xd0, 0xfa, 0xfa, 0xbd,
  0xe8, 0x83, 0x2e, 0x3e, 0x1e, 0x05, 0x7f, 0xbc, 0x75, 0x5d, 0xe5, 0xbb,
  0x6d, 0x89, 0x42, 0xbe, 0x4d, 0x6d, 0x0d, 0x3e, 0x6b, 0x45, 0xbe, 0xbd,
  0x49, 0xc3, 0x08, 0x3e, 0x19, 0x17, 0xf6, 0x3d, 0x4e, 0xa4, 0x14, 0xbe,
  0xbb, 0xca, 0xcf, 0x3d, 0x7d, 0xce, 0xa8, 0x3e, 0x16, 0xd0, 0x99, 0xbe,
  0x86, 0x78, 0x08, 0x3b, 0x0d, 0x48, 0xd9, 0xbe, 0x78, 0xc5, 0xef, 0x3c,
  0x0e, 0xae, 0x20, 0x3d, 0x53, 0x67, 0x36, 0x3f, 0x5b, 0xa0, 0x1d, 0xbf,
  0x66, 0xfa, 0x33, 0xbf, 0x91, 0xb8, 0x35, 0xbe, 0xa4, 0xd6, 0x3f, 0x3e,
  0x69, 0x55, 0x43, 0x3e, 0x44, 0x96, 0x5a, 0xbc, 0x2b, 0x64, 0xef, 0x3c,
  0x86, 0xed, 0xc2, 0x3d, 0x3d, 0x31, 0x3d, 0x3e, 0x3b, 0x5a, 0x65, 0x3e,
  0x3c, 0x3d, 0x3d, 0xbe, 0xa9, 0xfd, 0x86, 0x3e, 0x33, 0xfc, 0x06, 0xbe,
  0x19, 0x1b, 0x2a, 0x3e, 0xd9, 0x01, 0x79, 0xbc, 0xab, 0xdd, 0xcf, 0x3e,
  0xc5, 0x57, 0xad, 0xbe, 0xbb, 0x49, 0x95, 0xbe, 0xe9, 0x7f, 0x90, 0xbd,
  0xe0, 0x3c, 0x56, 0x3e, 0xbe, 0x6c, 0x69, 0x3c, 0x1e, 0x11, 0xbb, 0xbd,
  0x23, 0xf1, 0x01, 0x3e, 0x59, 0xdb, 0x01, 0xbf, 0xc9, 0xa5, 0xac, 0x3e,
  0x2c, 0x03, 0x9d, 0x3e, 0x8f, 0xd3, 0x27, 0x3e, 0x8d, 0x23, 0xdb, 0x3e,
  0x7a, 0xc3, 0x70, 0xbc, 0x01, 0xa0, 0xb8, 0x3d, 0x0a, 0x9b, 0x06, 0x3c,
  0x5c, 0x7a, 0xb1, 0x3e, 0x2c, 0xa9, 0xd5, 0xbe, 0x13, 0x57, 0x8c, 0xbe,
  0xf8, 0xe0, 0x97, 0xbe, 0x46, 0x10, 0x28, 0x3e, 0x26, 0x27, 0x48, 0x3d,
  0x50, 0xb2, 0x75, 0xbe, 0x92, 0x7a, 0xfc, 0x3c, 0xce, 0x52, 0x82, 0xbe,
  0xd7, 0xb2, 0x6b, 0x3e, 0x8b, 0xb0, 0x32, 0x3e, 0x11, 0xfe, 0x92, 0x3e,
  0xa9, 0x5b, 0x8e, 0x3e, 0x43, 0x52, 0x3c, 0x3d, 0x8e, 0xb5, 0x07, 0xbd,
  0xdb, 0x00, 0xbf, 0xbc, 0x3b, 0x13, 0xcc, 0x3e, 0xd5, 0x88, 0xd3, 0xbe,
  0x66, 0xee, 0x90, 0xbe, 0x00, 0xbf, 0x4a, 0xbe, 0x18, 0x0f, 0x8c, 0xbb,
  0x34, 0x82, 0x3a, 0x3d, 0x48, 0x7f, 0xa1, 0x3c, 0x01, 0x0a, 0x71, 0x3d,
  0x73, 0x72, 0xa6, 0xbd, 0xb3, 0xd0, 0x36, 0x3d, 0xcb, 0x1d, 0x5c, 0x3e,
  0xc2, 0x6c, 0x97, 0x3e, 0x4f, 0xcf, 0x63, 0x3e, 0x16, 0x1e, 0xca, 0x3b,
  0xd0, 0xb5, 0x25, 0xbd, 0x63, 0x7b, 0x8d, 0x3c, 0x74, 0x38, 0xea, 0x3e,
  0x48, 0xae, 0x0e, 0xbf, 0x6c, 0x34, 0x89, 0xbe, 0x9e, 0x63, 0xaf, 0x3c,
  0x78, 0x53, 0x29, 0x3e, 0xb1, 0xc4, 0xcb, 0x3d, 0x17, 0x00, 0x12, 0xbe,
  0xa0, 0x0b, 0xe5, 0x3b, 0x18, 0x5f, 0x57, 0xbd, 0x1a, 0x82, 0xb3, 0xbc,
  0x0e, 0x2b, 0x6c, 0x3e, 0xf6, 0x12, 0xa3, 0x3e, 0xb3, 0xe5, 0x25, 0x3d,
  0x35, 0x16, 0x88, 0x3d, 0xdc, 0xad, 0xc0, 0x3d, 0x5d, 0x76, 0x8c, 0xbc,
  0x57, 0xcf, 0xe7, 0x3e, 0xd2, 0x12, 0x51, 0xbf, 0x12, 0x85, 0xfe, 0xbe,
  0x9d, 0x11, 0xcc, 0xbe, 0x61, 0x37, 0xd7, 0x3d, 0x34, 0xca, 0x6b, 0x3d,
  0xb3, 0x2e, 0xed, 0xbd, 0xfd, 0x66, 0x0b, 0xbe, 0x1e, 0xb7, 0xcb, 0xbe,
  0x71, 0xd3, 0x6f, 0xba, 0x01, 0x2e, 0xb4, 0x3e, 0xd9, 0xb5, 0x07, 0x3e,
  0x93, 0xf6, 0xa0, 0x3d, 0x92, 0x90, 0xb9, 0xbd, 0x05, 0xc9, 0x38, 0xbd,
  0xa9, 0xaf, 0xb0, 0xbd, 0xb4, 0xff, 0x9f, 0x3e, 0x52, 0xe3, 0xd6, 0xbc,
  0xfc, 0x59, 0xf4, 0xba, 0x7d, 0x1d, 0x57, 0xbe, 0x7c, 0x56, 0x31, 0x3e,
  0x96, 0x2c, 0x94, 0x3d, 0x89, 0x87, 0x94, 0x3d, 0xaa, 0x71, 0x0e, 0x3d,
  0x7a, 0x8b, 0x2a, 0xbe, 0xb1, 0x72, 0xc8, 0xbc, 0x7f, 0xf2, 0x93, 0x3e,
  0x6c, 0x5f, 0x31, 0xbe, 0xcc, 0x5b, 0xd6, 0xbd, 0xa7, 0xf7, 0x82, 0xbe,
  0x49, 0xb8, 0xf8, 0xbc, 0x59, 0x5f, 0xbc, 0xbe, 0xdd, 0xcf, 0x1f, 0x3e,
  0x25, 0x27, 0x1d, 0xbe, 0x08, 0xd9, 0x2a, 0xbe, 0x2e, 0xde, 0xff, 0xbd,
  0x3b, 0xab, 0x7f, 0x3c, 0xb8, 0x6f, 0x63, 0xbd, 0xb2, 0xa9, 0x21, 0x3d,
  0x47, 0x53, 0xf8, 0x3d, 0xb9, 0x69, 0x8c, 0xbe, 0xdb, 0xc3, 0xac, 0x3e,
  0xd1, 0x37, 0x05, 0x3e, 0x34, 0x5c, 0x14, 0x3c, 0xfe, 0x55, 0x96, 0x3d,
  0x58, 0x41, 0x44, 0xbe, 0x1b, 0xcb, 0x26, 0x3e, 0x39, 0xfd, 0xf3, 0xbe,
  0xf2, 0xfa, 0x33, 0x3d, 0xc7, 0x44, 0xa6, 0xbc, 0x20, 0x5a, 0x39, 0xbd,
  0x8f, 0x9b, 0xd3, 0xbe, 0xad, 0x73, 0x1b, 0xbd, 0x8b, 0xe8, 0x1c, 0xbe,
  0x9d, 0x8e, 0x75, 0x3e, 0x48, 0xaa, 0x6e, 0x3e, 0x54, 0xfa, 0x2d, 0xbe,
  0x6c, 0x4c, 0x49, 0x3e, 0xad, 0x78, 0x54, 0xbe, 0xce, 0xe8, 0xa6, 0xbd,
  0x49, 0xa5, 0xae, 0x3e, 0xac, 0x87, 0x0b, 0xbe, 0xfd, 0x5c, 0x4e, 0x3e,
  0x2c, 0xfa, 0x52, 0xbe, 0x31, 0x1d, 0xee, 0xbc, 0x0b, 0xfc, 0xd8, 0xbd,
  0x92, 0x72, 0x88, 0xbd, 0xd7, 0x19, 0x0e, 0xbe, 0xf8, 0x1a, 0xbe, 0x3d,
  0xff, 0xcd, 0x16, 0xbe, 0x5f, 0x02, 0x0f, 0x3e, 0x05, 0xfd, 0xc6, 0x3d,
  0x1b, 0x65, 0x58, 0x3c, 0xaa, 0x6b, 0x92, 0xbc, 0x97, 0xb3, 0x12, 0x3d,
  0xb3, 0xdb, 0xf7, 0xbd, 0xfd, 0xd1, 0x3a, 0x3e, 0xa7, 0x69, 0xa0, 0xbe,
  0x2e, 0x5e, 0x47, 0xbd, 0x3e, 0x80, 0xdb, 0xbe, 0x3a, 0x74, 0x41, 0xbe,
  0x5c, 0xa5, 0xca, 0x3a, 0xd2, 0x1b, 0x03, 0xbd, 0x33, 0xcc, 0x3e, 0xbe,
  0xf8, 0x25, 0x3d, 0xbe, 0xb1, 0x95, 0xc4, 0xbd, 0x3b, 0x55, 0x71, 0x3e,
  0xf9, 0xdd, 0xa7, 0x3b, 0x72, 0x33, 0xd0, 0x3d, 0xd1, 0x30, 0x8d, 0x3d,
  0xd9, 0xd5, 0x58, 0x3d, 0xe1, 0xa2, 0x36, 0xbd, 0x61, 0x08, 0x74, 0x3e,
  0xa5, 0xa8, 0x0a, 0xbe, 0xbd, 0x93, 0x75, 0x3d, 0x4e, 0x7b, 0xae, 0xbe,
  0x44, 0x80, 0xed, 0x3d, 0xb7, 0xe1, 0xa9, 0xbd, 0x55, 0xdc, 0x2a, 0x3b,
  0x7b, 0x8e, 0x8a, 0x3d, 0x8b, 0x7a, 0x85, 0xbe, 0xd9, 0xe9, 0x82, 0xbb,
  0x02, 0xde, 0x00, 0xbd, 0x15, 0xb8, 0x09, 0x3e, 0x8b, 0x11, 0x0f, 0x3d,
  0xbd, 0x05, 0x8e, 0x3b, 0x58, 0xb7, 0x80, 0xbe, 0x99, 0x66, 0x3e, 0xbe,
  0xb6, 0x89, 0x8d, 0x3e, 0xc9, 0x48, 0x10, 0xbf, 0x56, 0x3f, 0x4c, 0xbd,
  0xdf, 0xe2, 0x93, 0xbe, 0x99, 0x29, 0x87, 0x3d, 0x3e, 0xca, 0xd6, 0x3c,
  0xb8, 0xf5, 0xa0, 0xbd, 0x44, 0x1d, 0x34, 0x3c, 0x57, 0x81, 0x60, 0xbe,
  0x60, 0x89, 0x95, 0xbd, 0xf9, 0x57, 0x92, 0x3d, 0xd2, 0xcd, 0xf7, 0x3d,
  0x66, 0x0a, 0x87, 0x3c, 0x54, 0x03, 0xd1, 0xbc, 0xcd, 0x02, 0x48, 0xbd,
  0x27, 0x1a, 0xcf, 0xbc, 0xe6, 0x53, 0x7d, 0x3e, 0xbb, 0x42, 0x4f, 0xbe,
  0x51, 0xde, 0xa4, 0xbd, 0xd8, 0x30, 0x2e, 0x3d, 0xd3, 0xf2, 0xab, 0x3d,
  0x5b, 0x39, 0xc5, 0xbe, 0xa2, 0x30, 0xf2, 0xbd, 0x78, 0xc8, 0x75, 0xbe,
  0x15, 0x64, 0xf5, 0xbe, 0xe4, 0x18, 0xd8, 0x3c, 0x4f, 0xf4, 0xa7, 0x3d,
  0x55, 0x77, 0x5c, 0xbe, 0x0d, 0x94, 0x58, 0x3e, 0xca, 0x43, 0xd7, 0xbc,
  0x45, 0x31, 0x61, 0x3e, 0x74, 0x1c, 0x54, 0x3e, 0xfd, 0xb5, 0x15, 0x3e,
  0x82, 0xbc, 0x38, 0xbd, 0xfd, 0xdb, 0x4d, 0xbd, 0x2f, 0xa5, 0x53, 0xbc,
  0x85, 0x22, 0x8d, 0x3c, 0x48, 0xce, 0x05, 0x3e, 0x18, 0x3e, 0x25, 0x3e,
  0x8c, 0x79, 0xcb, 0x3b, 0x84, 0x30, 0xcc, 0xbc, 0x33, 0x03, 0xc0, 0xbd,
  0x45, 0x08, 0x34, 0xbd, 0xd8, 0x6d, 0x42, 0xbe, 0x10, 0x30, 0x4b, 0xbd,
  0x0f, 0x52, 0x3c, 0xbe, 0xbc, 0xe7, 0x41, 0xbd, 0x22, 0x69, 0x6c, 0x3e,
  0x34, 0x9f, 0x72, 0xbe, 0x95, 0xe9, 0x76, 0xbc, 0xc0, 0xa3, 0xad, 0xbd,
  0x12, 0x65, 0xeb, 0x3c, 0x8d, 0x03, 0x0e, 0xbd, 0x48, 0x5e, 0x2f, 0x3e,
  0xb7, 0x84, 0x22, 0x3e, 0x61, 0x70, 0xfd, 0x3d, 0xf5, 0x6f, 0x37, 0xbe,
  0x31, 0x42, 0x05, 0xbd, 0x83, 0xef, 0x90, 0x3e, 0x9f, 0x5f, 0x03, 0xbe,
  0xe7, 0x2f, 0x02, 0x3e, 0x17, 0x91, 0x03, 0xbe, 0xc8, 0x82, 0x87, 0xbe,
  0x88, 0x3b, 0xda, 0x3b, 0x40, 0x14, 0x44, 0xbe, 0xf5, 0xb0, 0x07, 0xbe,
  0x2b, 0x20, 0xc0, 0xbd, 0x35, 0x4b, 0x8e, 0xbd, 0x47, 0x20, 0x2a, 0xbe,
  0x8f, 0x80, 0xcd, 0x3b, 0xff, 0x96, 0x06, 0x3e, 0xc6, 0x5e, 0xb5, 0x3b,
  0xbb, 0x33, 0x40, 0xbe, 0xfa, 0x31, 0x39, 0x3d, 0xdd, 0x4a, 0x6b, 0x3e,
  0x53, 0x62, 0xef, 0xbd, 0xd5, 0x6a, 0xd5, 0x3c, 0xa2, 0x6b, 0x13, 0x3e,
  0xc9, 0xd1, 0x83, 0xbe, 0xa3, 0x36, 0xc1, 0x3e, 0x6e, 0x97, 0x79, 0xbe,
  0xf8, 0x0a, 0xef, 0xbc, 0xc6, 0xec, 0xaa, 0xbd, 0x94, 0x55, 0x8d, 0xbd,
  0x52, 0xcb, 0x4c, 0x3c, 0xdc, 0x09, 0x63, 0x3d, 0x02, 0xe1, 0x06, 0x3e,
  0x75, 0x04, 0xa1, 0x3d, 0xbb, 0x6e, 0xf8, 0xbd, 0x5d, 0x09, 0x05, 0xbd,
  0x74, 0x9c, 0x41, 0x3e, 0x83, 0xdf, 0xb4, 0xbd, 0x78, 0x17, 0xd6, 0x3d,
  0x29, 0x98, 0xdb, 0x3d, 0x7f, 0xd6, 0x1e, 0xbe, 0x92, 0x3f, 0x01, 0x3f,
  0x03, 0x93, 0xba, 0xbe, 0xdd, 0xc3, 0x1a, 0x3d, 0x0a, 0x6b, 0xae, 0xbd,
  0x59, 0x04, 0xfb, 0xbc, 0x7e, 0xb2, 0x88, 0x3d, 0x17, 0x63, 0xa8, 0x3c,
  0x2f, 0xfb, 0x81, 0x3e, 0xc4, 0x16, 0x4f, 0x3d, 0x80, 0xab, 0x3e, 0xbc,
  0xb7, 0x44, 0x44, 0xbe, 0x1d, 0x16, 0x71, 0x3e, 0xa1, 0x8c, 0x1c, 0xbc,
  0xf5, 0x09, 0xdd, 0x3c, 0xc4, 0x54, 0x0d, 0x3c, 0xb6, 0xd7, 0x1a, 0xbe,
  0x19, 0xa3, 0xd3, 0x3e, 0xb0, 0x77, 0x83, 0xbe, 0xf9, 0x7e, 0x0f, 0xbd,
  0x19, 0x63, 0x4a, 0xbd, 0x82, 0x9e, 0xd1, 0x3c, 0x72, 0x74, 0xcd, 0xbd,
  0x36, 0x59, 0x99, 0x3d, 0xac, 0xfd, 0x14, 0x3e, 0x80, 0xf8, 0x25, 0xbc,
  0xe3, 0xea, 0x64, 0x3d, 0xc4, 0xcb, 0x92, 0x3d, 0x69, 0x3f, 0xac, 0x3e,
  0xbe, 0xd1, 0xfe, 0x3c, 0x8e, 0x29, 0x15, 0x3d, 0x01, 0xe8, 0x3e, 0x3e,
  0x0d, 0xc5, 0x31, 0xbe, 0x8a, 0x6b, 0x2e, 0x3e, 0xf7, 0xe7, 0x6a, 0xbe,
  0xfb, 0x1f, 0xbf, 0x3d, 0xf5, 0x1f, 0xe3, 0x3d, 0x1d, 0x7b, 0x3c, 0x3e,
  0x0a, 0x12, 0x76, 0xbe, 0xa9, 0xb1, 0x17, 0x3d, 0x82, 0x9d, 0xc5, 0x3c,
  0x75, 0x6a, 0x69, 0x3d, 0x6d, 0x8b, 0xa3, 0xbd, 0x1d, 0x95, 0xdc, 0xbd,
  0x5b, 0x59, 0x35, 0x3e, 0xff, 0xbb, 0xc3, 0x3c, 0x2f, 0x36, 0x99, 0x3d,
  0x1f, 0xa9, 0x49, 0xbe, 0x81, 0xf3, 0xa9, 0xbe, 0x74, 0x9c, 0x3e, 0x3e,
  0xac, 0x8a, 0xaa, 0xbc, 0xf5, 0xe0, 0x22, 0x3e, 0xa4, 0x7d, 0x9b, 0xbe,
  0x42, 0x99, 0x9a, 0xbe, 0x50, 0xac, 0x8e, 0xbd, 0x85, 0x83, 0x29, 0x3d,
  0xca, 0xb0, 0x62, 0x3e, 0xf5, 0x86, 0xf0, 0xbd, 0xe1, 0xb8, 0x11, 0xbe,
  0xec, 0x4c, 0x3a, 0xbe, 0x82, 0x2e, 0x39, 0x3e, 0xa7, 0x25, 0x36, 0x3d,
  0x8d, 0x64, 0xd5, 0x3c, 0x2c, 0x9e, 0x9e, 0xbe, 0x74, 0x2f, 0xaa, 0xbe,
  0x1b, 0xb3, 0x4f, 0x3e, 0xc7, 0x00, 0xa9, 0x3c, 0xee, 0xf0, 0x0a, 0x3e,
  0xaa, 0xe6, 0x13, 0x3e, 0xb7, 0x4d, 0xc3, 0xbd, 0xb9, 0xa7, 0x5b, 0x3d,
  0x81, 0xd4, 0x82, 0xbd, 0x44, 0x99, 0xc6, 0xbd, 0x53, 0x9d, 0x07, 0xbe,
  0xd6, 0x58, 0xc2, 0xbe, 0xb0, 0xab, 0x34, 0x3d, 0x14, 0xe2, 0x28, 0x3e,
  0x1d, 0x70, 0x7c, 0xbe, 0xae, 0xb7, 0xfb, 0xbc, 0xaa, 0x4d, 0xbd, 0xbd,
  0x02, 0x2d, 0x08, 0xbd, 0x21, 0xa2, 0xa1, 0xbd, 0x4f, 0xc1, 0xbc, 0x3d,
  0x57, 0xf8, 0x7e, 0xbd, 0x2c, 0xcb, 0x85, 0xbc, 0x09, 0xbe, 0x68, 0xbe,
  0x8f, 0x2b, 0x2c, 0x3c, 0x1f, 0x3c, 0xe6, 0xbd, 0x13, 0x42, 0xdb, 0x3d,
  0xb2, 0x66, 0xbc, 0xbe, 0x8b, 0x1b, 0xd7, 0xbc, 0x89, 0xcd, 0x23, 0x3e,
  0x36, 0x20, 0xe1, 0xbd, 0xd6, 0x3f, 0x52, 0xbe, 0xda, 0x59, 0x3b, 0xbc,
  0xdd, 0x7f, 0x12, 0x3d, 0x9f, 0x89, 0x29, 0xbb, 0x9c, 0xf8, 0x96, 0x3e,
  0x2f, 0x48, 0xea, 0xbd, 0x20, 0xa2, 0xe8, 0x3d, 0x15, 0x56, 0xe6, 0x3d,
  0x87, 0x1b, 0xa6, 0xbc, 0x92, 0xda, 0x4c, 0x3e, 0x91, 0x3f, 0xcb, 0xbd,
  0xfc, 0x05, 0xc8, 0xbd, 0x40, 0xe9, 0x60, 0xbb, 0x52, 0xbf, 0x7d, 0x3d,
  0xde, 0x9b, 0x34, 0x3d, 0x9f, 0x58, 0xcd, 0xbd, 0x11, 0xc3, 0x26, 0xbe,
  0x73, 0x87, 0x65, 0xbe, 0x4a, 0xf9, 0xf8, 0x3c, 0x1c, 0xad, 0x09, 0x3d,
  0x8f, 0x9c, 0x51, 0x3e, 0xfd, 0x11, 0x07, 0x3c, 0x52, 0x8f, 0x15, 0xbe,
  0xe1, 0xde, 0x80, 0xbd, 0x48, 0xf2, 0xac, 0x3d, 0xc6, 0x7d, 0x55, 0x3e,
  0x18, 0x78, 0x7f, 0x3d, 0xb5, 0x2b, 0x00, 0xbe, 0x60, 0x07, 0x97, 0x3d,
  0xf1, 0x92, 0x59, 0xbc, 0xc4, 0xfc, 0x98, 0xbd, 0x56, 0x08, 0x2e, 0xbe,
  0x66, 0xa4, 0x63, 0x3c, 0x29, 0x1d, 0x90, 0xbc, 0x04, 0x9c, 0x3a, 0x3e,
  0x0b, 0x87, 0x92, 0x3a, 0xa9, 0x77, 0x11, 0xbe, 0x90, 0x88, 0x11, 0xbe,
  0xe2, 0x2c, 0x27, 0x3c, 0xc5, 0x20, 0x7a, 0x3d, 0xb2, 0x7d, 0x9b, 0x3d,
  0x98, 0x7b, 0x1b, 0x3d, 0xd8, 0x1a, 0x2a, 0xbe, 0xdd, 0x08, 0x8b, 0xbe,
  0x7d, 0x23, 0x53, 0xbe, 0x39, 0xaf, 0x5a, 0xbc, 0x0d, 0x1e, 0xb7, 0x3b,
  0x88, 0xf0, 0xbe, 0xbd, 0x3c, 0xf5, 0x78, 0xbe, 0x56, 0x79, 0x27, 0xbc,
  0x6d, 0xd4, 0x9b, 0xbb, 0xee, 0x3a, 0x59, 0xbe, 0x43, 0xd0, 0x56, 0xbd,
  0x73, 0x9e, 0x99, 0xbd, 0x4b, 0x4c, 0xea, 0xbd, 0x17, 0xb0, 0x6f, 0xbd,
  0x38, 0x96, 0xc6, 0xbd, 0x23, 0x75, 0xe9, 0x3d, 0x98, 0xc7, 0xef, 0xbd,
  0x2e, 0xd9, 0xbe, 0xbd, 0x1b, 0x4b, 0xa1, 0xbe, 0xaf, 0x25, 0x8c, 0xbe,
  0xb8, 0xd7, 0xfe, 0xbd, 0xf3, 0x8e, 0x06, 0xbd, 0xa7, 0x47, 0x76, 0xbb,
  0x4e, 0x5a, 0x2a, 0xbe, 0xd1, 0xc1, 0x4e, 0xbd, 0x1e, 0x4e, 0x71, 0xbe,
  0x1f, 0x9a, 0xb2, 0xbd, 0x75, 0xf6, 0x2d, 0xbe, 0x63, 0x04, 0x92, 0xbd,
  0x66, 0xfd, 0xff, 0xff, 0x10, 0x00, 0x00, 0x00, 0x07, 0x00, 0x00, 0x00,
  0x14, 0x00, 0x00, 0x00, 0x2c, 0x00, 0x00, 0x00, 0x02, 0x00, 0x00, 0x00,
  0x10, 0x00, 0x00, 0x00, 0x70, 0x00, 0x00, 0x00, 0x17, 0x00, 0x00, 0x00,
  0x73, 0x65, 0x71, 0x75, 0x65, 0x6e, 0x74, 0x69, 0x61, 0x6c, 0x2f, 0x64,
  0x65, 0x6e, 0x73, 0x65, 0x2f, 0x4d, 0x61, 0x74, 0x4d, 0x75, 0x6c, 0x00,
  0xd0, 0xfc, 0xff, 0xff, 0xda, 0xfd, 0xff, 0xff, 0x04, 0x00, 0x00, 0x00,
  0x08, 0x00, 0x00, 0x00, 0xff, 0xff, 0xff, 0xff, 0x70, 0x00, 0x00, 0x00,
  0x00, 0x00, 0x0e, 0x00, 0x18, 0x00, 0x08, 0x00, 0x07, 0x00, 0x0c, 0x00,
  0x10, 0x00, 0x14, 0x00, 0x0e, 0x00, 0x00, 0x00, 0x00, 0x00, 0x00, 0x02,
  0x10, 0x00, 0x00, 0x00, 0x06, 0x00, 0x00, 0x00, 0x10, 0x00, 0x00, 0x00,
  0x2c, 0x00, 0x00, 0x00, 0x01, 0x00, 0x00, 0x00, 0x02, 0x00, 0x00, 0x00,
  0x18, 0x00, 0x00, 0x00, 0x73, 0x65, 0x71, 0x75, 0x65, 0x6e, 0x74, 0x69,
  0x61, 0x6c, 0x2f, 0x66, 0x6c, 0x61, 0x74, 0x74, 0x65, 0x6e, 0x2f, 0x43,
  0x6f, 0x6e, 0x73, 0x74, 0x00, 0x00, 0x00, 0x00, 0x38, 0xfd, 0xff, 0xff,
  0x42, 0xfe, 0xff, 0xff, 0x04, 0x00, 0x00, 0x00, 0x0c, 0x00, 0x00, 0x00,
  0xc5, 0xaa, 0x3c, 0xc0, 0x18, 0xd2, 0x9a, 0x3e, 0xb4, 0x66, 0x77, 0x3f,
  0x26, 0xfe, 0xff, 0xff, 0x10, 0x00, 0x00, 0x00, 0x05, 0x00, 0x00, 0x00,
  0x10, 0x00, 0x00, 0x00, 0x44, 0x00, 0x00, 0x00, 0x01, 0x00, 0x00, 0x00,
  0x03, 0x00, 0x00, 0x00, 0x32, 0x00, 0x00, 0x00, 0x73, 0x65, 0x71, 0x75,
  0x65, 0x6e, 0x74, 0x69, 0x61, 0x6c, 0x2f, 0x64, 0x65, 0x6e, 0x73, 0x65,
  0x5f, 0x31, 0x2f, 0x42, 0x69, 0x61, 0x73, 0x41, 0x64, 0x64, 0x2f, 0x52,
  0x65, 0x61, 0x64, 0x56, 0x61, 0x72, 0x69, 0x61, 0x62, 0x6c, 0x65, 0x4f,
  0x70, 0x2f, 0x72, 0x65, 0x73, 0x6f, 0x75, 0x72, 0x63, 0x65, 0x00, 0x00,
  0xa8, 0xfd, 0xff, 0xff, 0xb2, 0xfe, 0xff, 0xff, 0x04, 0x00, 0x00, 0x00,
  0x40, 0x00, 0x00, 0x00, 0xac, 0xd2, 0xc4, 0xbe, 0xb0, 0x05, 0x57, 0xbe,
  0x1e, 0xc3, 0x56, 0x3f, 0x95, 0x2b, 0xa6, 0xbf, 0x82, 0x1d, 0x40, 0xbe,
  0xe0, 0xd7, 0x06, 0xbf, 0xef, 0xf9, 0x8f, 0x3e, 0x0e, 0xe1, 0x86, 0xbe,
  0x7b, 0x73, 0xba, 0xbf, 0xf1, 0x2c, 0x38, 0x3f, 0x87, 0x43, 0x89, 0xbe,
  0x36, 0x1f, 0x0b, 0x40, 0x70, 0x89, 0x1d, 0x40, 0x60, 0xc8, 0x23, 0x3b,
  0x07, 0x6c, 0x5f, 0xbf, 0x75, 0x74, 0xe7, 0xbe, 0xca, 0xfe, 0xff, 0xff,
  0x10, 0x00, 0x00, 0x00, 0x04, 0x00, 0x00, 0x00, 0x10, 0x00, 0x00, 0x00,
  0x44, 0x00, 0x00, 0x00, 0x01, 0x00, 0x00, 0x00, 0x10, 0x00, 0x00, 0x00,
  0x30, 0x00, 0x00, 0x00, 0x73, 0x65, 0x71, 0x75, 0x65, 0x6e, 0x74, 0x69,
  0x61, 0x6c, 0x2f, 0x64, 0x65, 0x6e, 0x73, 0x65, 0x2f, 0x42, 0x69, 0x61,
  0x73, 0x41, 0x64, 0x64, 0x2f, 0x52, 0x65, 0x61, 0x64, 0x56, 0x61, 0x72,
  0x69, 0x61, 0x62, 0x6c, 0x65, 0x4f, 0x70, 0x2f, 0x72, 0x65, 0x73, 0x6f,
  0x75, 0x72, 0x63, 0x65, 0x00, 0x00, 0x00, 0x00, 0x4c, 0xfe, 0xff, 0xff,
  0x56, 0xff, 0xff, 0xff, 0x04, 0x00, 0x00, 0x00, 0x40, 0x00, 0x00, 0x00,
  0x35, 0xaf, 0xae, 0x3e, 0x2f, 0x98, 0x47, 0x3e, 0x1f, 0x6b, 0xc4, 0x3e,
  0x12, 0x6b, 0x1a, 0xc0, 0xad, 0x65, 0xf9, 0xbf, 0x5e, 0xf5, 0xf5, 0x3e,
  0x86, 0x16, 0xbf, 0x3f, 0x48, 0x03, 0x5d, 0x3e, 0x5a, 0xb4, 0x67, 0xbf,
  0x38, 0x80, 0xd4, 0x3e, 0xee, 0x78, 0xca, 0xbf, 0xec, 0x75, 0x5d, 0xbe,
  0x89, 0x97, 0x2a, 0x3f, 0x74, 0xc3, 0x7b, 0xbe, 0x11, 0x1d, 0x28, 0x3f,
  0x40, 0x2b, 0x04, 0xc0, 0x6e, 0xff, 0xff, 0xff, 0x10, 0x00, 0x00, 0x00,
  0x03, 0x00, 0x00, 0x00, 0x10, 0x00, 0x00, 0x00, 0x48, 0x00, 0x00, 0x00,
  0x01, 0x00, 0x00, 0x00, 0x10, 0x00, 0x00, 0x00, 0x33, 0x00, 0x00, 0x00,
  0x73, 0x65, 0x71, 0x75, 0x65, 0x6e, 0x74, 0x69, 0x61, 0x6c, 0x2f, 0x63,
  0x6f, 0x6e, 0x76, 0x32, 0x64, 0x5f, 0x31, 0x2f, 0x42, 0x69, 0x61, 0x73,
  0x41, 0x64, 0x64, 0x2f, 0x52, 0x65, 0x61, 0x64, 0x56, 0x61, 0x72, 0x69,
  0x61, 0x62, 0x6c, 0x65, 0x4f, 0x70, 0x2f, 0x72, 0x65, 0x73, 0x6f, 0x75,
  0x72, 0x63, 0x65, 0x00, 0x04, 0x00, 0x06, 0x00, 0x04, 0x00, 0x00, 0x00,
  0x00, 0x00, 0x06, 0x00, 0x08, 0x00, 0x04, 0x00, 0x06, 0x00, 0x00, 0x00,
  0x04, 0x00, 0x00, 0x00, 0x20, 0x00, 0x00, 0x00, 0x57, 0x0b, 0xcc, 0xbf,
  0xf0, 0xb7, 0xd0, 0xbf, 0x2e, 0x61, 0x8d, 0xbf, 0xe4, 0x94, 0x11, 0xbf,
  0x61, 0x9c, 0x25, 0x3f, 0x53, 0xe6, 0xac, 0xbf, 0x3a, 0xeb, 0xd4, 0xbe,
  0x6e, 0xbf, 0xfd, 0xbf, 0x00, 0x00, 0x0e, 0x00, 0x14, 0x00, 0x04, 0x00,
  0x00, 0x00, 0x08, 0x00, 0x0c, 0x00, 0x10, 0x00, 0x0e, 0x00, 0x00, 0x00,
  0x10, 0x00, 0x00, 0x00, 0x02, 0x00, 0x00, 0x00, 0x10, 0x00, 0x00, 0x00,
  0x44, 0x00, 0x00, 0x00, 0x01, 0x00, 0x00, 0x00, 0x08, 0x00, 0x00, 0x00,
  0x31, 0x00, 0x00, 0x00, 0x73, 0x65, 0x71, 0x75, 0x65, 0x6e, 0x74, 0x69,
  0x61, 0x6c, 0x2f, 0x63, 0x6f, 0x6e, 0x76, 0x32, 0x64, 0x2f, 0x42, 0x69,
  0x61, 0x73, 0x41, 0x64, 0x64, 0x2f, 0x52, 0x65, 0x61, 0x64, 0x56, 0x61,
  0x72, 0x69, 0x61, 0x62, 0x6c, 0x65, 0x4f, 0x70, 0x2f, 0x72, 0x65, 0x73,
  0x6f, 0x75, 0x72, 0x63, 0x65, 0x00, 0x00, 0x00, 0x90, 0xff, 0xff, 0xff,
  0x14, 0x00, 0x18, 0x00, 0x04, 0x00, 0x00, 0x00, 0x08, 0x00, 0x0c, 0x00,
  0x10, 0x00, 0x00, 0x00, 0x00, 0x00, 0x14, 0x00, 0x14, 0x00, 0x00, 0x00,
  0x14, 0x00, 0x00, 0x00, 0x01, 0x00, 0x00, 0x00, 0x20, 0x00, 0x00, 0x00,
  0x44, 0x00, 0x00, 0x00, 0x2c, 0x00, 0x00, 0x00, 0x04, 0x00, 0x00, 0x00,
  0x01, 0x00, 0x00, 0x00, 0x40, 0x00, 0x00, 0x00, 0x03, 0x00, 0x00, 0x00,
  0x01, 0x00, 0x00, 0x00, 0x0c, 0x00, 0x00, 0x00, 0x63, 0x6f, 0x6e, 0x76,
  0x32, 0x64, 0x5f, 0x69, 0x6e, 0x70, 0x75, 0x74, 0x00, 0x00, 0x00, 0x00,
  0x04, 0x00, 0x00, 0x00, 0xff, 0xff, 0xff, 0xff, 0x40, 0x00, 0x00, 0x00,
  0x03, 0x00, 0x00, 0x00, 0x01, 0x00, 0x00, 0x00, 0xfc, 0xff, 0xff, 0xff,
  0x04, 0x00, 0x04, 0x00, 0x04, 0x00, 0x00, 0x00
};

unsigned int model_tflite_len = 13052;// Fill the int in `src/model.cc` here