#include "magic_wand_model_data.h"

// We need to keep the data array aligned on some architectures.
#ifdef __has_attribute
#define HAVE_ATTRIBUTE(x) __has_attribute(x)
#else
#define HAVE_ATTRIBUTE(x) 0
#endif
#if HAVE_ATTRIBUTE(aligned) || (defined(__GNUC__) && !defined(__clang__))
#define DATA_ALIGN_ATTRIBUTE __attribute__((aligned(4)))
#else
#define DATA_ALIGN_ATTRIBUTE
#endif

const unsigned char g_magic_wand_model_data[] DATA_ALIGN_ATTRIBUTE = {
  0x1c, 0x00, 0x00, 0x00, 0x54, 0x46, 0x4c, 0x33, 0x14, 0x00, 0x20, 0x00,
  0x04, 0x00, 0x08, 0x00, 0x0c, 0x00, 0x10, 0x00, 0x14, 0x00, 0x00, 0x00,
  0x18, 0x00, 0x1c, 0x00, 0x14, 0x00, 0x00, 0x00, 0x03, 0x00, 0x00, 0x00,
  0x18, 0x00, 0x00, 0x00, 0x2c, 0x00, 0x00, 0x00, 0xd8, 0x00, 0x00, 0x00,
  0x2c, 0x00, 0x00, 0x00, 0x80, 0x00, 0x00, 0x00, 0x78, 0x00, 0x00, 0x00,
  0x05, 0x00, 0x00, 0x00, 0x28, 0x07, 0x00, 0x00, 0x44, 0x06, 0x00, 0x00,
  0xbc, 0x03, 0x00, 0x00, 0xf8, 0x02, 0x00, 0x00, 0xac, 0x01, 0x00, 0x00,
  0x01, 0x00, 0x00, 0x00, 0xd0, 0x00, 0x00, 0x00, 0x14, 0x00, 0x00, 0x00,
  0x98, 0x32, 0x00, 0x00, 0x94, 0x32, 0x00, 0x00, 0x8c, 0x31, 0x00, 0x00,
  0xd8, 0x30, 0x00, 0x00, 0x30, 0x30, 0x00, 0x00, 0xbc, 0x2f, 0x00, 0x00,
  0x50, 0x2f, 0x00, 0x00, 0x00, 0x13, 0x00, 0x00, 0xec, 0x11, 0x00, 0x00,
  0x10, 0x10, 0x00, 0x00, 0xb4, 0x07, 0x00, 0x00, 0x6c, 0x32, 0x00, 0x00,
  0x68, 0x32, 0x00, 0x00, 0x64, 0x32, 0x00, 0x00, 0x60, 0x32, 0x00, 0x00,
  0x5c, 0x32, 0x00, 0x00, 0x58, 0x32, 0x00, 0x00, 0x54, 0x32, 0x00, 0x00,
  0x50, 0x32, 0x00, 0x00, 0x3c, 0x00, 0x00, 0x00, 0x00, 0x00, 0x00, 0x00,
  0x01, 0x00, 0x00, 0x00, 0x0c, 0x00, 0x00, 0x00, 0x08, 0x00, 0x0c, 0x00,
  0x04, 0x00, 0x08, 0x00, 0x08, 0x00, 0x00, 0x00, 0x08, 0x00, 0x00, 0x00,
  0x13, 0x00, 0x00, 0x00, 0x13, 0x00, 0x00, 0x00, 0x6d, 0x69, 0x6e, 0x5f,
  0x72, 0x75, 0x6e, 0x74, 0x69, 0x6d, 0x65, 0x5f, 0x76, 0x65, 0x72, 0x73,
  0x69, 0x6f, 0x6e, 0x00, 0xfa, 0xce, 0xff, 0xff, 0x04, 0x00, 0x00, 0x00,
  0x10, 0x00, 0x00, 0x00, 0x31, 0x2e, 0x35, 0x2e, 0x30, 0x00, 0x00, 0x00,
  0x00, 0x00, 0x00, 0x00, 0x00, 0x00, 0x00, 0x00, 0x0f, 0x00, 0x00, 0x00,
  0x4d, 0x4c, 0x49, 0x52, 0x20, 0x43, 0x6f, 0x6e, 0x76, 0x65, 0x72, 0x74,
  0x65, 0x64, 0x2e, 0x00, 0x00, 0x00, 0x0e, 0x00, 0x18, 0x00, 0x04, 0x00,
  0x08, 0x00, 0x0c, 0x00, 0x10, 0x00, 0x14, 0x00, 0x0e, 0x00, 0x00, 0x00,
  0x14, 0x00, 0x00, 0x00, 0x5c, 0x00, 0x00, 0x00, 0x60, 0x00, 0x00, 0x00,
  0x64, 0x00, 0x00, 0x00, 0x84, 0x00, 0x00, 0x00, 0x12, 0x00, 0x00, 0x00,
  0x58, 0x31, 0x00, 0x00, 0xe8, 0x30, 0x00, 0x00, 0x44, 0x30, 0x00, 0x00,
  0x9c, 0x2f, 0x00, 0x00, 0xf4, 0x2e, 0x00, 0x00, 0x94, 0x2e, 0x00, 0x00,
  0x2c, 0x2e, 0x00, 0x00, 0xd8, 0x11, 0x00, 0x00, 0xbc, 0x10, 0x00, 0x00,
  0xe0, 0x0e, 0x00, 0x00, 0x0c, 0x06, 0x00, 0x00, 0x28, 0x05, 0x00, 0x00,
  0xe8, 0x03, 0x00, 0x00, 0x3c, 0x03, 0x00, 0x00, 0x98, 0x02, 0x00, 0x00,
  0xd4, 0x01, 0x00, 0x00, 0x10, 0x01, 0x00, 0x00, 0x84, 0x00, 0x00, 0x00,
  0x01, 0x00, 0x00, 0x00, 0x00, 0x00, 0x00, 0x00, 0x01, 0x00, 0x00, 0x00,
  0x11, 0x00, 0x00, 0x00, 0x08, 0x00, 0x00, 0x00, 0x74, 0x05, 0x00, 0x00,
  0x94, 0x04, 0x00, 0x00, 0x78, 0x03, 0x00, 0x00, 0xbc, 0x02, 0x00, 0x00,
  0x30, 0x02, 0x00, 0x00, 0x50, 0x01, 0x00, 0x00, 0xa8, 0x00, 0x00, 0x00,
  0x10, 0x00, 0x00, 0x00, 0x04, 0x00, 0x00, 0x00, 0x6d, 0x61, 0x69, 0x6e,
  0x00, 0x00, 0x00, 0x00, 0x7a, 0xff, 0xff, 0xff, 0x00, 0x00, 0x00, 0x09,
  0x04, 0x00, 0x00, 0x00, 0x1c, 0x00, 0x00, 0x00, 0x10, 0x00, 0x00, 0x00,
  0x04, 0x00, 0x00, 0x00, 0xf6, 0xcf, 0xff, 0xff, 0x00, 0x00, 0x80, 0x3f,
  0x01, 0x00, 0x00, 0x00, 0x11, 0x00, 0x00, 0x00, 0x01, 0x00, 0x00, 0x00,
  0x10, 0x00, 0x00, 0x00, 0xa0, 0xfa, 0xff, 0xff, 0x19, 0x00, 0x00, 0x00,
  0x00, 0x00, 0x00, 0x19, 0x01, 0x00, 0x00, 0x00, 0x84, 0xcf, 0xff, 0xff,
  0x14, 0x00, 0x00, 0x00, 0x12, 0x00, 0x00, 0x00, 0x18, 0x00, 0x00, 0x00,
  0x30, 0x00, 0x00, 0x00, 0x20, 0x00, 0x00, 0x00, 0x02, 0x00, 0x00, 0x00,
  0x01, 0x00, 0x00, 0x00, 0x03, 0x00, 0x00, 0x00, 0x08, 0x00, 0x00, 0x00,
  0x49, 0x64, 0x65, 0x6e, 0x74, 0x69, 0x74, 0x79, 0x00, 0x00, 0x00, 0x00,
  0x02, 0x00, 0x00, 0x00, 0xff, 0xff, 0xff, 0xff, 0x03, 0x00, 0x00, 0x00,
  0x68, 0xd0, 0xff, 0xff, 0x00, 0x00, 0x0e, 0x00, 0x18, 0x00, 0x08, 0x00,
  0x0c, 0x00, 0x10, 0x00, 0x07, 0x00, 0x14, 0x00, 0x0e, 0x00, 0x00, 0x00,
  0x00, 0x00, 0x00, 0x08, 0x03, 0x00, 0x00, 0x00, 0x18, 0x00, 0x00, 0x00,
  0x0c, 0x00, 0x00, 0x00, 0x04, 0x00, 0x00, 0x00, 0x84, 0xcf, 0xff, 0xff,
  0x01, 0x00, 0x00, 0x00, 0x10, 0x00, 0x00, 0x00, 0x03, 0x00, 0x00, 0x00,
  0x0f, 0x00, 0x00, 0x00, 0x07, 0x00, 0x00, 0x00, 0x04, 0x00, 0x00, 0x00,
  0x0c, 0xd0, 0xff, 0xff, 0x14, 0x00, 0x00, 0x00, 0x11, 0x00, 0x00, 0x00,
  0x18, 0x00, 0x00, 0x00, 0x5c, 0x00, 0x00, 0x00, 0x4c, 0x00, 0x00, 0x00,
  0x02, 0x00, 0x00, 0x00, 0x01, 0x00, 0x00, 0x00, 0x03, 0x00, 0x00, 0x00,
  0x34, 0x00, 0x00, 0x00, 0x73, 0x65, 0x71, 0x75, 0x65, 0x6e, 0x74, 0x69,
  0x61, 0x6c, 0x2f, 0x64, 0x65, 0x6e, 0x73, 0x65, 0x5f, 0x31, 0x2f, 0x4d,
  0x61, 0x74, 0x4d, 0x75, 0x6c, 0x3b, 0x73, 0x65, 0x71, 0x75, 0x65, 0x6e,
  0x74, 0x69, 0x61, 0x6c, 0x2f, 0x64, 0x65, 0x6e, 0x73, 0x65, 0x5f, 0x31,
  0x2f, 0x42, 0x69, 0x61, 0x73, 0x41, 0x64, 0x64, 0x00, 0x00, 0x00, 0x00,
  0x02, 0x00, 0x00, 0x00, 0xff, 0xff, 0xff, 0xff, 0x03, 0x00, 0x00, 0x00,
  0x0c, 0xd0, 0xff, 0xff, 0xda, 0xfc, 0xff, 0xff, 0x00, 0x00, 0x00, 0x08,
  0x03, 0x00, 0x00, 0x00, 0x24, 0x00, 0x00, 0x00, 0x18, 0x00, 0x00, 0x00,
  0x0c, 0x00, 0x00, 0x00, 0x00, 0x00, 0x06, 0x00, 0x08, 0x00, 0x07, 0x00,
  0x06, 0x00, 0x00, 0x00, 0x00, 0x00, 0x00, 0x01, 0x01, 0x00, 0x00, 0x00,
  0x0f, 0x00, 0x00, 0x00, 0x03, 0x00, 0x00, 0x00, 0x0e, 0x00, 0x00, 0x00,
  0x06, 0x00, 0x00, 0x00, 0x03, 0x00, 0x00, 0x00, 0xe8, 0xfb, 0xff, 0xff,
  0x09, 0x00, 0x00, 0x00, 0x00, 0x00, 0x00, 0x09, 0x01, 0x00, 0x00, 0x00,
  0xcc, 0xd0, 0xff, 0xff, 0x14, 0x00, 0x00, 0x00, 0x10, 0x00, 0x00, 0x00,
  0x18, 0x00, 0x00, 0x00, 0x6c, 0x00, 0x00, 0x00, 0x5c, 0x00, 0x00, 0x00,
  0x02, 0x00, 0x00, 0x00, 0x01, 0x00, 0x00, 0x00, 0x10, 0x00, 0x00, 0x00,
  0x46, 0x00, 0x00, 0x00, 0x73, 0x65, 0x71, 0x75, 0x65, 0x6e, 0x74, 0x69,
  0x61, 0x6c, 0x2f, 0x64, 0x65, 0x6e, 0x73, 0x65, 0x2f, 0x4d, 0x61, 0x74,
  0x4d, 0x75, 0x6c, 0x3b, 0x73, 0x65, 0x71, 0x75, 0x65, 0x6e, 0x74, 0x69,
  0x61, 0x6c, 0x2f, 0x64, 0x65, 0x6e, 0x73, 0x65, 0x2f, 0x52, 0x65, 0x6c,
  0x75, 0x3b, 0x73, 0x65, 0x71, 0x75, 0x65, 0x6e, 0x74, 0x69, 0x61, 0x6c,
  0x2f, 0x64, 0x65, 0x6e, 0x73, 0x65, 0x2f, 0x42, 0x69, 0x61, 0x73, 0x41,
  0x64, 0x64, 0x00, 0x00, 0x02, 0x00, 0x00, 0x00, 0xff, 0xff, 0xff, 0xff,
  0x10, 0x00, 0x00, 0x00, 0xec, 0xd1, 0xff, 0xff, 0x00, 0x00, 0x0a, 0x00,
  0x10, 0x00, 0x04, 0x00, 0x08, 0x00, 0x0c, 0x00, 0x0a, 0x00, 0x00, 0x00,
  0x02, 0x00, 0x00, 0x00, 0x10, 0x00, 0x00, 0x00, 0x04, 0x00, 0x00, 0x00,
  0x01, 0x00, 0x00, 0x00, 0x0e, 0x00, 0x00, 0x00, 0x02, 0x00, 0x00, 0x00,
  0x0d, 0x00, 0x00, 0x00, 0x05, 0x00, 0x00, 0x00, 0xa8, 0xfc, 0xff, 0xff,
  0x16, 0x00, 0x00, 0x00, 0x00, 0x00, 0x00, 0x16, 0x01, 0x00, 0x00, 0x00,
  0x8c, 0xd1, 0xff, 0xff, 0x14, 0x00, 0x00, 0x00, 0x0f, 0x00, 0x00, 0x00,
  0x18, 0x00, 0x00, 0x00, 0x40, 0x00, 0x00, 0x00, 0x30, 0x00, 0x00, 0x00,
  0x02, 0x00, 0x00, 0x00, 0x01, 0x00, 0x00, 0x00, 0x70, 0x00, 0x00, 0x00,
  0x1a, 0x00, 0x00, 0x00, 0x73, 0x65, 0x71, 0x75, 0x65, 0x6e, 0x74, 0x69,
  0x61, 0x6c, 0x2f, 0x66, 0x6c, 0x61, 0x74, 0x74, 0x65, 0x6e, 0x2f, 0x52,
  0x65, 0x73, 0x68, 0x61, 0x70, 0x65, 0x00, 0x00, 0x02, 0x00, 0x00, 0x00,
  0xff, 0xff, 0xff, 0xff, 0x70, 0x00, 0x00, 0x00, 0x70, 0xd1, 0xff, 0xff,
  0x3e, 0xfe, 0xff, 0xff, 0x00, 0x00, 0x00, 0x05, 0x01, 0x00, 0x00, 0x00,
  0x38, 0x00, 0x00, 0x00, 0x2c, 0x00, 0x00, 0x00, 0x14, 0x00, 0x00, 0x00,
  0x00, 0x00, 0x0e, 0x00, 0x14, 0x00, 0x00, 0x00, 0x10, 0x00, 0x0c, 0x00,
  0x08, 0x00, 0x04, 0x00, 0x0e, 0x00, 0x00, 0x00, 0x03, 0x00, 0x00, 0x00,
  0x01, 0x00, 0x00, 0x00, 0x03, 0x00, 0x00, 0x00, 0x01, 0x00, 0x00, 0x00,
  0x01, 0x00, 0x00, 0x00, 0x0d, 0x00, 0x00, 0x00, 0x01, 0x00, 0x00, 0x00,
  0x0c, 0x00, 0x00, 0x00, 0x2c, 0xd2, 0xff, 0xff, 0x14, 0x00, 0x00, 0x00,
  0x0e, 0x00, 0x00, 0x00, 0x20, 0x00, 0x00, 0x00, 0x58, 0x00, 0x00, 0x00,
  0x40, 0x00, 0x00, 0x00, 0x04, 0x00, 0x00, 0x00, 0x01, 0x00, 0x00, 0x00,
  0x07, 0x00, 0x00, 0x00, 0x01, 0x00, 0x00, 0x00, 0x10, 0x00, 0x00, 0x00,
  0x22, 0x00, 0x00, 0x00, 0x73, 0x65, 0x71, 0x75, 0x65, 0x6e, 0x74, 0x69,
  0x61, 0x6c, 0x2f, 0x6d, 0x61, 0x78, 0x5f, 0x70, 0x6f, 0x6f, 0x6c, 0x69,
  0x6e, 0x67, 0x32, 0x64, 0x5f, 0x31, 0x2f, 0x4d, 0x61, 0x78, 0x50, 0x6f,
  0x6f, 0x6c, 0x00, 0x00, 0x04, 0x00, 0x00, 0x00, 0xff, 0xff, 0xff, 0xff,
  0x07, 0x00, 0x00, 0x00, 0x01, 0x00, 0x00, 0x00, 0x10, 0x00, 0x00, 0x00,
  0x28, 0xd2, 0xff, 0xff, 0x1a, 0xfe, 0xff, 0xff, 0x00, 0x00, 0x00, 0x01,
  0x24, 0x00, 0x00, 0x00, 0x18, 0x00, 0x00, 0x00, 0x04, 0x00, 0x00, 0x00,
  0x0c, 0xfe, 0xff, 0xff, 0x01, 0x00, 0x00, 0x00, 0x01, 0x00, 0x00, 0x00,
  0x00, 0x00, 0x00, 0x01, 0x01, 0x00, 0x00, 0x00, 0x0c, 0x00, 0x00, 0x00,
  0x03, 0x00, 0x00, 0x00, 0x0b, 0x00, 0x00, 0x00, 0x09, 0x00, 0x00, 0x00,
  0x02, 0x00, 0x00, 0x00, 0xd4, 0xd2, 0xff, 0xff, 0x14, 0x00, 0x00, 0x00,
  0x0d, 0x00, 0x00, 0x00, 0x20, 0x00, 0x00, 0x00, 0xb8, 0x00, 0x00, 0x00,
  0xa0, 0x00, 0x00, 0x00, 0x04, 0x00, 0x00, 0x00, 0x01, 0x00, 0x00, 0x00,
  0x15, 0x00, 0x00, 0x00, 0x01, 0x00, 0x00, 0x00, 0x10, 0x00, 0x00, 0x00,
  0x83, 0x00, 0x00, 0x00, 0x73, 0x65, 0x71, 0x75, 0x65, 0x6e, 0x74, 0x69,
  0x61, 0x6c, 0x2f, 0x63, 0x6f, 0x6e, 0x76, 0x32, 0x64, 0x5f, 0x31, 0x2f,
  0x52, 0x65, 0x6c, 0x75, 0x3b, 0x73, 0x65, 0x71, 0x75, 0x65, 0x6e, 0x74,
  0x69, 0x61, 0x6c, 0x2f, 0x63, 0x6f, 0x6e, 0x76, 0x32, 0x64, 0x5f, 0x31,
  0x2f, 0x42, 0x69, 0x61, 0x73, 0x41, 0x64, 0x64, 0x3b, 0x73, 0x65, 0x71,
  0x75, 0x65, 0x6e, 0x74, 0x69, 0x61, 0x6c, 0x2f, 0x63, 0x6f, 0x6e, 0x76,
  0x32, 0x64, 0x5f, 0x31, 0x2f, 0x43, 0x6f, 0x6e, 0x76, 0x32, 0x44, 0x3b,
  0x73, 0x65, 0x71, 0x75, 0x65, 0x6e, 0x74, 0x69, 0x61, 0x6c, 0x2f, 0x63,
  0x6f, 0x6e, 0x76, 0x32, 0x64, 0x5f, 0x31, 0x2f, 0x42, 0x69, 0x61, 0x73,
  0x41, 0x64, 0x64, 0x2f, 0x52, 0x65, 0x61, 0x64, 0x56, 0x61, 0x72, 0x69,
  0x61, 0x62, 0x6c, 0x65, 0x4f, 0x70, 0x2f, 0x72, 0x65, 0x73, 0x6f, 0x75,
  0x72, 0x63, 0x65, 0x00, 0x04, 0x00, 0x00, 0x00, 0xff, 0xff, 0xff, 0xff,
  0x15, 0x00, 0x00, 0x00, 0x01, 0x00, 0x00, 0x00, 0x10, 0x00, 0x00, 0x00,
  0x40, 0xd4, 0xff, 0xff, 0x00, 0x00, 0x0e, 0x00, 0x1a, 0x00, 0x08, 0x00,
  0x0c, 0x00, 0x10, 0x00, 0x07, 0x00, 0x14, 0x00, 0x0e, 0x00, 0x00, 0x00,
  0x00, 0x00, 0x00, 0x05, 0x01, 0x00, 0x00, 0x00, 0x3c, 0x00, 0x00, 0x00,
  0x30, 0x00, 0x00, 0x00, 0x14, 0x00, 0x00, 0x00, 0x00, 0x00, 0x0e, 0x00,
  0x18, 0x00, 0x17, 0x00, 0x10, 0x00, 0x0c, 0x00, 0x08, 0x00, 0x04, 0x00,
  0x0e, 0x00, 0x00, 0x00, 0x03, 0x00, 0x00, 0x00, 0x03, 0x00, 0x00, 0x00,
  0x03, 0x00, 0x00, 0x00, 0x03, 0x00, 0x00, 0x00, 0x00, 0x00, 0x00, 0x01,
  0x01, 0x00, 0x00, 0x00, 0x0b, 0x00, 0x00, 0x00, 0x01, 0x00, 0x00, 0x00,
  0x0a, 0x00, 0x00, 0x00, 0x2c, 0xff, 0xff, 0xff, 0x11, 0x00, 0x00, 0x00,
  0x00, 0x00, 0x00, 0x11, 0x01, 0x00, 0x00, 0x00, 0x10, 0xd4, 0xff, 0xff,
  0x14, 0x00, 0x00, 0x00, 0x0c, 0x00, 0x00, 0x00, 0x20, 0x00, 0x00, 0x00,
  0x58, 0x00, 0x00, 0x00, 0x40, 0x00, 0x00, 0x00, 0x04, 0x00, 0x00, 0x00,
  0x01, 0x00, 0x00, 0x00, 0x15, 0x00, 0x00, 0x00, 0x01, 0x00, 0x00, 0x00,
  0x08, 0x00, 0x00, 0x00, 0x20, 0x00, 0x00, 0x00, 0x73, 0x65, 0x71, 0x75,
  0x65, 0x6e, 0x74, 0x69, 0x61, 0x6c, 0x2f, 0x6d, 0x61, 0x78, 0x5f, 0x70,
  0x6f, 0x6f, 0x6c, 0x69, 0x6e, 0x67, 0x32, 0x64, 0x2f, 0x4d, 0x61, 0x78,
  0x50, 0x6f, 0x6f, 0x6c, 0x00, 0x00, 0x00, 0x00, 0x04, 0x00, 0x00, 0x00,
  0xff, 0xff, 0xff, 0xff, 0x15, 0x00, 0x00, 0x00, 0x01, 0x00, 0x00, 0x00,
  0x08, 0x00, 0x00, 0x00, 0x1c, 0xd5, 0xff, 0xff, 0x00, 0x00, 0x0e, 0x00,
  0x14, 0x00, 0x00, 0x00, 0x08, 0x00, 0x0c, 0x00, 0x07, 0x00, 0x10, 0x00,
  0x0e, 0x00, 0x00, 0x00, 0x00, 0x00, 0x00, 0x01, 0x30, 0x00, 0x00, 0x00,
  0x24, 0x00, 0x00, 0x00, 0x10, 0x00, 0x00, 0x00, 0x0c, 0x00, 0x10, 0x00,
  0x00, 0x00, 0x04, 0x00, 0x08, 0x00, 0x0f, 0x00, 0x0c, 0x00, 0x00, 0x00,
  0x01, 0x00, 0x00, 0x00, 0x01, 0x00, 0x00, 0x00, 0x00, 0x00, 0x00, 0x01,
  0x01, 0x00, 0x00, 0x00, 0x0a, 0x00, 0x00, 0x00, 0x03, 0x00, 0x00, 0x00,
  0x00, 0x00, 0x00, 0x00, 0x08, 0x00, 0x00, 0x00, 0x01, 0x00, 0x00, 0x00,
  0x0c, 0x00, 0x10, 0x00, 0x0b, 0x00, 0x00, 0x00, 0x0c, 0x00, 0x04, 0x00,
  0x0c, 0x00, 0x00, 0x00, 0x03, 0x00, 0x00, 0x00, 0x00, 0x00, 0x00, 0x03,
  0x01, 0x00, 0x00, 0x00, 0xf0, 0xd4, 0xff, 0xff, 0x14, 0x00, 0x00, 0x00,
  0x0b, 0x00, 0x00, 0x00, 0x20, 0x00, 0x00, 0x00, 0xb0, 0x00, 0x00, 0x00,
  0x98, 0x00, 0x00, 0x00, 0x04, 0x00, 0x00, 0x00, 0x01, 0x00, 0x00, 0x00,
  0x40, 0x00, 0x00, 0x00, 0x03, 0x00, 0x00, 0x00, 0x08, 0x00, 0x00, 0x00,
  0x7b, 0x00, 0x00, 0x00, 0x73, 0x65, 0x71, 0x75, 0x65, 0x6e, 0x74, 0x69,
  0x61, 0x6c, 0x2f, 0x63, 0x6f, 0x6e, 0x76, 0x32, 0x64, 0x2f, 0x52, 0x65,
  0x6c, 0x75, 0x3b, 0x73, 0x65, 0x71, 0x75, 0x65, 0x6e, 0x74, 0x69, 0x61,
  0x6c, 0x2f, 0x63, 0x6f, 0x6e, 0x76, 0x32, 0x64, 0x2f, 0x42, 0x69, 0x61,
  0x73, 0x41, 0x64, 0x64, 0x3b, 0x73, 0x65, 0x71, 0x75, 0x65, 0x6e, 0x74,
  0x69, 0x61, 0x6c, 0x2f, 0x63, 0x6f, 0x6e, 0x76, 0x32, 0x64, 0x2f, 0x43,
  0x6f, 0x6e, 0x76, 0x32, 0x44, 0x3b, 0x73, 0x65, 0x71, 0x75, 0x65, 0x6e,
  0x74, 0x69, 0x61, 0x6c, 0x2f, 0x63, 0x6f, 0x6e, 0x76, 0x32, 0x64, 0x2f,
  0x42, 0x69, 0x61, 0x73, 0x41, 0x64, 0x64, 0x2f, 0x52, 0x65, 0x61, 0x64,
  0x56, 0x61, 0x72, 0x69, 0x61, 0x62, 0x6c, 0x65, 0x4f, 0x70, 0x2f, 0x72,
  0x65, 0x73, 0x6f, 0x75, 0x72, 0x63, 0x65, 0x00, 0x04, 0x00, 0x00, 0x00,
  0xff, 0xff, 0xff, 0xff, 0x40, 0x00, 0x00, 0x00, 0x03, 0x00, 0x00, 0x00,
  0x08, 0x00, 0x00, 0x00, 0x44, 0xd5, 0xff, 0xff, 0x4e, 0xd6, 0xff, 0xff,
  0x04, 0x00, 0x00, 0x00, 0x00, 0x08, 0x00, 0x00, 0xbf, 0x2c, 0x7e, 0xbe,
  0x2b, 0x9c, 0x9f, 0xbe, 0x93, 0x57, 0xaa, 0xbd, 0x92, 0xaa, 0x5d, 0x3d,
  0xa3, 0xfe, 0x5b, 0xbe, 0xc0, 0xd1, 0x4e, 0xbe, 0x28, 0xe6, 0x33, 0xbc,
  0x64, 0x20, 0x03, 0xbf, 0xe4, 0x7a, 0x06, 0xbe, 0x54, 0xfc, 0x82, 0x3e,
  0x43, 0x0e, 0xc5, 0xbd, 0xb9, 0xc0, 0x27, 0x3e, 0x8b, 0xbf, 0x42, 0x3c,
  0xe1, 0x90, 0x59, 0xbe, 0x90, 0x6a, 0x8f, 0xbe, 0x9c, 0xc8, 0x89, 0x3c,
  0x39, 0x6d, 0x44, 0xbe, 0x9f, 0xcf, 0x60, 0xbe, 0x7c, 0x88, 0x8a, 0xbc,
  0x6a, 0x06, 0x82, 0xbd, 0x4b, 0xc3, 0x99, 0xbc, 0x98, 0x84, 0x25, 0xbe,
  0x67, 0xbb, 0x75, 0xbe, 0xb5, 0x4a, 0xe6, 0x3e, 0xf7, 0xd8, 0x1d, 0xbd,
  0x14, 0xa5, 0x12, 0x3f, 0x00, 0x3e, 0xdd, 0xbd, 0x73, 0x6e, 0xa8, 0xbd,
  0x01, 0x05, 0x79, 0xbb, 0x96, 0x21, 0x25, 0xbe, 0xdc, 0x3d, 0xaa, 0x3e,
  0x33, 0xd5, 0xf5, 0x3c, 0x58, 0x6c, 0xdf, 0x3d, 0x54, 0xd9, 0x44, 0xbb,
  0x48, 0xfb, 0xb0, 0x3e, 0x6c, 0xfc, 0x60, 0xbe, 0x16, 0x69, 0x54, 0xbd,
  0x3d, 0x77, 0x98, 0x3e, 0x98, 0x27, 0x01, 0x3d, 0x2e, 0x1d, 0xf1, 0xbd,
  0xba, 0xca, 0xec, 0xbd, 0xb6, 0x3e, 0x07, 0xbc, 0x69, 0x3d, 0x42, 0xbe,
  0xb2, 0x03, 0x87, 0xbe, 0xca, 0x83, 0x35, 0xbf, 0x55, 0x7c, 0x69, 0xbd,
  0xe8, 0xdd, 0x5a, 0xbe, 0xbb, 0x05, 0xaa, 0x3d, 0x41, 0x76, 0x8c, 0xbe,
  0xf2, 0x51, 0xb3, 0x3e, 0x83, 0xc2, 0xbc, 0xbe, 0xed, 0xeb, 0xc1, 0xbd,
  0xdd, 0xfc, 0x85, 0xbe, 0x47, 0xcf, 0x50, 0xbd, 0xe7, 0xc6, 0xb2, 0xbe,
  0xca, 0xfb, 0x04, 0x3e, 0x86, 0xf7, 0x3a, 0xbe, 0x4a, 0x45, 0xc0, 0x3e,
  0x27, 0x8a, 0xa4, 0xbe, 0x1c, 0x4a, 0x9e, 0x3e, 0xe2, 0xf7, 0x0b, 0x3e,
  0x16, 0x07, 0x48, 0xbe, 0xc5, 0x8c, 0x3c, 0xbe, 0x44, 0xec, 0xd6, 0x3c,
  0xdd, 0x50, 0xb7, 0xbe, 0x6b, 0x30, 0xde, 0xbc, 0x7c, 0xa3, 0x0d, 0xbe,
  0x6a, 0x62, 0x0d, 0x3e, 0x3d, 0x26, 0x93, 0xbe, 0xa0, 0x82, 0xe5, 0xbe,
  0x0f, 0x23, 0x4a, 0xbe, 0x62, 0xd9, 0xf4, 0x3d, 0x7e, 0xbd, 0x73, 0xbe,
  0xfb, 0x52, 0x4c, 0x3f, 0x50, 0xd0, 0x92, 0xbe, 0xe9, 0x4b, 0x13, 0xbe,
  0x96, 0xde, 0x32, 0xbb, 0x04, 0x7c, 0xeb, 0xbe, 0xa0, 0xef, 0x97, 0xbe,
  0xf7, 0xbc, 0xa3, 0x3c, 0xfa, 0xb5, 0xad, 0x3d, 0x8a, 0xb3, 0x88, 0xbe,
  0xe6, 0x7d, 0x68, 0xbe, 0x70, 0x51, 0x10, 0xbe, 0x3c, 0x0e, 0x58, 0xbd,
  0x49, 0xa2, 0x39, 0xbe, 0x0e, 0x0b, 0x73, 0x3e, 0xb2, 0x1e, 0x17, 0xbe,
  0xec, 0xbf, 0xa3, 0x3e, 0x4a, 0x7e, 0x98, 0xbe, 0xec, 0x3b, 0xa4, 0xbd,
  0x6a, 0x64, 0x65, 0xbd, 0xb0, 0x62, 0xb2, 0x3d, 0xef, 0xc8, 0x28, 0x3e,
  0x94, 0x32, 0x91, 0x3d, 0xb3, 0x6a, 0x10, 0xbe, 0x45, 0x8e, 0xbe, 0xbc,
  0xcf, 0x0c, 0x80, 0xbd, 0x1d, 0x43, 0x57, 0xbe, 0x9a, 0x1c, 0x17, 0xbe,
  0xf3, 0x87, 0x5a, 0xbd, 0x29, 0xea, 0xd2, 0x3d, 0x8c, 0x19, 0x16, 0x3b,
  0xfd, 0x07, 0x1a, 0x3e, 0x5f, 0x4c, 0xa3, 0x3d, 0xf5, 0x5f, 0x13, 0xbc,
  0xbc, 0x92, 0x55, 0xbe, 0x39, 0xdf, 0x2c, 0xbe, 0xf0, 0xc8, 0xd1, 0x3d,
  0xfb, 0xb8, 0x39, 0xbd, 0x6e, 0x65, 0x1b, 0xbe, 0x01, 0xe6, 0xb5, 0x3e,
  0x8c, 0xbb, 0x11, 0x3e, 0x4f, 0x6a, 0x55, 0x3d, 0x6a, 0x18, 0x0a, 0xbe,
  0xda, 0x1c, 0x26, 0xbe, 0xc4, 0x3c, 0x0c, 0xbb, 0x7a, 0xd2, 0x8f, 0x3d,
  0x7e, 0xc4, 0xed, 0x3e, 0xff, 0x6b, 0x34, 0xbd, 0x01, 0x2b, 0x1c, 0xbd,
  0x59, 0xe9, 0x1a, 0xbc, 0xd6, 0x1e, 0x6a, 0xbe, 0xe9, 0x55, 0xcd, 0xbd,
  0x68, 0x59, 0x0b, 0x3e, 0x78, 0x10, 0xd4, 0xbd, 0xf9, 0xe7, 0x37, 0xbb,
  0xa8, 0x9d, 0x33, 0x3e, 0xac, 0xcf, 0x1c, 0xbe, 0x1f, 0xbd, 0x35, 0x3f,
  0xc3, 0xf0, 0x04, 0xbe, 0x4c, 0x8d, 0x65, 0xbd, 0xc1, 0xe3, 0x06, 0x3d,
  0xe1, 0x69, 0x9c, 0xbe, 0xd2, 0x40, 0x8d, 0x3e, 0x63, 0x4c, 0xda, 0xbd,
  0x6c, 0x9a, 0x4c, 0xbd, 0xb7, 0xac, 0x32, 0x3e, 0xe6, 0x16, 0x89, 0x3c,
  0x1d, 0xae, 0x6a, 0xbe, 0xfa, 0x43, 0x00, 0x3e, 0x15, 0x9f, 0x1e, 0xbe,
  0x17, 0xdd, 0xf7, 0xbd, 0xe5, 0x6b, 0x4f, 0x3d, 0xb9, 0x14, 0xca, 0x3d,
  0x97, 0x66, 0xfd, 0x3d, 0xa6, 0x36, 0x87, 0x3d, 0x05, 0x55, 0x86, 0xbe,
  0x5d, 0x20, 0x1f, 0xbe, 0xde, 0x05, 0xc0, 0xbd, 0x41, 0x7e, 0x30, 0x3e,
  0xd0, 0x47, 0x8d, 0xbd, 0xaa, 0x56, 0x6b, 0x3b, 0x43, 0xd3, 0x86, 0x3d,
  0xd1, 0x3d, 0x4d, 0xbc, 0xd9, 0xbf, 0x89, 0xbe, 0xe1, 0x65, 0xe9, 0x3d,
  0x9e, 0x65, 0x7e, 0x3d, 0xdc, 0xf0, 0xc0, 0x3e, 0x3e, 0x08, 0x84, 0xbd,
  0x65, 0xb4, 0xe2, 0x3d, 0xbd, 0xa7, 0x88, 0xbd, 0x65, 0xd2, 0xac, 0x3e,
  0x2c, 0x65, 0x0a, 0xbe, 0x7c, 0x16, 0x7c, 0x3a, 0x51, 0x88, 0xf2, 0x3e,
  0xe0, 0x2f, 0x93, 0xbd, 0x72, 0x0b, 0x08, 0x3f, 0x07, 0xde, 0x73, 0x3b,
  0x51, 0xa2, 0x30, 0xbd, 0x9a, 0x24, 0x83, 0xbd, 0xce, 0x8d, 0x9e, 0xbe,
  0x35, 0x2b, 0x29, 0xbe, 0x7a, 0x97, 0x22, 0xbe, 0xab, 0xcb, 0x41, 0x3c,
  0x4c, 0x2b, 0x5d, 0x3b, 0xb8, 0x62, 0x91, 0xbe, 0x5e, 0x6d, 0x16, 0x3e,
  0x7a, 0x3d, 0x6c, 0xbe, 0xe6, 0xbf, 0x54, 0xbe, 0x7a, 0x9b, 0x5e, 0xbe,
  0x12, 0x72, 0xf0, 0xbd, 0xd5, 0x3e, 0xa7, 0xbd, 0x68, 0x27, 0x8e, 0xbc,
  0x98, 0xbe, 0xde, 0xbe, 0x15, 0x2e, 0x68, 0x3e, 0x8b, 0xef, 0xe1, 0xbe,
  0x6f, 0xf6, 0x0e, 0x3e, 0xcb, 0x60, 0x59, 0xbe, 0xe7, 0xca, 0x85, 0xbe,
  0x61, 0x6f, 0x1b, 0xbe, 0xc5, 0x70, 0x33, 0xbe, 0x29, 0xfb, 0x02, 0xbe,
  0x2c, 0x00, 0xa0, 0xbe, 0xba, 0xd1, 0x87, 0x3d, 0x23, 0xc4, 0x25, 0x3d,
  0x7a, 0x93, 0x8a, 0xbe, 0x4b, 0xcb, 0x44, 0x3c, 0x1f, 0x13, 0x1b, 0xbe,
  0x9a, 0x56, 0xac, 0xbd, 0xf6, 0x3a, 0x31, 0xbd, 0x97, 0xc8, 0x37, 0x3d,
  0xac, 0x14, 0x79, 0x3d, 0x24, 0x7f, 0xc6, 0x3d, 0x1c, 0x92, 0xe3, 0xbd,
  0xc0, 0x72, 0x09, 0x3e, 0x41, 0x4e, 0x30, 0xbe, 0xe4, 0xd0, 0xdd, 0xbc,
  0x05, 0x40, 0x1f, 0xbe, 0xdd, 0xb3, 0xb7, 0xbd, 0xf0, 0xef, 0x2a, 0xbe,
  0x5a, 0x89, 0xa7, 0xbe, 0x4f, 0xc4, 0x37, 0xbd, 0xaa, 0xd7, 0xa9, 0xbe,
  0xf5, 0xe9, 0x18, 0x3c, 0xc8, 0x35, 0x8d, 0xbe, 0xfc, 0x86, 0x1a, 0xbe,
  0x66, 0xdc, 0x96, 0x3d, 0xed, 0x31, 0x82, 0xbc, 0x8b, 0xd9, 0x51, 0xbd,
  0x68, 0x6c, 0x55, 0xbe, 0x26, 0x1d, 0x6a, 0xbe, 0xf4, 0xa0, 0xac, 0xbd,
  0x45, 0xcb, 0xa1, 0xbe, 0xc9, 0x01, 0xc3, 0x3d, 0x18, 0xea, 0xb9, 0xbe,
  0xab, 0xc7, 0xc1, 0x3d, 0x4a, 0xe9, 0xc1, 0x3d, 0x5d, 0x28, 0xfa, 0x3e,
  0xc4, 0x5c, 0x98, 0x3d, 0x40, 0x2e, 0xae, 0x3c, 0xa7, 0x5d, 0x1c, 0x3e,
  0x65, 0xc3, 0x6a, 0x3e, 0x78, 0x40, 0x14, 0xbe, 0xc9, 0x13, 0xae, 0x3e,
  0xb1, 0xb4, 0x40, 0xbe, 0xc2, 0x18, 0xd0, 0xbd, 0x3e, 0x0b, 0x80, 0xbd,
  0x3e, 0xf7, 0x66, 0x3d, 0xfb, 0x7e, 0xf0, 0x3d, 0xc4, 0xbc, 0x4c, 0xbe,
  0x97, 0x46, 0x47, 0xbb, 0xc4, 0x9b, 0x27, 0xbe, 0x20, 0x1b, 0x2f, 0xbe,
  0x00, 0x87, 0x8d, 0xbe, 0xdb, 0x9f, 0x32, 0xbd, 0x50, 0x9d, 0x33, 0xbe,
  0x3f, 0xf1, 0x6c, 0xbc, 0x63, 0x8f, 0x60, 0xbe, 0xb0, 0xda, 0x20, 0x3e,
  0x4c, 0xd9, 0x60, 0xbe, 0xd5, 0x9a, 0x17, 0xbe, 0xf6, 0x70, 0x9b, 0xbe,
  0x2f, 0x0f, 0xaf, 0xbd, 0x5e, 0x01, 0x75, 0xbe, 0x25, 0x21, 0xa0, 0xbd,
  0xec, 0x26, 0x16, 0xbf, 0xdb, 0x8c, 0xf7, 0x3e, 0xff, 0x0e, 0x11, 0xbe,
  0xff, 0x31, 0x41, 0xbd, 0xf4, 0x74, 0xbc, 0xbe, 0x71, 0x33, 0x90, 0xbe,
  0x5d, 0x44, 0xb6, 0xbe, 0xa7, 0x93, 0x35, 0x3e, 0xe8, 0x25, 0xf3, 0x3d,
  0x8f, 0x36, 0x09, 0xbd, 0x5d, 0x68, 0x7d, 0xbe, 0x84, 0x47, 0x06, 0xbe,
  0x8f, 0x69, 0xa0, 0x3e, 0x3a, 0x0e, 0x2e, 0xbf, 0x16, 0x93, 0x34, 0xbe,
  0x20, 0xb6, 0x3b, 0x3e, 0x44, 0x7f, 0xdc, 0x3d, 0xe4, 0xfa, 0x13, 0xbe,
  0xdf, 0xc8, 0x8f, 0xbe, 0x6d, 0x42, 0x9d, 0xbd, 0x4e, 0xe6, 0x55, 0x3e,
  0x62, 0x71, 0x27, 0xbe, 0xc1, 0x35, 0xf7, 0x3d, 0x00, 0x05, 0x5b, 0xbe,
  0x04, 0x7b, 0x28, 0xbc, 0xcb, 0x2e, 0x0d, 0xbe, 0x53, 0x90, 0x35, 0xbd,
  0x71, 0x74, 0xf6, 0x3d, 0x9b, 0xe7, 0xf0, 0xbc, 0x3c, 0x59, 0x49, 0x3d,
  0xd1, 0x65, 0x02, 0x3e, 0xee, 0x88, 0xe6, 0xbd, 0x77, 0x7f, 0xc0, 0x3c,
  0xb3, 0x1b, 0x60, 0xbe, 0x4e, 0x4b, 0xd1, 0xbe, 0x17, 0x31, 0xa8, 0xbe,
  0x43, 0xa5, 0x08, 0x3f, 0x38, 0x0b, 0x21, 0xbe, 0xd3, 0xab, 0xa3, 0xbc,
  0x14, 0xe0, 0x61, 0xbe, 0x64, 0x56, 0x74, 0xbd, 0x2f, 0x5d, 0xaa, 0xbe,
  0x87, 0x5a, 0x2d, 0xbe, 0x55, 0x53, 0x2f, 0xbe, 0x0d, 0x84, 0xf0, 0xbc,
  0xd1, 0x58, 0x63, 0xbd, 0x77, 0x1a, 0x9f, 0x3b, 0x1b, 0x8f, 0x02, 0xbe,
  0xf0, 0x10, 0x8f, 0xbe, 0x19, 0x0f, 0xe1, 0xbd, 0xad, 0x9c, 0x2b, 0x3e,
  0x2d, 0xe0, 0x5d, 0xbb, 0xb0, 0x58, 0xe5, 0xbe, 0x57, 0x93, 0x0d, 0x3d,
  0xca, 0x19, 0x4d, 0x3d, 0xdd, 0xfd, 0xe8, 0x3c, 0x69, 0xe6, 0x04, 0x3e,
  0x6e, 0xac, 0x64, 0x3e, 0x2e, 0xe8, 0x0a, 0x3e, 0x5a, 0x5d, 0xe7, 0x3d,
  0xcd, 0x83, 0x22, 0x3d, 0x2d, 0x76, 0x3c, 0x3c, 0xa4, 0xee, 0xf4, 0xbe,
  0xd9, 0x10, 0x02, 0xbe, 0xa7, 0xa8, 0x11, 0xbe, 0x95, 0x57, 0xad, 0x3e,
  0xde, 0x98, 0x13, 0xbb, 0x15, 0x17, 0xcc, 0x3d, 0xb6, 0x9c, 0x2c, 0x3c,
  0xed, 0x47, 0x6e, 0xbe, 0xe1, 0xc9, 0xf9, 0x3e, 0x48, 0x25, 0x21, 0xbe,
  0xf3, 0x74, 0xfa, 0xbc, 0xd7, 0xef, 0x17, 0xbe, 0x73, 0x86, 0x07, 0xbd,
  0xc4, 0xc8, 0xa2, 0x3c, 0xae, 0xc7, 0xb6, 0x3d, 0x4e, 0x61, 0x04, 0xbe,
  0xcf, 0x86, 0xd3, 0xbc, 0x71, 0x9c, 0x30, 0xbe, 0xdd, 0x60, 0x4c, 0xbe,
  0x9a, 0x0e, 0xb4, 0x3e, 0xfc, 0xe4, 0xdc, 0xbb, 0x9e, 0xc8, 0x72, 0x3d,
  0xa1, 0x12, 0x64, 0xbe, 0x76, 0x3b, 0x01, 0xbe, 0xe0, 0xfc, 0xa6, 0x39,
  0xca, 0x8a, 0xf0, 0xbc, 0xdd, 0xe0, 0x61, 0xbe, 0x75, 0xc8, 0x01, 0x3e,
  0x55, 0x49, 0x47, 0x3e, 0x16, 0x69, 0xdc, 0xbd, 0xa1, 0xe2, 0x14, 0xbe,
  0x13, 0xdc, 0x45, 0xbe, 0xb2, 0xf2, 0x12, 0x3d, 0x2a, 0xa1, 0x4f, 0x39,
  0x46, 0xe9, 0x34, 0x3d, 0xff, 0xde, 0x0a, 0x3f, 0x8f, 0xc2, 0x45, 0xbd,
  0xde, 0xdc, 0x75, 0x3b, 0xb1, 0xc1, 0x26, 0x3f, 0xd4, 0xf5, 0xfb, 0xbd,
  0x93, 0x71, 0x17, 0x3c, 0x46, 0x91, 0xde, 0xbd, 0x46, 0x37, 0x89, 0x3d,
  0x0f, 0x91, 0x4a, 0xbe, 0x5e, 0x7a, 0x04, 0x3e, 0xd6, 0x8b, 0x6a, 0xbd,
  0x50, 0x5b, 0x58, 0xbe, 0x18, 0x93, 0x3c, 0x3e, 0xa1, 0x7d, 0x2e, 0x3c,
  0x5d, 0x2c, 0x00, 0x3d, 0x41, 0xe7, 0xe7, 0xbd, 0x0d, 0x98, 0x98, 0xbd,
  0xd9, 0x55, 0x49, 0xbd, 0x66, 0xd7, 0xd6, 0xbd, 0x84, 0xc3, 0x62, 0xbe,
  0xee, 0x61, 0x9d, 0xbc, 0xb5, 0xc1, 0xb2, 0xbd, 0x80, 0x36, 0xed, 0x3b,
  0x8f, 0x2b, 0x07, 0xbe, 0xcc, 0x9c, 0x20, 0xbe, 0xb4, 0x00, 0xcc, 0xbd,
  0x99, 0xd3, 0x58, 0xbd, 0x16, 0x3c, 0x7e, 0xbe, 0x1e, 0x5b, 0x8e, 0xbd,
  0x63, 0x1a, 0x23, 0xbe, 0x41, 0x82, 0x60, 0xbd, 0xee, 0x2e, 0xdd, 0x3c,
  0x6a, 0xb6, 0xdf, 0x3e, 0x4e, 0x86, 0xa3, 0x3e, 0x1f, 0xe2, 0x5c, 0xbe,
  0x69, 0x83, 0x80, 0xbe, 0x41, 0x87, 0x6f, 0x3e, 0x39, 0xb7, 0x01, 0xbe,
  0x40, 0xae, 0xe4, 0x3e, 0xbd, 0x06, 0xd6, 0xbe, 0x3c, 0xd6, 0xee, 0xbd,
  0xb5, 0x05, 0x4f, 0xbe, 0x0f, 0xc1, 0x0c, 0xbe, 0x28, 0x73, 0xde, 0xbd,
  0xba, 0xff, 0x8a, 0xbd, 0xc2, 0x83, 0x0b, 0xbf, 0xef, 0x08, 0xe3, 0xbd,
  0xad, 0xc8, 0x6e, 0xbe, 0xe7, 0x18, 0x08, 0x3d, 0x1b, 0xb8, 0x4a, 0xbe,
  0x57, 0x54, 0x0b, 0x3e, 0x41, 0x77, 0x06, 0xbe, 0x3d, 0xf8, 0xb9, 0xbd,
  0x6c, 0x66, 0xb7, 0xbc, 0x15, 0x39, 0x78, 0xbd, 0x75, 0x51, 0x16, 0xbe,
  0x45, 0xb5, 0x51, 0xbd, 0x8f, 0x33, 0x70, 0xbe, 0xb3, 0x0e, 0x98, 0x3d,
  0xa6, 0x4d, 0xe0, 0xbd, 0x74, 0xfc, 0x20, 0xbe, 0xad, 0x7c, 0x13, 0x3e,
  0x2a, 0x37, 0x0d, 0xbe, 0xc8, 0xc8, 0x87, 0xbe, 0x3a, 0xcd, 0x88, 0xbd,
  0xfe, 0x6b, 0x20, 0xbe, 0xd9, 0x3c, 0xe8, 0xbd, 0x65, 0x4a, 0x98, 0xbe,
  0x88, 0xac, 0xfd, 0xbd, 0x9e, 0xf6, 0x51, 0xbe, 0x2e, 0x89, 0x41, 0xbe,
  0x5e, 0x0b, 0x85, 0xbe, 0x3c, 0xbe, 0x86, 0xbe, 0x1e, 0xf8, 0x13, 0xbe,
  0xa6, 0xe9, 0xa8, 0xbd, 0x40, 0x5c, 0x46, 0xbe, 0x0f, 0xc3, 0x0c, 0xbe,
  0x28, 0xe2, 0x28, 0xbe, 0x45, 0x95, 0xa9, 0xbe, 0xa7, 0x6f, 0x2a, 0x3d,
  0x44, 0x3a, 0x0b, 0xbe, 0xf3, 0xb8, 0xbd, 0xbd, 0x93, 0xba, 0x2c, 0xbc,
  0x33, 0x53, 0xc2, 0x3d, 0x62, 0x83, 0x65, 0xbd, 0xdc, 0x06, 0xfe, 0x3d,
  0x4b, 0x7e, 0x3e, 0xbe, 0xb7, 0x7b, 0x0b, 0x3f, 0x61, 0xe5, 0x57, 0xbc,
  0x87, 0xe5, 0x8f, 0x3e, 0x61, 0x56, 0x31, 0x3d, 0x57, 0x77, 0x3e, 0x3e,
  0xd0, 0xa7, 0xd9, 0x3d, 0x33, 0xdb, 0xcb, 0x3e, 0x0a, 0xc3, 0xc2, 0x3e,
  0x4f, 0x1a, 0xaf, 0xbe, 0xa1, 0x1e, 0x44, 0xbe, 0xfe, 0x49, 0xaf, 0xbd,
  0x57, 0x5b, 0x53, 0xbe, 0xb0, 0xa5, 0xc4, 0xbe, 0xc9, 0xfd, 0xea, 0xbe,
  0x01, 0xa5, 0x45, 0xbc, 0x4c, 0xdc, 0xb7, 0xbe, 0x6f, 0x99, 0xda, 0x3d,
  0x62, 0xef, 0x91, 0xbe, 0xb4, 0x7a, 0x1c, 0x3e, 0xca, 0xf1, 0x06, 0xbe,
  0x51, 0x22, 0x4d, 0xbd, 0x55, 0xa9, 0x84, 0xbd, 0xfe, 0xc9, 0xa9, 0x3e,
  0xaa, 0xcc, 0xe4, 0xbd, 0xce, 0x2c, 0x5c, 0xbe, 0x72, 0x13, 0x47, 0xbf,
  0x2e, 0x50, 0x16, 0xbe, 0xcb, 0x14, 0x44, 0xbe, 0x22, 0xce, 0x16, 0xbd,
  0x9e, 0x8d, 0x31, 0x3a, 0x30, 0x44, 0x27, 0xbe, 0x63, 0x15, 0x69, 0xbe,
  0xa9, 0xbc, 0x63, 0x3d, 0x96, 0x22, 0xce, 0xbe, 0xda, 0x4a, 0x53, 0xbc,
  0x0b, 0x79, 0x9a, 0xbe, 0x7b, 0xbc, 0x78, 0x3e, 0xc6, 0xa6, 0x6c, 0x3d,
  0x04, 0x1b, 0xa8, 0xbe, 0x64, 0x18, 0x2f, 0x3e, 0x59, 0x06, 0x8b, 0xbd,
  0xbb, 0xac, 0xbb, 0x3e, 0xf3, 0xd3, 0xb4, 0xbd, 0xee, 0xdf, 0xfc, 0x3c,
  0x7d, 0x8b, 0x7b, 0x3d, 0xbb, 0x49, 0xd9, 0x3d, 0x90, 0x9e, 0xf2, 0xbd,
  0xdd, 0xc3, 0x00, 0x3e, 0x3e, 0x3e, 0xed, 0x3d, 0x70, 0x2f, 0x06, 0xbe,
  0x2a, 0x75, 0x6d, 0xbc, 0xf9, 0x52, 0x5c, 0xbd, 0xd2, 0x01, 0xfd, 0xbc,
  0xa0, 0xf1, 0x82, 0x3d, 0x0b, 0x2d, 0x6d, 0x3d, 0x8c, 0xd7, 0xe4, 0xbd,
  0xf5, 0x6b, 0x95, 0x3c, 0x40, 0x7b, 0xd7, 0x3d, 0xc9, 0xc2, 0x81, 0x3d,
  0xdc, 0x08, 0x4d, 0x3d, 0x6a, 0x3f, 0x11, 0xbd, 0xe4, 0x34, 0x90, 0xbc,
  0x91, 0x2e, 0x48, 0xbe, 0x07, 0xb4, 0x28, 0x3e, 0x4c, 0xd9, 0x9a, 0x3d,
  0xef, 0xea, 0x8f, 0xbd, 0xc2, 0x00, 0xe6, 0x3d, 0x13, 0x8c, 0xe6, 0x3b,
  0x89, 0x2b, 0x1c, 0x3d, 0x0e, 0x9f, 0x50, 0x3d, 0xe8, 0xa6, 0x7f, 0x3d,
  0xd6, 0xc5, 0x1f, 0x3e, 0x26, 0xde, 0xff, 0xff, 0x10, 0x00, 0x00, 0x00,
  0x0a, 0x00, 0x00, 0x00, 0x1c, 0x00, 0x00, 0x00, 0x38, 0x00, 0x00, 0x00,
  0x04, 0x00, 0x00, 0x00, 0x10, 0x00, 0x00, 0x00, 0x04, 0x00, 0x00, 0x00,
  0x01, 0x00, 0x00, 0x00, 0x08, 0x00, 0x00, 0x00, 0x1a, 0x00, 0x00, 0x00,
  0x73, 0x65, 0x71, 0x75, 0x65, 0x6e, 0x74, 0x69, 0x61, 0x6c, 0x2f, 0x63,
  0x6f, 0x6e, 0x76, 0x32, 0x64, 0x5f, 0x31, 0x2f, 0x43, 0x6f, 0x6e, 0x76,
  0x32, 0x44, 0x00, 0x00, 0x9c, 0xdd, 0xff, 0xff, 0xa6, 0xde, 0xff, 0xff,
  0x04, 0x00, 0x00, 0x00, 0x80, 0x01, 0x00, 0x00, 0x4c, 0x55, 0x54, 0x3e,
  0x21, 0xe6, 0xd8, 0x3d, 0xe5, 0x63, 0xe6, 0x3c, 0x7f, 0x5a, 0x40, 0x3e,
  0x60, 0x18, 0x61, 0xbd, 0x08, 0xcd, 0xb6, 0xbd, 0x0d, 0x75, 0x81, 0xbe,
  0x2f, 0xb1, 0xf1, 0xbd, 0x78, 0xdd, 0x03, 0x3e, 0xea, 0x71, 0x34, 0xbe,
  0xed, 0x4e, 0xd8, 0xbc, 0xbd, 0x8f, 0x02, 0x3e, 0x80, 0xa9, 0x56, 0x3c,
  0x0e, 0xe8, 0xd4, 0xbd, 0x73, 0x4c, 0x10, 0xbd, 0x8d, 0x7b, 0xea, 0xbd,
  0x97, 0x35, 0x00, 0xbf, 0x48, 0x90, 0xc8, 0xbe, 0xe6, 0xab, 0x17, 0x3d,
  0xc5, 0x6e, 0xea, 0x3e, 0xd2, 0x33, 0x14, 0x3e, 0x4b, 0x69, 0x37, 0x3e,
  0xfc, 0x02, 0x07, 0x3e, 0xd5, 0x13, 0x9a, 0x3e, 0x6c, 0xa8, 0xdf, 0x3c,
  0x8c, 0x63, 0x6d, 0x3e, 0x1a, 0xaf, 0x98, 0xbe, 0x4d, 0x3e, 0xab, 0xbc,
  0x62, 0x39, 0x87, 0x3d, 0x7d, 0xf4, 0x4b, 0xbd, 0x57, 0x0a, 0x7d, 0x3d,
  0x54, 0x1c, 0x19, 0xbe, 0xab, 0xd5, 0x0c, 0x3d, 0x30, 0xb0, 0xbb, 0x3d,
  0x6d, 0x92, 0xe2, 0xbd, 0x02, 0xfb, 0x93, 0x3d, 0x74, 0x6e, 0xfc, 0x3d,
  0xed, 0x5e, 0xef, 0xbd, 0x5d, 0xbf, 0x6a, 0xbc, 0x87, 0x2a, 0x77, 0xbc,
  0x57, 0x77, 0xec, 0x3d, 0x51, 0xa7, 0x19, 0xbb, 0xde, 0xe5, 0xef, 0xbc,
  0xa4, 0x19, 0xff, 0x3d, 0x27, 0xbd, 0x55, 0xbd, 0xe5, 0x66, 0x8e, 0x3d,
  0x2e, 0x06, 0x96, 0x3d, 0xc3, 0xb6, 0x63, 0xbe, 0x77, 0x6a, 0xcd, 0x3d,
  0x3f, 0x52, 0x52, 0xbd, 0x2f, 0x3b, 0xee, 0x3c, 0xbc, 0xa8, 0xdd, 0x3e,
  0xfa, 0x03, 0x7c, 0x3e, 0x31, 0xe1, 0xe9, 0x3c, 0x37, 0x84, 0x7b, 0xbd,
  0x79, 0x10, 0xb5, 0xbd, 0x7a, 0x49, 0xdb, 0x3d, 0x5b, 0x57, 0xce, 0xbe,
  0x49, 0x06, 0x5c, 0xbe, 0x4c, 0x3c, 0x63, 0xbd, 0xa3, 0xb7, 0xde, 0x3b,
  0x3f, 0x6a, 0xc5, 0xbd, 0x38, 0x9e, 0xb5, 0xbc, 0x04, 0x28, 0x89, 0x3d,
  0x1e, 0xcf, 0xc5, 0xbd, 0xd6, 0xe6, 0x51, 0x3d, 0x1a, 0x43, 0xc3, 0xbd,
  0x1a, 0x84, 0xa7, 0xbd, 0x16, 0x99, 0x8b, 0x3c, 0x92, 0xad, 0xf8, 0xbd,
  0x27, 0x82, 0x9f, 0x3d, 0x72, 0x21, 0x12, 0x3d, 0x8e, 0x7e, 0x1e, 0x3e,
  0xba, 0x6c, 0xbd, 0x3e, 0xf1, 0x00, 0x70, 0x3e, 0x70, 0x72, 0xce, 0x3d,
  0x35, 0xea, 0x48, 0xbe, 0x01, 0x25, 0x5f, 0x3e, 0xcc, 0x90, 0x6d, 0xbe,
  0x03, 0xbf, 0xec, 0xbd, 0x4d, 0x29, 0xac, 0xbe, 0x47, 0xe5, 0x99, 0x3c,
  0x31, 0xdc, 0xe3, 0xbd, 0x38, 0xa5, 0x3f, 0xbe, 0x11, 0x48, 0xaf, 0x3d,
  0x11, 0x03, 0x86, 0xbe, 0x5f, 0x21, 0x00, 0x3e, 0xed, 0x3e, 0x34, 0x3d,
  0xef, 0xae, 0xb4, 0xbe, 0x13, 0xbb, 0x03, 0x3e, 0xba, 0x3c, 0x12, 0xbe,
  0x1b, 0xf1, 0xaa, 0x3e, 0x36, 0xec, 0xe8, 0xbd, 0xf2, 0xe5, 0xaa, 0x3d,
  0x06, 0x16, 0x5f, 0x3e, 0xa6, 0xea, 0xcb, 0x3d, 0xfe, 0xdf, 0xff, 0xff,
  0x10, 0x00, 0x00, 0x00, 0x09, 0x00, 0x00, 0x00, 0x1c, 0x00, 0x00, 0x00,
  0x38, 0x00, 0x00, 0x00, 0x04, 0x00, 0x00, 0x00, 0x08, 0x00, 0x00, 0x00,
  0x04, 0x00, 0x00, 0x00, 0x03, 0x00, 0x00, 0x00, 0x01, 0x00, 0x00, 0x00,
  0x18, 0x00, 0x00, 0x00, 0x73, 0x65, 0x71, 0x75, 0x65, 0x6e, 0x74, 0x69,
  0x61, 0x6c, 0x2f, 0x63, 0x6f, 0x6e, 0x76, 0x32, 0x64, 0x2f, 0x43, 0x6f,
  0x6e, 0x76, 0x32, 0x44, 0x00, 0x00, 0x00, 0x00, 0x74, 0xdf, 0xff, 0xff,
  0x7e, 0xe0, 0xff, 0xff, 0x04, 0x00, 0x00, 0x00, 0xc0, 0x00, 0x00, 0x00,
  0x9f, 0xd4, 0xa4, 0x3e, 0xc9, 0xd1, 0x8b, 0xbd, 0xd1, 0x89, 0x78, 0x3e,
  0xf4, 0xde, 0xb4, 0xbe, 0xac, 0xb3, 0x98, 0x3e, 0x43, 0x93, 0x59, 0x3d,
  0x40, 0x57, 0xe2, 0xbc, 0xb7, 0xfb, 0x0f, 0x3d, 0x9e, 0xc3, 0x98, 0x3e,
  0x55, 0xf7, 0xc0, 0x3e, 0xb0, 0xd5, 0x07, 0x3e, 0xb0, 0x7a, 0x3a, 0xbe,
  0x00, 0x59, 0xb4, 0xbe, 0xbd, 0x6a, 0xc1, 0xbd, 0x55, 0x09, 0x10, 0x3d,
  0x88, 0x3d, 0x44, 0xbe, 0x10, 0xe3, 0x95, 0xbb, 0xf7, 0x12, 0x7f, 0xbd,
  0x31, 0x3a, 0x2a, 0x3d, 0xb7, 0x19, 0x5c, 0xbe, 0xd7, 0x5d, 0xc8, 0xbd,
  0x79, 0xc8, 0x13, 0x3c, 0xd8, 0x7a, 0x22, 0xbf, 0x29, 0xe2, 0x79, 0x3c,
  0xbc, 0x2b, 0x1b, 0xbe, 0xbf, 0x6d, 0xa1, 0xbe, 0x08, 0x63, 0xcf, 0x3d,
  0xd8, 0x8b, 0x61, 0xbe, 0xb5, 0x99, 0x9d, 0xbe, 0x93, 0xfc, 0xe5, 0x3e,
  0x80, 0xbd, 0xaf, 0x3c, 0x1e, 0xae, 0xd5, 0xbd, 0x62, 0x10, 0x97, 0x3e,
  0x12, 0x1f, 0x7f, 0xbc, 0xf7, 0x8d, 0xa7, 0x3e, 0xc4, 0x1d, 0x9d, 0xbe,
  0x95, 0xc8, 0x8d, 0xbe, 0x86, 0x3d, 0x21, 0xbd, 0xc7, 0x5b, 0xcb, 0xbe,
  0xa6, 0x49, 0x80, 0x3b, 0x0c, 0xaf, 0xc4, 0xbe, 0x79, 0x19, 0x51, 0x3c,
  0xb2, 0x13, 0x82, 0x3d, 0x05, 0xac, 0x00, 0xbe, 0x83, 0xe8, 0xd6, 0xbe,
  0x0f, 0x62, 0x77, 0xbe, 0xe0, 0x23, 0x11, 0x3e, 0xba, 0x1c, 0x4d, 0xbe,
  0x16, 0xe1, 0xff, 0xff, 0x10, 0x00, 0x00, 0x00, 0x08, 0x00, 0x00, 0x00,
  0x14, 0x00, 0x00, 0x00, 0x30, 0x00, 0x00, 0x00, 0x02, 0x00, 0x00, 0x00,
  0x03, 0x00, 0x00, 0x00, 0x10, 0x00, 0x00, 0x00, 0x19, 0x00, 0x00, 0x00,
  0x73, 0x65, 0x71, 0x75, 0x65, 0x6e, 0x74, 0x69, 0x61, 0x6c, 0x2f, 0x64,
  0x65, 0x6e, 0x73, 0x65, 0x5f, 0x31, 0x2f, 0x4d, 0x61, 0x74, 0x4d, 0x75,
  0x6c, 0x00, 0x00, 0x00, 0x84, 0xe0, 0xff, 0xff, 0x8e, 0xe1, 0xff, 0xff,
  0x04, 0x00, 0x00, 0x00, 0x00, 0x1c, 0x00, 0x00, 0xe4, 0x32, 0x59, 0xbe,
  0x43, 0x65, 0x07, 0x3e, 0x1a, 0x20, 0x7a, 0xbc, 0xc3, 0x3d, 0x85, 0xbe,
  0x54, 0x91, 0x22, 0x3d, 0x57, 0x1e, 0xed, 0x3d, 0x17, 0x6a, 0x05, 0xbd,
  0x2d, 0x56, 0x23, 0xbe, 0x62, 0x8e, 0x6b, 0x3d, 0xda, 0x37, 0x27, 0x3d,
  0x2a, 0x89, 0x03, 0xbe, 0x79, 0xa0, 0x8a, 0xbd, 0xc2, 0x12, 0x26, 0xbd,
  0xd9, 0x9b, 0xb1, 0xbd, 0xa8, 0xb9, 0x48, 0xbd, 0x39, 0x6b, 0x14, 0xbe,
  0xb2, 0xaa, 0x94, 0x3d, 0xa2, 0x01, 0x99, 0xbd, 0x29, 0x0c, 0x59, 0x3e,
  0x5f, 0xf2, 0x7d, 0xbe, 0xbe, 0xf5, 0x33, 0x3e, 0x12, 0x0f, 0xaa, 0xbd,
  0x71, 0x96, 0x1c, 0xbe, 0x97, 0xf4, 0x53, 0x3a, 0x6e, 0xb1, 0x0e, 0x3d,
  0x34, 0x92, 0x02, 0xbe, 0x5b, 0xb1, 0x8c, 0xbe, 0xba, 0x02, 0x93, 0xbc,
  0x65, 0x69, 0x6d, 0xbe, 0xdb, 0xf6, 0x53, 0xbd, 0xac, 0xd6, 0x0d, 0xbe,
  0x95, 0x0b, 0x47, 0x3d, 0x4b, 0xca, 0x9a, 0x3d, 0x58, 0xc9, 0x57, 0x3c,
  0x1c, 0x5c, 0xa5, 0x3d, 0x12, 0xc3, 0x4a, 0x3c, 0x3d, 0x9a, 0x16, 0xbe,
  0xdb, 0xbe, 0x06, 0x3e, 0x7d, 0x39, 0x19, 0x3e, 0xfe, 0xa9, 0xe8, 0xbd,
  0x35, 0x9b, 0x6d, 0xbe, 0x57, 0xac, 0x83, 0x3e, 0xa4, 0xc5, 0xe8, 0xbd,
  0xde, 0x67, 0x8d, 0x3c, 0x9b, 0x90, 0x5f, 0xbd, 0x3f, 0x9e, 0xb1, 0x3d,
  0x22, 0x3f, 0xa7, 0x3d, 0x86, 0xf5, 0x4e, 0x3d, 0xc7, 0x1b, 0x39, 0xbe,
  0x02, 0xf2, 0xd9, 0xbd, 0x41, 0x35, 0xe3, 0xbd, 0xdb, 0x8d, 0x22, 0xbc,
  0x5d, 0xd1, 0x2f, 0x3e, 0xdd, 0xfa, 0xe1, 0x3d, 0xe7, 0x7e, 0x86, 0x3b,
  0xcb, 0x34, 0x4b, 0x3e, 0xcc, 0x5c, 0xa3, 0x3c, 0xc8, 0x97, 0xdc, 0x3d,
  0x61, 0x65, 0x3b, 0xbd, 0xc5, 0xb3, 0x98, 0xbe, 0x78, 0x15, 0xec, 0x3d,
  0x69, 0x19, 0x70, 0x3a, 0xaf, 0x2c, 0x14, 0x3e, 0x5f, 0x1a, 0x64, 0x3d,
  0xb5, 0x80, 0x05, 0xbd, 0x1e, 0x75, 0x4f, 0xbc, 0xde, 0xb3, 0x41, 0xbe,
  0x94, 0x7a, 0x2c, 0xbe, 0x91, 0xec, 0xfe, 0x3d, 0x64, 0xbe, 0x82, 0x3c,
  0x9d, 0xc7, 0xd1, 0xbd, 0xb0, 0xcc, 0x05, 0x3e, 0x4a, 0x67, 0xc0, 0x3d,
  0xa5, 0x90, 0x63, 0xbd, 0x15, 0x19, 0x0a, 0xbe, 0x5d, 0xd5, 0x0a, 0xbb,
  0x4d, 0xcc, 0x01, 0xbe, 0x98, 0x1e, 0xb3, 0x3c, 0xfe, 0x57, 0xea, 0xbb,
  0xcb, 0xa8, 0x12, 0x3d, 0x1a, 0x52, 0x88, 0xbd, 0x7c, 0xce, 0x0f, 0xbe,
  0x9c, 0xe6, 0x08, 0xbc, 0xae, 0xa1, 0xcd, 0xbe, 0x88, 0x19, 0x2b, 0xbe,
  0xd4, 0x2a, 0x03, 0xbc, 0x4f, 0x61, 0xfa, 0xbd, 0x0a, 0xa8, 0x36, 0xbe,
  0x93, 0xba, 0xe6, 0xbd, 0xc8, 0x94, 0x66, 0xbd, 0xfa, 0x7d, 0x3c, 0x3e,
  0xed, 0x2a, 0x80, 0xbc, 0xb9, 0xff, 0x20, 0x3e, 0xb9, 0x05, 0x3a, 0xbc,
  0x57, 0xc6, 0x54, 0x3c, 0x20, 0x8e, 0xd0, 0x3c, 0xeb, 0xa1, 0x0c, 0x3e,
  0x43, 0x8e, 0xba, 0x3d, 0x45, 0xe2, 0xf0, 0xbd, 0xab, 0xc3, 0xb5, 0xbe,
  0x50, 0x1a, 0x7c, 0xbe, 0xac, 0x94, 0xb0, 0xbd, 0x73, 0x77, 0xae, 0x3e,
  0x53, 0x68, 0xaf, 0x3d, 0xfb, 0x91, 0xf6, 0xbd, 0xd5, 0x06, 0xf1, 0xbc,
  0xa0, 0xab, 0x9c, 0xba, 0x18, 0xc4, 0xf5, 0xbc, 0x38, 0x0b, 0xc7, 0xbd,
  0xd9, 0xd5, 0x3d, 0xbc, 0x76, 0xb8, 0xc1, 0xbc, 0x92, 0xc2, 0x12, 0xbe,
  0x36, 0xc3, 0x73, 0x3e, 0x57, 0x52, 0x1b, 0xbe, 0xbd, 0xa2, 0x5b, 0xbe,
  0x22, 0xb5, 0x6b, 0xbd, 0xa4, 0xa2, 0x4b, 0xbe, 0x97, 0x19, 0x9d, 0xbc,
  0x11, 0x01, 0x88, 0x3d, 0xf0, 0x2d, 0xf6, 0xbe, 0x42, 0xae, 0x3e, 0xbe,
  0x95, 0x18, 0x9c, 0xbd, 0x2b, 0x3f, 0x83, 0x3d, 0xf0, 0x7c, 0xf4, 0xbe,
  0xc4, 0xd8, 0x05, 0xbe, 0xc9, 0x6b, 0xe0, 0xbd, 0xc0, 0xc1, 0x4f, 0x3e,
  0xa6, 0xe5, 0x92, 0xbb, 0x8f, 0x3f, 0xea, 0x3e, 0x86, 0x13, 0x23, 0xbe,
  0x69, 0xd5, 0x7d, 0xbe, 0x22, 0x8f, 0x20, 0x3e, 0xee, 0xec, 0x49, 0x3e,
  0x45, 0x07, 0xcf, 0xbe, 0x11, 0x3c, 0x64, 0xbe, 0x2c, 0xbd, 0x0b, 0xbe,
  0x21, 0xcc, 0x55, 0xbd, 0x2e, 0x95, 0xd4, 0xbd, 0x4d, 0x29, 0xa3, 0x3d,
  0x38, 0x64, 0x10, 0x3c, 0x4e, 0x3f, 0x4f, 0xbe, 0x62, 0xdc, 0x8c, 0xbe,
  0x9f, 0x35, 0x88, 0x3e, 0xfd, 0xd1, 0x99, 0x3d, 0x8d, 0xaa, 0x60, 0x3e,
  0x44, 0x6d, 0xb8, 0xbd, 0x8b, 0x89, 0x26, 0xbd, 0x43, 0x6e, 0x15, 0x3e,
  0xff, 0x0e, 0x4b, 0x3e, 0x7c, 0x37, 0x8a, 0xbe, 0x74, 0x33, 0xa9, 0x3d,
  0x4c, 0x37, 0x32, 0xbe, 0xaf, 0xbf, 0x06, 0xbe, 0x48, 0x45, 0x43, 0x3e,
  0x66, 0xe5, 0xed, 0x3d, 0xd1, 0xe7, 0x0b, 0x3e, 0xed, 0xb1, 0xd8, 0x3d,
  0xd2, 0x55, 0xa3, 0xbe, 0x4f, 0xb9, 0x53, 0xbc, 0xea, 0x22, 0x3f, 0x3d,
  0xdd, 0x47, 0x34, 0x3c, 0xf6, 0x6e, 0xf1, 0xb9, 0x23, 0xdc, 0x5a, 0x3d,
  0xf4, 0xa3, 0xc4, 0x3d, 0xb4, 0x6e, 0x64, 0x3e, 0x77, 0xce, 0x90, 0xbe,
  0x05, 0xce, 0x33, 0x3e, 0x68, 0xa9, 0x8f, 0x3d, 0x8b, 0x44, 0x01, 0x3e,
  0x51, 0x09, 0xac, 0x3d, 0xa7, 0x1c, 0xfb, 0x3d, 0x7a, 0xbc, 0xf8, 0x3d,
  0x1d, 0x84, 0x41, 0x3e, 0xd3, 0x35, 0xc1, 0xbe, 0xe2, 0xc9, 0x62, 0xbd,
  0x58, 0x83, 0x87, 0x3d, 0xa5, 0x8b, 0x1e, 0x3c, 0x4d, 0x49, 0xa6, 0xbd,
  0x92, 0x14, 0x83, 0x3d, 0x94, 0xd5, 0x9e, 0x3c, 0x73, 0x5c, 0x07, 0x3e,
  0x6d, 0x2e, 0x8d, 0xbe, 0xcc, 0xae, 0x6b, 0xbe, 0x33, 0x11, 0x87, 0x3d,
  0x66, 0x69, 0x54, 0xbd, 0xc2, 0x31, 0x09, 0xbe, 0x0f, 0x75, 0xa3, 0x3c,
  0x52, 0x7f, 0xca, 0xbc, 0x86, 0x2f, 0xf9, 0x3c, 0x70, 0x20, 0x7b, 0xbe,
  0x48, 0x41, 0x8c, 0x3d, 0xee, 0xfa, 0x6d, 0x3d, 0xf4, 0xf3, 0x90, 0xbd,
  0x9a, 0xef, 0x69, 0xbe, 0xf6, 0xc9, 0xf5, 0xbd, 0x02, 0x4b, 0x45, 0x3d,
  0x88, 0xfb, 0x06, 0x3e, 0x5b, 0x4c, 0xbb, 0xbd, 0x7f, 0x6b, 0x10, 0x3e,
  0x03, 0x0b, 0x2d, 0xbe, 0xdb, 0x12, 0x99, 0xbd, 0xd9, 0xbe, 0xb5, 0xbe,
  0xbb, 0x1f, 0x83, 0x3d, 0x1c, 0x8e, 0x02, 0x3d, 0xeb, 0x47, 0x90, 0x3d,
  0x72, 0xe8, 0x3d, 0xbf, 0xa2, 0x25, 0x6c, 0x3d, 0x4b, 0x7b, 0x1b, 0x3d,
  0x30, 0xac, 0x06, 0xbe, 0x4a, 0xd0, 0x4b, 0xbd, 0xbe, 0x6c, 0xdb, 0xbd,
  0x77, 0x9a, 0x99, 0xbd, 0x60, 0xda, 0xf9, 0xbd, 0xdf, 0xba, 0x99, 0x3c,
  0xa8, 0xca, 0x5c, 0x3e, 0x65, 0x23, 0x7f, 0xbc, 0x83, 0x22, 0xee, 0x3d,
  0xd1, 0xb8, 0xe7, 0xbd, 0x29, 0x9d, 0x8f, 0xbc, 0x22, 0xef, 0x5a, 0xbd,
  0xec, 0x62, 0xac, 0xbe, 0x61, 0xc5, 0x50, 0xbe, 0x1a, 0x3b, 0x45, 0xbe,
  0xc0, 0x7c, 0x2b, 0xbd, 0x10, 0xc7, 0x1f, 0x3e, 0x6c, 0xbc, 0x0f, 0xbe,
  0x5c, 0x9c, 0xcc, 0xbd, 0x80, 0x7b, 0x5f, 0xbd, 0x8e, 0x98, 0x80, 0xbe,
  0x58, 0xe7, 0x09, 0x3d, 0x33, 0x91, 0x1b, 0x3c, 0x8b, 0x68, 0x14, 0xbe,
  0x82, 0xb2, 0x35, 0x3d, 0x9f, 0x47, 0x7f, 0xbc, 0xfb, 0xda, 0x63, 0x3d,
  0xe2, 0xcd, 0x87, 0xbe, 0x7c, 0x63, 0xb6, 0xbe, 0xb0, 0x74, 0x0c, 0xbd,
  0x1c, 0x0e, 0x35, 0xbc, 0xb5, 0x4e, 0xcf, 0xbd, 0x2c, 0x99, 0x47, 0x3e,
  0xcd, 0x94, 0x0a, 0xbe, 0x0a, 0xb3, 0x8b, 0x3d, 0xb3, 0x92, 0x59, 0x3c,
  0x62, 0x4d, 0x80, 0xbe, 0x3b, 0xb2, 0x9a, 0xbd, 0x30, 0x88, 0x35, 0xbe,
  0xd6, 0xbe, 0x19, 0xbc, 0xdc, 0x28, 0x0f, 0x3d, 0xa7, 0x87, 0x01, 0xbe,
  0x19, 0xbc, 0x5b, 0xbe, 0x34, 0xea, 0xd3, 0xbd, 0xe2, 0x1f, 0xa6, 0x3d,
  0x9c, 0x8b, 0x75, 0x3d, 0x46, 0x42, 0x3f, 0xbe, 0x72, 0xa9, 0x53, 0x3c,
  0xea, 0x26, 0x36, 0xbe, 0x1c, 0x6f, 0x0a, 0x3e, 0xd1, 0xfd, 0x30, 0xbe,
  0xd9, 0x4b, 0xe9, 0xbc, 0x47, 0x01, 0x6b, 0x3d, 0xc1, 0xdb, 0x4d, 0xbd,
  0xd0, 0x40, 0x39, 0x3e, 0x2f, 0x2a, 0x78, 0x3d, 0x07, 0x93, 0x8f, 0x3d,
  0xfb, 0x9d, 0x03, 0x3e, 0x92, 0xff, 0x59, 0xbd, 0x68, 0x31, 0xee, 0x3d,
  0x25, 0xb9, 0xf7, 0xbd, 0x30, 0x97, 0x4f, 0xbe, 0x95, 0xec, 0x28, 0xbe,
  0xec, 0x54, 0xc0, 0xbe, 0x4e, 0x2c, 0xee, 0x3c, 0x58, 0xb5, 0xb0, 0x3d,
  0x5e, 0xe8, 0x3d, 0x3d, 0x5a, 0x55, 0xa1, 0xbe, 0x40, 0x14, 0x0f, 0xbe,
  0x74, 0x15, 0xcd, 0x3d, 0xe7, 0xd8, 0x32, 0x3d, 0x5c, 0xe8, 0xbb, 0xbd,
  0x92, 0xfc, 0xe6, 0x3d, 0xac, 0xf3, 0xc3, 0xbd, 0xe0, 0xe9, 0x7a, 0xbe,
  0x33, 0x17, 0x10, 0x3e, 0xb8, 0x3b, 0x89, 0x3d, 0x73, 0xed, 0x4d, 0xbd,
  0x0c, 0x11, 0x2b, 0x3d, 0xec, 0x39, 0x74, 0xbe, 0x9a, 0x9f, 0x35, 0xbe,
  0xcb, 0x3f, 0x60, 0x3d, 0x6b, 0x3f, 0x8e, 0xbd, 0x28, 0xd7, 0x9c, 0xbe,
  0x04, 0xa4, 0x04, 0xbe, 0x8d, 0x9a, 0xb8, 0xbd, 0xd2, 0x50, 0x40, 0x3e,
  0x7a, 0xf4, 0xf2, 0xbd, 0x32, 0xaa, 0x50, 0x3e, 0x87, 0x80, 0x0d, 0x3e,
  0xcb, 0x52, 0x59, 0xbd, 0x60, 0x36, 0x68, 0xbd, 0x6f, 0x61, 0xd6, 0xbd,
  0x79, 0x75, 0x6c, 0xbe, 0xab, 0xfa, 0x3d, 0x3e, 0x4d, 0x86, 0xbb, 0xbb,
  0xcd, 0xc8, 0x8a, 0xbd, 0x99, 0x1a, 0xcf, 0x3b, 0x72, 0xe4, 0x90, 0x3d,
  0xb3, 0xec, 0x96, 0xbe, 0x58, 0x7d, 0xaa, 0xbd, 0xf2, 0xe4, 0x9a, 0xbd,
  0xcb, 0xd2, 0xfa, 0xbd, 0x70, 0xd5, 0x01, 0xbe, 0xfd, 0xb2, 0x05, 0xbe,
  0x35, 0xec, 0x77, 0x3c, 0x10, 0x16, 0xcb, 0x3c, 0x44, 0x89, 0xe6, 0x3d,
  0xf1, 0x77, 0xa2, 0x3d, 0x86, 0x81, 0x82, 0xbc, 0x12, 0x81, 0x37, 0x3b,
  0xb7, 0xb9, 0xb7, 0xbd, 0xd0, 0x36, 0xd3, 0xbd, 0x91, 0x2e, 0xba, 0xbd,
  0xe3, 0x3b, 0xd9, 0x3c, 0xb7, 0xdd, 0x8f, 0xbe, 0x3f, 0x46, 0x03, 0xbd,
  0x4f, 0xdb, 0xd0, 0xbd, 0x6d, 0xb4, 0xb4, 0x3c, 0x44, 0xbc, 0x1f, 0xbe,
  0xee, 0xb7, 0xad, 0x3d, 0x66, 0x95, 0xb4, 0xbd, 0xbd, 0x01, 0xdf, 0xbd,
  0xad, 0xcd, 0x3b, 0x3d, 0x22, 0x38, 0x17, 0xbe, 0x37, 0xcb, 0x92, 0xbb,
  0x97, 0xb3, 0xf1, 0x3d, 0x2f, 0xf6, 0x9f, 0xbe, 0x6a, 0xdd, 0xc5, 0xbd,
  0x08, 0x87, 0x33, 0xbe, 0x73, 0x76, 0x1d, 0xbe, 0xc3, 0xa1, 0xad, 0xbe,
  0xd0, 0x72, 0xc2, 0xbe, 0x3e, 0xbb, 0xfb, 0xbe, 0xa1, 0x93, 0xd7, 0xbd,
  0x6f, 0x96, 0xa8, 0xbe, 0x53, 0x85, 0x1e, 0xbe, 0x30, 0x3d, 0x8c, 0xbe,
  0xda, 0xc8, 0x57, 0xbe, 0x2d, 0x86, 0xc0, 0xbe, 0xaf, 0xc0, 0x8d, 0xbe,
  0xa3, 0x94, 0x88, 0xbe, 0x9b, 0x19, 0x24, 0xbf, 0x88, 0xdd, 0xd3, 0xbe,
  0xa9, 0x6c, 0x85, 0xbe, 0x03, 0x67, 0x74, 0xbe, 0xda, 0x78, 0xb8, 0xbe,
  0x22, 0x15, 0x01, 0xbe, 0x53, 0xc4, 0x39, 0xbd, 0x11, 0x75, 0x5f, 0xbe,
  0xd3, 0x2d, 0x03, 0xbd, 0xa2, 0xca, 0x34, 0xbe, 0x9e, 0xe1, 0xce, 0xbc,
  0x40, 0x72, 0xcc, 0xbd, 0x31, 0x3c, 0xa7, 0x3d, 0xbb, 0x31, 0xb0, 0xbd,
  0xdb, 0x2b, 0xd4, 0xbc, 0x27, 0xd6, 0x31, 0xbe, 0x23, 0x23, 0x32, 0x3d,
  0xc2, 0x26, 0xc3, 0xbe, 0xab, 0xe3, 0x10, 0xbf, 0xa6, 0x0f, 0x8f, 0xbe,
  0x86, 0x08, 0xa8, 0x3d, 0xf3, 0x9c, 0x2e, 0xbe, 0xc4, 0xb8, 0xaa, 0xbb,
  0x9a, 0x21, 0xcc, 0x3d, 0x3b, 0xb2, 0x8b, 0x3d, 0xed, 0xb2, 0x1a, 0x3d,
  0x24, 0xb7, 0xb5, 0xbd, 0xb3, 0x0d, 0xde, 0xbe, 0x9a, 0x6e, 0xdc, 0x3c,
  0x2a, 0x7d, 0xf0, 0xbc, 0x2b, 0x61, 0x54, 0xbe, 0x8a, 0xfc, 0xd8, 0xbe,
  0x4f, 0x0a, 0x91, 0x3d, 0x25, 0xb3, 0xba, 0xbe, 0x3f, 0x14, 0x07, 0xbe,
  0x2e, 0xae, 0xee, 0x3d, 0x75, 0x71, 0xbf, 0xbe, 0x75, 0xd5, 0xc4, 0xbe,
  0xb4, 0x62, 0xf9, 0xbd, 0xfd, 0xbe, 0x60, 0xbe, 0x24, 0x00, 0x34, 0x3e,
  0x2c, 0xf6, 0x96, 0xbd, 0xbf, 0xa9, 0xe7, 0xbd, 0x00, 0xe5, 0x1a, 0xbe,
  0x01, 0xc1, 0x3d, 0x3c, 0x37, 0x6e, 0xa3, 0xbc, 0x7a, 0xc6, 0x59, 0x3b,
  0x78, 0xd9, 0x0a, 0xbf, 0x68, 0x52, 0x0d, 0xbd, 0xca, 0xa7, 0xc0, 0xbe,
  0xb3, 0x6a, 0xd5, 0x3e, 0x8b, 0xe4, 0xf3, 0x3e, 0x4a, 0x62, 0xa3, 0x3e,
  0x47, 0x19, 0xb8, 0x3d, 0xcc, 0x73, 0xbc, 0xbc, 0x36, 0x83, 0x04, 0xbe,
  0x0a, 0x5a, 0x92, 0x3e, 0x0e, 0x16, 0x33, 0xbe, 0x64, 0x88, 0xd6, 0x3e,
  0x29, 0xbe, 0xa4, 0x3d, 0xba, 0x51, 0xdb, 0x3d, 0xa4, 0xeb, 0x4d, 0xbf,
  0x89, 0xbb, 0xad, 0xbe, 0x11, 0x53, 0xe8, 0x3c, 0x52, 0xa5, 0xec, 0x3d,
  0x4d, 0x13, 0xc0, 0xbd, 0x07, 0x7c, 0x82, 0x3e, 0x78, 0x73, 0x6f, 0x3d,
  0x82, 0x06, 0xa2, 0x3e, 0xdb, 0x39, 0x1b, 0xbc, 0x99, 0x82, 0x25, 0x3e,
  0x9a, 0x9a, 0x8f, 0xbe, 0x5c, 0xee, 0x4a, 0x3e, 0xb0, 0xa2, 0xb1, 0xbc,
  0xe9, 0xb2, 0x65, 0x3e, 0x1a, 0xea, 0x9c, 0x3e, 0x59, 0x08, 0x7b, 0xbd,
  0x3b, 0x1b, 0xd0, 0x3c, 0x68, 0x77, 0x8a, 0xbe, 0x69, 0xa6, 0x04, 0x3d,
  0xa3, 0x77, 0xac, 0x3c, 0x02, 0xb2, 0x07, 0xbc, 0x7c, 0x3a, 0xf0, 0x3e,
  0x51, 0x66, 0x86, 0xbd, 0x42, 0xa0, 0xd9, 0x3e, 0x0e, 0x8e, 0x2d, 0x3e,
  0xa0, 0xd1, 0x59, 0x3c, 0x3f, 0x2e, 0x14, 0xbd, 0xa6, 0xe3, 0x29, 0x3e,
  0x15, 0x5f, 0xe8, 0xbc, 0xc0, 0x28, 0x09, 0x3e, 0xc3, 0x20, 0xed, 0x3e,
  0xed, 0x84, 0x1c, 0x3e, 0x32, 0x61, 0xce, 0xbc, 0xcb, 0x40, 0x50, 0x39,
  0x22, 0xe0, 0x39, 0x3e, 0x0d, 0xff, 0xa0, 0x3e, 0xe1, 0x44, 0xb9, 0x3d,
  0x71, 0x9f, 0xcb, 0x3d, 0xf1, 0xf2, 0xaf, 0x3d, 0x64, 0x3d, 0xed, 0x3d,
  0x2f, 0xf0, 0x97, 0x3c, 0x69, 0xfd, 0x4e, 0x3d, 0x2c, 0x2a, 0x0b, 0xbe,
  0xdc, 0x1f, 0x72, 0x3f, 0xf6, 0xd6, 0x9b, 0xbc, 0x44, 0x77, 0x6a, 0xbe,
  0x92, 0xed, 0xbe, 0xbd, 0x07, 0xf4, 0x06, 0xbe, 0xef, 0x65, 0x7f, 0xbe,
  0x8f, 0x3b, 0x5e, 0xbe, 0xb6, 0xfb, 0x04, 0x3b, 0x28, 0xfa, 0x5b, 0x3e,
  0xf4, 0xc7, 0xa7, 0xbd, 0xca, 0xb7, 0x35, 0x3d, 0xe6, 0x6a, 0x3d, 0x3d,
  0x1f, 0x3c, 0xde, 0xbd, 0x2d, 0x89, 0x42, 0x3d, 0xce, 0xa1, 0x90, 0x3d,
  0x19, 0x7c, 0x00, 0xbe, 0x4a, 0x2e, 0x9b, 0x3f, 0x37, 0x84, 0xc4, 0x3a,
  0xff, 0xf8, 0xec, 0xbc, 0x0a, 0xd3, 0x28, 0xbe, 0xf1, 0x51, 0xbf, 0xbd,
  0x35, 0xea, 0x49, 0xbe, 0xc3, 0xa9, 0xe2, 0x3d, 0xe0, 0x79, 0xb9, 0x3d,
  0x79, 0x7e, 0x38, 0x3e, 0x31, 0x78, 0x06, 0xbe, 0x63, 0x92, 0xf0, 0xbd,
  0x91, 0x4a, 0x45, 0xbe, 0x2e, 0x78, 0x80, 0x3d, 0xf0, 0x16, 0xfb, 0xbc,
  0x51, 0x01, 0xaf, 0x3d, 0x98, 0x32, 0x83, 0xbd, 0x4e, 0x28, 0x2f, 0x3f,
  0x70, 0x22, 0x01, 0xbe, 0x12, 0x60, 0x97, 0x3d, 0x57, 0x20, 0xa6, 0xbd,
  0xb7, 0x6a, 0x3c, 0x3b, 0x31, 0xc0, 0x83, 0xbb, 0xb4, 0x6f, 0x0a, 0xbd,
  0x62, 0x22, 0x04, 0xbe, 0x29, 0x3f, 0x90, 0x3e, 0x34, 0xc5, 0x0f, 0xbe,
  0x7c, 0x6b, 0x3a, 0xbb, 0x36, 0x43, 0x15, 0x3c, 0x68, 0x41, 0x0a, 0xbd,
  0xf4, 0xda, 0x11, 0x3e, 0xe8, 0xcc, 0x79, 0x3d, 0x96, 0xc1, 0x9d, 0x3d,
  0xfc, 0xb7, 0xbf, 0x3f, 0x08, 0xf9, 0x23, 0x3d, 0x32, 0xaf, 0x96, 0xbd,
  0xbf, 0x82, 0x9b, 0xbb, 0x87, 0x88, 0x23, 0xbd, 0xb2, 0xea, 0x83, 0xbe,
  0x2b, 0x80, 0xe8, 0x3b, 0xf1, 0x26, 0x66, 0xbe, 0x82, 0xce, 0x14, 0x3d,
  0x38, 0x04, 0x93, 0xbd, 0x34, 0x72, 0x31, 0xbd, 0xa0, 0x15, 0x55, 0x3d,
  0xb6, 0x2b, 0x16, 0xbe, 0xbf, 0x77, 0x21, 0x3c, 0x30, 0xeb, 0xe0, 0x3b,
  0xfa, 0x9a, 0x8d, 0x3d, 0x01, 0x36, 0xcd, 0x3f, 0x82, 0x9a, 0x07, 0xbe,
  0x20, 0xfd, 0x2b, 0x3d, 0x44, 0x36, 0x33, 0x3d, 0x3d, 0x5d, 0x26, 0xbe,
  0x07, 0x68, 0xdf, 0x3d, 0x74, 0xb0, 0x8e, 0xbd, 0x3d, 0xed, 0x3c, 0xbe,
  0x4e, 0xc5, 0x1d, 0x3e, 0x38, 0xa5, 0xe9, 0xbd, 0xb4, 0x5f, 0xc9, 0xbc,
  0x84, 0x36, 0x41, 0xbe, 0x62, 0x14, 0x23, 0xbd, 0x6f, 0xed, 0x14, 0xbd,
  0xdf, 0xce, 0x88, 0x3e, 0xa3, 0xad, 0x93, 0xbd, 0xd4, 0xed, 0x64, 0x3f,
  0xaf, 0x8e, 0x89, 0xbd, 0xa2, 0x3f, 0x13, 0xbe, 0x50, 0xe5, 0x0d, 0x3e,
  0xf7, 0xe2, 0xa4, 0xbb, 0x59, 0x0e, 0x23, 0xbe, 0x82, 0x95, 0xd2, 0x3d,
  0xcf, 0xe0, 0x65, 0xbe, 0x61, 0x04, 0x84, 0x3c, 0x45, 0xee, 0x6d, 0xbe,
  0x4b, 0x7e, 0x03, 0x3d, 0x1b, 0xfb, 0x51, 0xbc, 0x6f, 0xce, 0x18, 0x3c,
  0x43, 0x3a, 0x08, 0xbe, 0xb4, 0x17, 0x73, 0x3d, 0x30, 0xa1, 0x02, 0xbe,
  0xff, 0xcc, 0xc6, 0xb8, 0x6b, 0x76, 0xa9, 0xbe, 0xb8, 0x74, 0x2d, 0xbe,
  0xef, 0xb3, 0xfc, 0x3d, 0x84, 0xaa, 0x6c, 0xbe, 0x33, 0x22, 0x7b, 0xbe,
  0x75, 0x93, 0x62, 0xbe, 0x5f, 0xf8, 0x32, 0xbe, 0x91, 0x6d, 0xd0, 0x3e,
  0x46, 0x61, 0x8c, 0xbe, 0xfa, 0x8b, 0xee, 0xbc, 0x94, 0x1d, 0xb8, 0x3d,
  0x8a, 0x1a, 0x2e, 0xbe, 0x5f, 0x57, 0x9a, 0xbd, 0x8a, 0x95, 0x36, 0xbe,
  0x3d, 0xeb, 0xd3, 0x3e, 0x20, 0x45, 0xe0, 0x3c, 0x94, 0x1e, 0x56, 0xbd,
  0xe1, 0x10, 0x40, 0xbe, 0x7c, 0x2e, 0xc2, 0x3d, 0x46, 0x1f, 0xc3, 0xbd,
  0x43, 0x8b, 0x67, 0x3c, 0xf5, 0x8a, 0x2a, 0x3d, 0x55, 0xe4, 0xdb, 0xbd,
  0x43, 0xb7, 0xc3, 0x3a, 0x73, 0x95, 0xd0, 0xbd, 0xa2, 0xd6, 0x80, 0xbc,
  0x84, 0xea, 0x27, 0x3e, 0xc7, 0xc8, 0xb7, 0x3d, 0x30, 0xa4, 0x5d, 0xbd,
  0xce, 0xde, 0x76, 0xbe, 0xf2, 0x5f, 0x45, 0x3e, 0xb6, 0x4b, 0x3d, 0xbc,
  0x26, 0xf0, 0x5b, 0xbc, 0x28, 0x47, 0x3d, 0x3e, 0x39, 0x3d, 0x50, 0xbc,
  0x5f, 0x55, 0xa9, 0xbe, 0xd9, 0xa3, 0xa3, 0xbe, 0xc7, 0x5b, 0x79, 0x3e,
  0x98, 0x59, 0x1e, 0x3e, 0x87, 0xf0, 0xa1, 0xbd, 0xb1, 0x9c, 0x70, 0xbd,
  0x22, 0x41, 0x01, 0x3e, 0x1b, 0x67, 0x1f, 0xbe, 0x3d, 0x6b, 0xee, 0x3e,
  0xbe, 0xbe, 0x37, 0xbe, 0x8b, 0xbf, 0xc3, 0xbe, 0xc0, 0xa9, 0x0a, 0x3e,
  0xce, 0x19, 0x90, 0xbd, 0x46, 0x11, 0x0e, 0x3c, 0x8b, 0x2d, 0x2f, 0xbd,
  0x17, 0x0a, 0x18, 0x3e, 0x2f, 0xb0, 0x0c, 0xbe, 0x73, 0x06, 0x32, 0x3d,
  0x8f, 0x4f, 0x89, 0xbc, 0x99, 0x83, 0x9a, 0x3e, 0xb4, 0xae, 0xd0, 0xbd,
  0xac, 0xac, 0xd2, 0xbd, 0xa1, 0x95, 0xd0, 0xbb, 0xc7, 0xfb, 0x62, 0x3e,
  0x88, 0x68, 0x66, 0x3e, 0x47, 0xa3, 0x72, 0x3c, 0xaf, 0x6a, 0x99, 0xbe,
  0xdf, 0x70, 0xc9, 0x3e, 0xc1, 0x0c, 0xc5, 0xbd, 0x3a, 0xf6, 0x81, 0x3e,
  0x2f, 0x0c, 0xa5, 0x3d, 0xa6, 0x97, 0xa8, 0x3d, 0x05, 0x66, 0x25, 0xbe,
  0x88, 0x25, 0x8b, 0x3e, 0x8c, 0xb5, 0x2d, 0x3e, 0x37, 0xf8, 0xea, 0xbc,
  0x9d, 0x6d, 0x8d, 0x3d, 0x72, 0x72, 0x91, 0x3d, 0xee, 0x70, 0x21, 0xbe,
  0xea, 0x9a, 0x94, 0x3e, 0xca, 0x21, 0xc7, 0xbd, 0x2f, 0x87, 0x6e, 0x3d,
  0x43, 0xa3, 0x68, 0xbe, 0xa9, 0x69, 0x6d, 0x3e, 0xc8, 0x97, 0xf2, 0xbd,
  0xd1, 0x18, 0xb3, 0x3e, 0xa7, 0xfd, 0xbf, 0x3c, 0x3a, 0x24, 0x02, 0xbe,
  0x68, 0xad, 0x69, 0xbd, 0xc8, 0x1a, 0x97, 0x3e, 0x90, 0xad, 0x19, 0x3e,
  0xa1, 0x7f, 0x08, 0xbd, 0xd4, 0xa4, 0x12, 0x3e, 0x22, 0xf2, 0xc9, 0x3d,
  0x81, 0x8f, 0x79, 0xbe, 0x01, 0xf9, 0x89, 0x3e, 0xf4, 0x01, 0x89, 0xbe,
  0xa8, 0xc7, 0x07, 0xbe, 0xe3, 0x57, 0xa0, 0xbd, 0xb5, 0xfc, 0xb8, 0x3e,
  0xfe, 0x90, 0xde, 0x3d, 0x54, 0xb6, 0x24, 0x3d, 0x7a, 0xb7, 0x21, 0x3e,
  0x7b, 0xc7, 0xee, 0xbd, 0x4a, 0x95, 0x98, 0x3d, 0x65, 0x03, 0x28, 0xbe,
  0xdf, 0x11, 0xad, 0x3e, 0xe9, 0x5d, 0xe5, 0x3d, 0x3a, 0x4e, 0xfe, 0xbd,
  0xef, 0xc5, 0x02, 0xbe, 0x0d, 0xe0, 0x8a, 0xbd, 0x34, 0x70, 0x36, 0xbe,
  0xe7, 0x34, 0x7a, 0xbd, 0x27, 0x6e, 0x51, 0xbd, 0x59, 0xc2, 0x65, 0xbe,
  0x1e, 0x97, 0x10, 0xbe, 0x9c, 0x1a, 0xa2, 0xbd, 0xc5, 0x1e, 0xad, 0xbd,
  0xfd, 0x9c, 0xa0, 0xbd, 0x0b, 0x21, 0x4a, 0xbd, 0xd9, 0x3f, 0xce, 0xbd,
  0xa2, 0x79, 0x34, 0x3d, 0x93, 0xcd, 0x05, 0xbe, 0xec, 0x02, 0x20, 0x3d,
  0x6d, 0xda, 0xde, 0xbd, 0xc8, 0x7f, 0x10, 0xbd, 0xa8, 0x8e, 0x4c, 0xbe,
  0x25, 0x47, 0x5c, 0x3d, 0x53, 0x69, 0x64, 0xbe, 0xad, 0x1a, 0x68, 0xbd,
  0x98, 0x3e, 0xde, 0xbc, 0x6f, 0x06, 0x12, 0xbe, 0x7f, 0xf8, 0x9b, 0x3f,
  0x03, 0x6e, 0xb4, 0x3d, 0xa8, 0x18, 0x5d, 0xbe, 0x55, 0xc0, 0x47, 0xbe,
  0x91, 0x7d, 0xb3, 0xbc, 0xdb, 0x9b, 0xe7, 0xbc, 0xc2, 0x84, 0x38, 0xbe,
  0x50, 0xc9, 0x76, 0xbd, 0x90, 0xa4, 0x20, 0xbe, 0x97, 0x21, 0x50, 0xbe,
  0xde, 0x37, 0x42, 0x3c, 0xc9, 0x01, 0x76, 0xbe, 0x07, 0x24, 0xb0, 0x3d,
  0xbd, 0x69, 0xa8, 0x3d, 0x15, 0xaf, 0x46, 0x3e, 0x0a, 0xfc, 0xfc, 0xbd,
  0xa0, 0x4a, 0x72, 0x3f, 0xe5, 0x1a, 0x3b, 0xbe, 0xf2, 0xc6, 0x43, 0xbe,
  0x7c, 0x79, 0x71, 0xbd, 0x01, 0xdc, 0x82, 0xbe, 0xc4, 0x96, 0xe0, 0xbc,
  0xb4, 0xaf, 0x46, 0xbc, 0x9d, 0xdb, 0x89, 0xbe, 0x6f, 0x3f, 0xa2, 0x3e,
  0x48, 0x91, 0x06, 0xbe, 0x7b, 0x49, 0x39, 0x3e, 0x47, 0xf9, 0x45, 0x3d,
  0x69, 0xa8, 0x47, 0xbe, 0xb5, 0xb3, 0xa2, 0x3d, 0x2d, 0xc4, 0xb3, 0x3d,
  0x40, 0x7c, 0xf5, 0xbd, 0x03, 0x2f, 0xa1, 0x3f, 0xe4, 0x9b, 0x11, 0x3e,
  0xef, 0x45, 0x10, 0xbe, 0x77, 0xbe, 0x36, 0xbe, 0x46, 0xe8, 0x38, 0xbe,
  0xa8, 0x21, 0x09, 0xbe, 0x28, 0x40, 0xc0, 0x3c, 0x7b, 0xef, 0x10, 0xbd,
  0x17, 0xcb, 0xbe, 0x3e, 0xcd, 0x53, 0xaf, 0xbd, 0x7b, 0x47, 0xa7, 0x3c,
  0x23, 0x56, 0x5c, 0xbe, 0x11, 0xae, 0xce, 0xbd, 0xc8, 0x67, 0x0c, 0xbe,
  0x87, 0xe4, 0x03, 0x3e, 0x95, 0x01, 0x80, 0xbe, 0xff, 0xd7, 0x9f, 0x3f,
  0x66, 0x6f, 0xdf, 0x3d, 0x8a, 0x59, 0x98, 0xbd, 0x42, 0x5d, 0xb6, 0x3d,
  0x7c, 0xa7, 0x15, 0xbe, 0xc7, 0x04, 0xd6, 0xbd, 0x6b, 0x6f, 0x2e, 0xbe,
  0xd9, 0x0f, 0xa2, 0xbe, 0xc5, 0xde, 0xd7, 0x3c, 0xa5, 0x33, 0xe9, 0xbd,
  0xfa, 0xe6, 0x70, 0xbd, 0xe6, 0x0d, 0x24, 0xbe, 0x0d, 0x62, 0xc6, 0x3c,
  0xcb, 0xf0, 0xa0, 0x3d, 0x8e, 0x6e, 0x26, 0x3e, 0x47, 0x1c, 0x1b, 0xbe,
  0x49, 0x69, 0x7b, 0x3f, 0x66, 0x37, 0x7b, 0xbb, 0x4c, 0xd8, 0x8b, 0x3d,
  0x3f, 0xc6, 0x33, 0xbe, 0xa0, 0xb6, 0xa9, 0xbd, 0x3b, 0xb9, 0xb5, 0x3c,
  0x9d, 0x9a, 0x15, 0x3e, 0x00, 0x1c, 0xae, 0x3d, 0x5b, 0x68, 0x64, 0x3e,
  0xf5, 0x77, 0x9d, 0xbe, 0xa7, 0x60, 0x0e, 0xbe, 0x82, 0x73, 0xf4, 0x3c,
  0xc2, 0x94, 0x2f, 0xbe, 0xe1, 0x9f, 0x18, 0xbe, 0xa8, 0x9d, 0x5f, 0x3e,
  0x21, 0x81, 0x39, 0xbe, 0xa2, 0x78, 0x97, 0x3f, 0x77, 0xf8, 0x5e, 0xbe,
  0x9e, 0x01, 0x10, 0x3b, 0x56, 0x55, 0x98, 0x3a, 0xeb, 0x4c, 0x46, 0xbe,
  0x4f, 0xf6, 0x8a, 0xbe, 0x84, 0x0b, 0xaa, 0xbd, 0x03, 0x44, 0x00, 0xbe,
  0xdb, 0x16, 0x58, 0x3e, 0x8d, 0x6b, 0x3a, 0xbe, 0x6c, 0x16, 0x7e, 0xbe,
  0xb5, 0xfe, 0x8b, 0xbd, 0x27, 0x5d, 0xcd, 0xbc, 0x8f, 0x57, 0x43, 0xbc,
  0x85, 0x60, 0x3a, 0x3d, 0xa2, 0x7e, 0xa2, 0xbe, 0xf1, 0xe5, 0x88, 0x3e,
  0xaf, 0x31, 0x80, 0xbe, 0x19, 0xab, 0xaa, 0xbd, 0xb9, 0x69, 0xfe, 0xba,
  0x1c, 0x50, 0x32, 0xbe, 0x34, 0x1b, 0x88, 0xbe, 0xd0, 0x01, 0x5e, 0x3d,
  0x26, 0x74, 0x1e, 0xbe, 0x34, 0x86, 0x27, 0x3f, 0xba, 0xe6, 0x41, 0xbc,
  0x17, 0x03, 0x1d, 0xbf, 0xff, 0x05, 0xa9, 0x3e, 0x15, 0x48, 0x8f, 0xbe,
  0x58, 0x66, 0xc1, 0xbd, 0xea, 0x42, 0xd3, 0xbe, 0xe6, 0xb2, 0x76, 0x3e,
  0xee, 0xf5, 0x9b, 0x3f, 0x98, 0xed, 0x09, 0x3e, 0xe4, 0xba, 0xa8, 0xbe,
  0x84, 0xa6, 0xbb, 0xbe, 0x1d, 0x56, 0x55, 0xbe, 0xdb, 0x08, 0x66, 0x3c,
  0xb9, 0xda, 0x9e, 0x3e, 0x08, 0x28, 0x86, 0x3c, 0x9b, 0xb0, 0xfe, 0xbd,
  0xf4, 0x46, 0xa2, 0x3b, 0xe8, 0xb5, 0xe1, 0x3d, 0xe2, 0x02, 0x71, 0x3e,
  0x4d, 0xb7, 0x1b, 0x3d, 0x03, 0xe3, 0x05, 0x3e, 0xbf, 0xbf, 0xc5, 0xbe,
  0x4c, 0xb2, 0x77, 0x3e, 0x2d, 0x95, 0xae, 0x3f, 0xf6, 0xb6, 0x0a, 0x3e,
  0x16, 0x43, 0xfc, 0x3d, 0xb6, 0x08, 0x7a, 0xbe, 0x45, 0xcd, 0x67, 0xbe,
  0xab, 0x67, 0x58, 0xbd, 0x92, 0x51, 0xec, 0x3c, 0xd2, 0x4c, 0xe2, 0x3d,
  0x16, 0x4a, 0x84, 0x3e, 0x08, 0x3b, 0xcb, 0xba, 0xaa, 0xd6, 0x31, 0xbe,
  0xc6, 0x09, 0x3f, 0x3e, 0x0a, 0x42, 0xdf, 0x3e, 0x0c, 0x75, 0x44, 0xbd,
  0x22, 0x87, 0x98, 0xbe, 0xb9, 0xb7, 0x2d, 0x3e, 0x85, 0x74, 0x69, 0x3f,
  0x0a, 0x86, 0x8d, 0xbd, 0xb0, 0x35, 0x17, 0x3f, 0x44, 0x3c, 0x70, 0x3d,
  0xb7, 0x49, 0x7d, 0xbd, 0x9c, 0xb6, 0x98, 0x3d, 0x49, 0x3f, 0xb2, 0x3e,
  0x04, 0x81, 0xe7, 0x3e, 0x40, 0xaf, 0x19, 0xbd, 0x0d, 0xed, 0x77, 0xbc,
  0x26, 0xbb, 0x92, 0xbe, 0x6d, 0xf5, 0x68, 0x3c, 0x7a, 0x46, 0x49, 0x3e,
  0xb5, 0x28, 0xfe, 0x3c, 0xd0, 0xcc, 0x94, 0xbe, 0x85, 0xb1, 0xb9, 0x3c,
  0x5f, 0x81, 0x5b, 0x3f, 0xce, 0xdf, 0x85, 0x3e, 0x7f, 0x46, 0xbe, 0x3e,
  0x56, 0xfb, 0x0f, 0x3e, 0x5c, 0x05, 0xb6, 0xbc, 0xc6, 0xce, 0xdd, 0x3e,
  0xcb, 0xbb, 0x33, 0x3e, 0x80, 0x17, 0xc2, 0x3e, 0xc7, 0xfe, 0xa6, 0xbd,
  0x7a, 0x0c, 0x79, 0xbc, 0x0a, 0x60, 0x0f, 0xbf, 0x4d, 0x71, 0x34, 0x3e,
  0x88, 0xc2, 0x86, 0xbe, 0x05, 0x6f, 0x14, 0xbe, 0xf3, 0x20, 0x11, 0xbf,
  0xfa, 0x98, 0x3a, 0x3e, 0x77, 0xb7, 0x8a, 0x3f, 0x1a, 0xd3, 0x45, 0xbd,
  0xfa, 0x91, 0xcb, 0xbd, 0x7c, 0x1f, 0x65, 0x3e, 0x78, 0x03, 0x83, 0xbc,
  0x59, 0x02, 0x2b, 0x3e, 0x3f, 0x51, 0x39, 0x3e, 0x28, 0xa8, 0x42, 0x3e,
  0x4f, 0xc9, 0x81, 0xbc, 0x38, 0x50, 0x14, 0xbd, 0xb4, 0x13, 0x6d, 0xbe,
  0x9a, 0x03, 0x18, 0x3e, 0x45, 0xc4, 0xce, 0xbe, 0xcf, 0xfe, 0x0a, 0xbe,
  0xd4, 0xff, 0xbd, 0xbe, 0x62, 0xac, 0xad, 0x3e, 0x97, 0x9d, 0x96, 0x3f,
  0x23, 0x90, 0x63, 0x3e, 0xba, 0xb1, 0xd9, 0xbe, 0x80, 0x65, 0xd7, 0xbe,
  0xbe, 0x89, 0xcc, 0xbd, 0x52, 0xdd, 0x0c, 0xbd, 0x18, 0x38, 0x61, 0x3e,
  0x78, 0x8d, 0x48, 0x3e, 0xd2, 0xcf, 0xe5, 0xbd, 0x70, 0x40, 0xb4, 0xbc,
  0x18, 0x7d, 0x3c, 0xbe, 0x88, 0x87, 0x79, 0x3d, 0xc0, 0x06, 0x18, 0xbc,
  0xb4, 0xfd, 0x83, 0xbd, 0xea, 0x20, 0x9a, 0xbd, 0x73, 0xd1, 0x37, 0x3d,
  0x91, 0x35, 0xfe, 0xbc, 0xb0, 0x71, 0xa9, 0xbc, 0x5c, 0xdb, 0xd1, 0xbd,
  0xda, 0x76, 0x8a, 0xbe, 0x8a, 0xc7, 0x90, 0xbd, 0x28, 0x9f, 0xa4, 0xbb,
  0x78, 0xa4, 0x47, 0x3e, 0x17, 0xb1, 0xca, 0x3d, 0x45, 0xd5, 0xb9, 0xbd,
  0xa8, 0xb9, 0x1b, 0x3d, 0xc7, 0xfe, 0xfc, 0x3d, 0x80, 0xb5, 0x04, 0xbe,
  0x03, 0x69, 0xae, 0xbd, 0x66, 0xf1, 0x30, 0xbe, 0xa5, 0x71, 0xc6, 0xbd,
  0xf7, 0xa7, 0x45, 0xbe, 0x80, 0x7f, 0xa4, 0x3f, 0x5d, 0x56, 0xaf, 0x3b,
  0x5a, 0x88, 0x83, 0xbd, 0x1a, 0xc7, 0xd3, 0x3d, 0x21, 0x4a, 0x94, 0xbd,
  0x14, 0xbb, 0x81, 0x3c, 0xa7, 0x25, 0x8a, 0xbe, 0xb4, 0x04, 0x69, 0xbe,
  0x15, 0x1a, 0xf6, 0x3d, 0x77, 0x53, 0xab, 0xbe, 0x58, 0x92, 0x5b, 0x3d,
  0xb9, 0xc8, 0x68, 0xbe, 0x9c, 0x17, 0x91, 0xbe, 0x29, 0x75, 0x67, 0xbe,
  0xa9, 0x0e, 0x7c, 0x3d, 0xf0, 0x2d, 0x6e, 0xbd, 0xf6, 0x95, 0x92, 0x3f,
  0xa1, 0x94, 0x21, 0xbe, 0xa6, 0x39, 0x8f, 0xbd, 0xa1, 0xd9, 0xfd, 0x3d,
  0xe0, 0xca, 0x7c, 0xbe, 0x0f, 0xaf, 0x7a, 0xbd, 0x3f, 0x4c, 0x04, 0xbe,
  0xba, 0x26, 0x8f, 0x3d, 0x25, 0xdc, 0x9c, 0x3e, 0x87, 0xe5, 0x48, 0xbe,
  0x54, 0x6d, 0xf3, 0x3c, 0xfd, 0x26, 0xef, 0xbd, 0x24, 0xc3, 0xac, 0xbd,
  0x2c, 0x2e, 0x27, 0x3e, 0x23, 0x1f, 0x27, 0x3e, 0x89, 0x80, 0xd1, 0xbd,
  0xce, 0xa2, 0x8c, 0x3f, 0x85, 0x52, 0x74, 0xbe, 0x12, 0xd4, 0x10, 0x3e,
  0xcc, 0x18, 0x10, 0x3e, 0x17, 0x14, 0x8b, 0xbd, 0xb0, 0xe0, 0xb3, 0xbd,
  0xab, 0xf3, 0xab, 0xbd, 0x6d, 0x73, 0x44, 0x3c, 0x1c, 0x78, 0xa4, 0xbc,
  0x64, 0xf1, 0xc9, 0xbd, 0x23, 0x26, 0x14, 0x3c, 0x19, 0xb9, 0xf0, 0x3a,
  0xbd, 0x7e, 0x92, 0xbe, 0x1e, 0x93, 0xcc, 0xbb, 0xa4, 0x58, 0xe6, 0x3d,
  0x6b, 0x02, 0x38, 0xbe, 0xc9, 0xe3, 0x8d, 0x3f, 0xac, 0xce, 0xc9, 0x3d,
  0x83, 0xca, 0xe3, 0x3c, 0x52, 0x69, 0x25, 0x3d, 0x55, 0x36, 0x91, 0xbc,
  0x1e, 0x5d, 0xd4, 0xbd, 0x01, 0x22, 0xc5, 0x3d, 0x7c, 0x74, 0x26, 0x3d,
  0x5a, 0x1b, 0xee, 0x3d, 0xd5, 0x3e, 0x0e, 0xbe, 0x43, 0xd3, 0xc0, 0xbd,
  0xad, 0x82, 0x63, 0xbd, 0x05, 0xdd, 0xa9, 0xbc, 0x70, 0x73, 0x29, 0xbe,
  0x81, 0x5d, 0x6a, 0xbd, 0xc7, 0x00, 0x23, 0xbd, 0xe2, 0xf1, 0x91, 0x3f,
  0xfe, 0x4f, 0x17, 0xbe, 0x99, 0xe4, 0xe1, 0x3d, 0x97, 0x3a, 0x2e, 0xbe,
  0xaf, 0x5a, 0x88, 0xbe, 0x14, 0x5b, 0x60, 0xbc, 0x97, 0x8f, 0x0b, 0xbe,
  0xc6, 0xdd, 0x4a, 0xbe, 0xdc, 0xa4, 0x0b, 0x3e, 0x7e, 0x31, 0x47, 0xbe,
  0x81, 0xca, 0x2a, 0xbe, 0xa6, 0x13, 0xc2, 0xbc, 0x6b, 0x42, 0x3d, 0xbe,
  0xf6, 0xcd, 0x3c, 0x3c, 0x1f, 0x6f, 0x87, 0x3e, 0xe8, 0x93, 0xf3, 0xbb,
  0x1f, 0x7a, 0x8f, 0x3f, 0xb3, 0x7a, 0xe8, 0x3d, 0xd5, 0x96, 0x21, 0xbe,
  0x30, 0x0e, 0x01, 0x3e, 0x37, 0x83, 0xb3, 0xbd, 0x72, 0x7e, 0x3e, 0x3e,
  0x69, 0xe2, 0xe1, 0x3d, 0xc9, 0x8a, 0x22, 0xbe, 0x07, 0xb3, 0xd2, 0x3d,
  0xef, 0x47, 0x8b, 0xbe, 0xb6, 0xbb, 0x32, 0xbe, 0x71, 0x5e, 0x98, 0xbd,
  0xe7, 0x30, 0x1b, 0xbe, 0x5c, 0xd7, 0xe8, 0xbd, 0xd0, 0x11, 0x08, 0x3e,
  0xfe, 0x5a, 0x3f, 0xbd, 0xae, 0xce, 0x6f, 0x3e, 0x63, 0xe7, 0x35, 0xbd,
  0x34, 0xa3, 0x09, 0x3d, 0x67, 0xf3, 0xb6, 0x3d, 0x4f, 0xab, 0x7f, 0xbe,
  0xbd, 0xbb, 0x3d, 0xbe, 0x2a, 0x15, 0x49, 0xbe, 0x46, 0xc1, 0xaa, 0xbd,
  0xa3, 0xf9, 0xf0, 0x3e, 0x4b, 0x97, 0xa3, 0xbe, 0x62, 0x96, 0xb9, 0xbd,
  0x67, 0xed, 0x9b, 0x3d, 0x59, 0xf9, 0x83, 0x3c, 0x02, 0x0a, 0x24, 0xbd,
  0x08, 0x63, 0x94, 0xbd, 0xb3, 0xb9, 0x46, 0xbd, 0x93, 0x6b, 0xe5, 0x3e,
  0x40, 0x60, 0x17, 0xbe, 0x67, 0xdf, 0x94, 0xbd, 0xc9, 0x77, 0x65, 0xbe,
  0x62, 0xcf, 0x9c, 0xbe, 0x5c, 0x03, 0x0c, 0x3d, 0x95, 0x3a, 0x8f, 0x3d,
  0xa9, 0xef, 0x05, 0x3c, 0x22, 0x55, 0x55, 0x3e, 0x3b, 0x8f, 0x75, 0xbe,
  0x84, 0x62, 0x65, 0xbd, 0x57, 0xa2, 0x7d, 0xbe, 0x9e, 0x50, 0xbb, 0x3d,
  0x89, 0x25, 0x7a, 0x3d, 0x99, 0x15, 0x46, 0xbc, 0xc6, 0xb8, 0xa8, 0x3d,
  0xe2, 0xcf, 0x8b, 0x3f, 0xf5, 0x42, 0xa1, 0x3d, 0xd1, 0x8b, 0x2d, 0x3e,
  0xf4, 0x42, 0x32, 0xbe, 0xbc, 0x9f, 0x3a, 0xbe, 0x05, 0x95, 0xe4, 0x3d,
  0xa9, 0x15, 0x8d, 0xbe, 0x91, 0x68, 0x1b, 0xbd, 0x82, 0x3a, 0x8a, 0x3e,
  0xeb, 0xb3, 0x5a, 0xbd, 0xc2, 0x02, 0x2f, 0x3d, 0x34, 0xd9, 0x0d, 0x3e,
  0x43, 0xa7, 0x28, 0x3e, 0xa7, 0x61, 0x57, 0xbd, 0x82, 0x19, 0x86, 0xbc,
  0xfb, 0x50, 0x03, 0x3e, 0xaf, 0xed, 0xb4, 0x3f, 0x78, 0x87, 0xf6, 0xbd,
  0xd3, 0x21, 0xdd, 0x3d, 0xf6, 0x6b, 0xba, 0xbc, 0x36, 0xe0, 0x99, 0xbe,
  0xe6, 0x0d, 0x82, 0xbd, 0xc0, 0xad, 0xa3, 0xbd, 0x5d, 0xed, 0xf6, 0xbd,
  0xf2, 0x18, 0x96, 0x3e, 0x38, 0x77, 0x5c, 0xbe, 0xbb, 0x97, 0xb7, 0xbd,
  0xfd, 0xe6, 0x0a, 0x3d, 0x22, 0x5c, 0x27, 0xbe, 0x3b, 0x4e, 0x2a, 0x3d,
  0xb4, 0x6c, 0x9d, 0x3e, 0x8e, 0x1e, 0x18, 0xbe, 0x9f, 0xc3, 0xbf, 0x3f,
  0x68, 0xf7, 0x4f, 0xbe, 0x5a, 0xea, 0xd3, 0x3d, 0xde, 0x05, 0x05, 0xbe,
  0x4d, 0x53, 0xba, 0xbc, 0xef, 0x9f, 0x27, 0xbe, 0xfe, 0x4e, 0x6e, 0xbc,
  0x89, 0x9b, 0xfb, 0xbd, 0x51, 0x4e, 0x7d, 0x3e, 0x56, 0xc8, 0x1d, 0x3b,
  0xae, 0x09, 0xd9, 0xbd, 0x81, 0xb1, 0x97, 0x3d, 0x0f, 0x89, 0x69, 0xbe,
  0xef, 0xb7, 0x48, 0x3d, 0xba, 0x84, 0x1e, 0x3d, 0x7f, 0x39, 0x4c, 0xbe,
  0x7c, 0x3a, 0x2c, 0x3f, 0x1d, 0x6b, 0x48, 0x3d, 0x94, 0x14, 0x7f, 0x3d,
  0x79, 0x36, 0x0c, 0xbd, 0xf8, 0x93, 0xa1, 0xbc, 0xe2, 0x25, 0x24, 0xbd,
  0x9b, 0xfa, 0x11, 0x3e, 0x4d, 0xfe, 0xbc, 0x3c, 0x27, 0x67, 0xec, 0x3d,
  0x8a, 0x09, 0xb8, 0xbd, 0x22, 0x34, 0x01, 0xbd, 0xf8, 0x8b, 0xd7, 0xbd,
  0xb5, 0xae, 0x25, 0x3c, 0x4a, 0x24, 0x0a, 0xbc, 0x96, 0x87, 0x99, 0x3d,
  0x21, 0x95, 0x6d, 0x3c, 0x95, 0x41, 0xfc, 0x3f, 0x39, 0xdd, 0x4e, 0x3c,
  0xad, 0xff, 0xf9, 0x3c, 0x7d, 0x08, 0x5a, 0xbe, 0xfa, 0xd3, 0xc2, 0xbb,
  0x2b, 0xab, 0x2b, 0xbe, 0x6e, 0x08, 0xda, 0x3c, 0xa3, 0xe1, 0xa7, 0xbc,
  0x98, 0xe7, 0x0d, 0x3e, 0xfe, 0x5e, 0x6f, 0xbe, 0xb8, 0x3b, 0xd0, 0xbd,
  0x73, 0xd2, 0xcf, 0x3c, 0x41, 0x26, 0x7c, 0xbd, 0xbf, 0xf5, 0xf0, 0x3b,
  0xff, 0xf9, 0x66, 0xbd, 0x29, 0x94, 0x8c, 0xbe, 0xc6, 0x55, 0x58, 0x3e,
  0xcb, 0x81, 0xa0, 0xbe, 0x1a, 0x87, 0xf0, 0xbc, 0x68, 0x1a, 0x98, 0x3d,
  0xc2, 0x99, 0x0d, 0xbe, 0x35, 0xd1, 0x98, 0xbe, 0xac, 0xf1, 0x70, 0xbe,
  0xc9, 0x51, 0xcc, 0xbd, 0x40, 0x64, 0xc9, 0x3e, 0x2c, 0xfd, 0xe4, 0xbd,
  0xc8, 0xe2, 0xa2, 0xbe, 0x41, 0x0c, 0xfd, 0x3e, 0x09, 0x94, 0x82, 0xbe,
  0x91, 0x15, 0xa1, 0xbd, 0xde, 0x91, 0x6f, 0xbe, 0x66, 0xd2, 0x46, 0x3e,
  0x51, 0xa2, 0x83, 0x3f, 0x9f, 0xe9, 0x45, 0x3d, 0x33, 0x4c, 0xa7, 0xbe,
  0xd1, 0xb1, 0x20, 0xbe, 0xec, 0x34, 0xee, 0xbd, 0x99, 0xc3, 0x1e, 0x3d,
  0x0c, 0x58, 0xd5, 0x3e, 0x1e, 0xcd, 0xfd, 0xbd, 0x57, 0x15, 0xf1, 0xbd,
  0xd3, 0x28, 0x93, 0xbd, 0x22, 0xfc, 0x27, 0xbe, 0xd0, 0x6d, 0x8e, 0x3e,
  0x76, 0x45, 0x1d, 0xbc, 0x1c, 0xe3, 0x11, 0xbe, 0xbc, 0x53, 0x93, 0xbe,
  0x96, 0x19, 0xe5, 0x3e, 0x7f, 0x09, 0x6a, 0x3f, 0xe9, 0x5e, 0x26, 0x3d,
  0x88, 0x6e, 0xb3, 0x3d, 0xa1, 0xfc, 0x8c, 0xbe, 0xf3, 0x0c, 0xa9, 0xbe,
  0xe7, 0xd2, 0x28, 0xbd, 0x85, 0xdd, 0x79, 0x3c, 0x53, 0xc5, 0x93, 0x3e,
  0x01, 0x9e, 0x71, 0x3e, 0x40, 0x7e, 0x6d, 0xbc, 0x04, 0xcc, 0x46, 0xbb,
  0x19, 0xde, 0x89, 0x3e, 0x79, 0xc8, 0x9f, 0x3e, 0x95, 0xe2, 0x5a, 0xbd,
  0x12, 0x25, 0x01, 0xbe, 0x81, 0x05, 0x77, 0x3e, 0x65, 0x3b, 0x0d, 0x3f,
  0x42, 0x0d, 0x41, 0x3d, 0xf2, 0x95, 0xfc, 0x3e, 0x96, 0xe0, 0x86, 0x3d,
  0x49, 0xe9, 0x70, 0xbe, 0x9e, 0xa3, 0x6d, 0x3e, 0xbe, 0xc7, 0xb2, 0x3d,
  0x30, 0x54, 0xa8, 0x3e, 0x08, 0x98, 0xea, 0x3c, 0xc8, 0x5e, 0x8c, 0x3c,
  0x17, 0x31, 0xa1, 0xbd, 0x50, 0x5c, 0x77, 0x3d, 0x9a, 0x67, 0xaf, 0xbc,
  0xce, 0xe3, 0x27, 0x3d, 0x4c, 0xe3, 0x04, 0xbe, 0x28, 0xb5, 0x00, 0x3e,
  0x3e, 0x95, 0x30, 0x3f, 0x97, 0x0a, 0xaa, 0x3e, 0x87, 0x13, 0xd1, 0x3e,
  0x9d, 0x32, 0x81, 0x3c, 0xa1, 0x8d, 0xc6, 0xbc, 0xcd, 0xff, 0xa8, 0x3e,
  0x22, 0xd5, 0x74, 0x3e, 0x30, 0x37, 0x88, 0x3e, 0xac, 0xde, 0x10, 0x3d,
  0x02, 0xe5, 0x2d, 0x3d, 0x31, 0x3b, 0x06, 0xbf, 0xe9, 0x53, 0x00, 0xbe,
  0xa8, 0x03, 0x15, 0xbe, 0x83, 0x4a, 0xb2, 0xbd, 0xa0, 0x96, 0x7e, 0xbe,
  0xf6, 0x75, 0x2a, 0x3e, 0xf3, 0x67, 0x61, 0x3f, 0x16, 0x9b, 0xaf, 0x3e,
  0x43, 0x24, 0x47, 0xbe, 0xa5, 0x62, 0x43, 0xbd, 0xb0, 0x6c, 0x1c, 0xbe,
  0xe4, 0x0f, 0x92, 0x3e, 0x47, 0xcb, 0xa5, 0x3e, 0x25, 0x96, 0x97, 0x3d,
  0x9f, 0xfe, 0xba, 0x3d, 0x36, 0x86, 0xf2, 0xbc, 0xb2, 0xc8, 0xc5, 0xbe,
  0xb5, 0x6f, 0x89, 0x3e, 0x5c, 0x80, 0x13, 0xbe, 0xa8, 0x2b, 0xc4, 0xbd,
  0x2e, 0x69, 0x83, 0xbe, 0xfa, 0x12, 0xb3, 0x3e, 0x5f, 0xbb, 0x55, 0x3f,
  0x3d, 0x28, 0x16, 0xbc, 0xb6, 0x18, 0xaa, 0xbe, 0x5b, 0x26, 0x5e, 0xbe,
  0x56, 0xac, 0x5e, 0xbd, 0x7b, 0xc5, 0xc8, 0x3d, 0xfe, 0x2a, 0x92, 0x3e,
  0xd7, 0xe4, 0xf7, 0x3d, 0x07, 0x20, 0x80, 0x3d, 0x08, 0x75, 0x34, 0xbd,
  0xe2, 0xda, 0x6f, 0xbe, 0x96, 0x23, 0x22, 0x3e, 0x3e, 0x2b, 0xdf, 0x3c,
  0x70, 0x5a, 0x8f, 0xbd, 0x70, 0x0c, 0xbe, 0xbd, 0x1d, 0xab, 0x14, 0x3d,
  0xf8, 0x95, 0xa2, 0x3c, 0x18, 0x7b, 0xfc, 0x3c, 0xb7, 0x87, 0x45, 0xbd,
  0xbc, 0xd5, 0x56, 0xbe, 0xfe, 0x54, 0xa3, 0xbd, 0x26, 0xc9, 0x30, 0x3d,
  0x12, 0x31, 0x03, 0x3e, 0x09, 0xc5, 0x15, 0x3e, 0x24, 0x5c, 0xa6, 0xbd,
  0x8a, 0xbc, 0xc3, 0xbd, 0xf3, 0x69, 0xe6, 0x3c, 0xd0, 0x61, 0x80, 0xbe,
  0x1f, 0x0b, 0x68, 0xbe, 0x4b, 0xd9, 0x0a, 0xbd, 0x34, 0x63, 0x05, 0xbe,
  0x73, 0x8d, 0x13, 0xbe, 0xb9, 0x2b, 0x31, 0x3d, 0x65, 0x54, 0xce, 0xbe,
  0xd3, 0x24, 0xf4, 0xbe, 0xd2, 0x87, 0xa7, 0xbd, 0x7b, 0x74, 0x88, 0x3c,
  0x6b, 0x6d, 0xc5, 0xbe, 0x83, 0xae, 0x85, 0xbe, 0xa9, 0x25, 0x56, 0xbc,
  0x16, 0xc7, 0x8d, 0x3e, 0x29, 0x3d, 0x42, 0x3d, 0x6f, 0x62, 0x2d, 0x3e,
  0x69, 0xc4, 0x58, 0xbe, 0xdc, 0xbf, 0xa2, 0x3e, 0x35, 0xe0, 0x2e, 0x3e,
  0x29, 0x82, 0x83, 0x3e, 0xf6, 0x11, 0x9c, 0xbe, 0x89, 0x10, 0xa2, 0xbe,
  0x0f, 0xf6, 0x07, 0xbe, 0xe2, 0x22, 0x79, 0xbd, 0xa5, 0xd2, 0xc5, 0x3d,
  0xf5, 0xd1, 0x23, 0xbd, 0xd7, 0x6e, 0x8b, 0xbd, 0xdb, 0x1a, 0x9d, 0xbe,
  0x35, 0xd3, 0x02, 0xbe, 0x34, 0xd6, 0x2f, 0x3d, 0x2b, 0x3d, 0x72, 0x3d,
  0x5a, 0xd5, 0x2a, 0xbd, 0xd3, 0x8a, 0x57, 0xbe, 0x58, 0x1c, 0x5c, 0x3e,
  0xf5, 0xdf, 0x48, 0x3e, 0x0b, 0x4b, 0x77, 0x3e, 0xf9, 0xd7, 0xd1, 0xbd,
  0x72, 0x3c, 0xdc, 0xbd, 0x07, 0x7f, 0x9f, 0xbe, 0x39, 0xd7, 0x3d, 0x3d,
  0x83, 0x16, 0xf8, 0x3d, 0x2d, 0x12, 0xfe, 0x3c, 0xb7, 0xb5, 0x10, 0x3d,
  0x1c, 0x07, 0x3d, 0xbe, 0x52, 0xe2, 0xdc, 0x3b, 0x02, 0xea, 0x90, 0x3e,
  0x36, 0xa9, 0xdd, 0x3d, 0xf6, 0x8f, 0xaa, 0x3c, 0xf0, 0x32, 0x65, 0xbe,
  0xcd, 0x1e, 0xe1, 0x3e, 0x9e, 0x6d, 0x63, 0x3e, 0x36, 0x75, 0xc0, 0x3e,
  0xe2, 0xd8, 0xae, 0xbd, 0x92, 0xcd, 0x68, 0x3c, 0xe3, 0xa7, 0x83, 0xbe,
  0x1a, 0x57, 0x4c, 0x3e, 0xad, 0xd2, 0x4b, 0x3b, 0x69, 0x8b, 0x01, 0x3e,
  0x95, 0x0f, 0x7e, 0x3c, 0xd4, 0x7d, 0xe1, 0xbd, 0xf6, 0x45, 0x3e, 0xbd,
  0x46, 0xb8, 0x2f, 0x3d, 0xaf, 0x6f, 0xd8, 0x3d, 0x75, 0x42, 0x90, 0xbe,
  0x2f, 0x48, 0x81, 0xbe, 0x1e, 0xcb, 0x63, 0x3d, 0x83, 0x86, 0xfd, 0x3d,
  0xae, 0x5d, 0x86, 0x3e, 0xb3, 0xa1, 0x85, 0xbe, 0x60, 0xc2, 0xcf, 0x3d,
  0xce, 0x45, 0x1c, 0xbe, 0x1b, 0x1c, 0x1c, 0xbe, 0x84, 0xb2, 0x47, 0x3e,
  0xdf, 0xeb, 0x3d, 0xbd, 0x28, 0xad, 0x3d, 0x3d, 0x35, 0x21, 0xc6, 0xbe,
  0x44, 0xd7, 0xf4, 0xbd, 0xab, 0x83, 0x83, 0x3e, 0x46, 0xba, 0x4b, 0x3d,
  0x8d, 0xe8, 0xda, 0xbd, 0x45, 0x80, 0x80, 0xbe, 0xa6, 0x8d, 0x11, 0xbe,
  0x55, 0x9d, 0x51, 0x3d, 0x7d, 0x5d, 0x55, 0x3e, 0x00, 0x1d, 0xac, 0xbd,
  0x44, 0x3c, 0x55, 0x3b, 0x1c, 0xd4, 0x0d, 0xbe, 0x28, 0x6c, 0x4d, 0xbe,
  0x39, 0xea, 0xca, 0xbd, 0x14, 0x86, 0x23, 0x3d, 0x97, 0xd3, 0x28, 0xbd,
  0x18, 0x6a, 0x07, 0xbb, 0x8a, 0x14, 0xda, 0xbe, 0xf1, 0x09, 0x74, 0xbc,
  0x16, 0x78, 0xc4, 0x3c, 0xfd, 0x8c, 0x9f, 0xbe, 0x55, 0xa7, 0x03, 0xbe,
  0x32, 0xd2, 0x06, 0xbe, 0xab, 0x40, 0x31, 0xbd, 0x45, 0xd3, 0xfc, 0xbc,
  0xda, 0x8f, 0x54, 0x3d, 0xa6, 0x39, 0x81, 0x3e, 0xa7, 0x31, 0xe5, 0xbc,
  0xfe, 0x30, 0x80, 0xbe, 0x04, 0xdc, 0x07, 0x3e, 0xe6, 0x13, 0xd1, 0x3c,
  0xad, 0xef, 0x2a, 0xbc, 0xab, 0x5d, 0x89, 0xbe, 0xaa, 0x61, 0x41, 0xbe,
  0x4c, 0x2d, 0x11, 0xbe, 0xe7, 0x0c, 0xaa, 0x3c, 0x86, 0xf0, 0x89, 0x3d,
  0xce, 0x9c, 0x8e, 0xbd, 0x65, 0xe8, 0x2c, 0x3e, 0xad, 0xfe, 0xff, 0x3d,
  0x5a, 0x85, 0x96, 0x3e, 0x0c, 0x6f, 0x20, 0xbe, 0x54, 0x56, 0xe5, 0xbd,
  0x50, 0xea, 0xa7, 0xbd, 0x18, 0xce, 0x7b, 0x3e, 0x19, 0x23, 0x83, 0x3e,
  0xda, 0x9c, 0x1b, 0x3e, 0x08, 0x9b, 0x29, 0x3d, 0xcf, 0xb3, 0x0a, 0xbc,
  0x6e, 0x68, 0x64, 0x3d, 0xdc, 0x82, 0xbb, 0xbe, 0x8e, 0x72, 0x53, 0x3d,
  0xd9, 0x47, 0x00, 0xbe, 0x83, 0x31, 0xdf, 0x3b, 0x91, 0xb6, 0xd2, 0xbe,
  0xb7, 0x35, 0x21, 0xbe, 0xd2, 0x57, 0x2d, 0xbd, 0xec, 0x2d, 0x7a, 0xbe,
  0x21, 0x10, 0x54, 0xbe, 0x5e, 0x3c, 0x86, 0xbc, 0x95, 0x3b, 0xb5, 0xbe,
  0x3f, 0xec, 0xba, 0x3e, 0xad, 0xb4, 0xd1, 0x3d, 0x69, 0xae, 0x09, 0x3e,
  0x21, 0xaa, 0xc9, 0xbd, 0x73, 0x7a, 0x11, 0xbf, 0xbf, 0x90, 0x3b, 0xbb,
  0x61, 0x04, 0xd9, 0xbc, 0x35, 0x23, 0x0f, 0x3d, 0x48, 0x49, 0x7d, 0xbe,
  0x0e, 0x2d, 0x05, 0xbf, 0xc6, 0x4e, 0x9b, 0xbd, 0x44, 0x29, 0x3b, 0xbd,
  0x50, 0xc2, 0xa7, 0xbc, 0xdc, 0x3c, 0x07, 0xbe, 0xeb, 0xa3, 0x76, 0xbe,
  0x5a, 0xc5, 0xcb, 0xbe, 0x65, 0x95, 0x2c, 0xbe, 0xda, 0x9b, 0x59, 0xbe,
  0x58, 0xaa, 0x0c, 0x3e, 0x80, 0xf0, 0x2b, 0x3c, 0x6f, 0xda, 0x3d, 0xbf,
  0x09, 0xbc, 0xc1, 0xbd, 0x7e, 0xec, 0x4a, 0xbd, 0xbb, 0x31, 0xe7, 0x3d,
  0xfa, 0xd7, 0x95, 0x3c, 0x18, 0x66, 0x99, 0xbe, 0x34, 0x74, 0xda, 0xbb,
  0xc8, 0x0b, 0x9d, 0xbd, 0xed, 0x8d, 0x17, 0xbf, 0x01, 0x4e, 0x9a, 0xbd,
  0x1c, 0x82, 0xf4, 0xbe, 0xc6, 0xb9, 0x9d, 0xbd, 0x91, 0xb6, 0x03, 0xbf,
  0x15, 0x78, 0x77, 0xbe, 0x99, 0xd0, 0x3c, 0xbf, 0x7d, 0xe1, 0x0b, 0xbf,
  0xf5, 0xde, 0x25, 0xbf, 0x8a, 0x7d, 0x0d, 0xbe, 0x89, 0x5b, 0xba, 0x3c,
  0xbf, 0x89, 0xbc, 0xbd, 0xf2, 0xc5, 0x33, 0xbe, 0x9e, 0xea, 0x5e, 0xbd,
  0x1b, 0xcc, 0x8b, 0xbd, 0x2d, 0x80, 0x3a, 0xbe, 0xc7, 0x12, 0xa7, 0xbe,
  0x8d, 0x3f, 0xfe, 0x3d, 0x5a, 0x6e, 0x29, 0xbe, 0x3f, 0x38, 0xc1, 0xbe,
  0xa7, 0x3f, 0x03, 0xbe, 0xac, 0x20, 0x23, 0xbe, 0xb1, 0xb4, 0x4d, 0xbe,
  0x08, 0x55, 0xcd, 0xbe, 0x6a, 0xf8, 0x2a, 0xbe, 0x7f, 0x53, 0x1e, 0xbd,
  0xb5, 0x0d, 0xcf, 0xbb, 0xa3, 0xf3, 0xe3, 0x3c, 0x84, 0xa0, 0x00, 0xbe,
  0xea, 0x36, 0xb1, 0xbd, 0x93, 0x34, 0x0e, 0xbe, 0xee, 0x75, 0x81, 0xbd,
  0xb1, 0x6d, 0xbf, 0xbd, 0xfe, 0x36, 0xb0, 0x3c, 0x2f, 0x77, 0x23, 0xbe,
  0x9b, 0xf7, 0x4e, 0xbe, 0x6d, 0x72, 0x12, 0xbe, 0x24, 0xea, 0x2a, 0xbe,
  0x34, 0x11, 0xaf, 0xbd, 0x23, 0x7e, 0x69, 0xbe, 0x0a, 0x7e, 0x5a, 0xbe,
  0x3d, 0xe3, 0xa5, 0xbd, 0x37, 0x28, 0x96, 0xbd, 0x36, 0x62, 0x17, 0xbe,
  0x40, 0xba, 0x16, 0xbe, 0x02, 0xc1, 0x5e, 0xbe, 0xdb, 0xd5, 0xa8, 0xbd,
  0x8c, 0x37, 0x16, 0xbd, 0x73, 0xbe, 0xc0, 0x3c, 0xe4, 0x9d, 0xc3, 0xbd,
  0x36, 0xa7, 0x45, 0xbd, 0xf9, 0x74, 0x28, 0x3e, 0x4f, 0xaf, 0x0c, 0xbf,
  0x6b, 0xa2, 0x99, 0xbe, 0x4f, 0x9c, 0x08, 0xbc, 0xca, 0xdf, 0xec, 0xbc,
  0x7a, 0x61, 0x27, 0xbe, 0x8e, 0x67, 0x35, 0xbd, 0x86, 0x2a, 0x07, 0xbe,
  0xd4, 0x4c, 0x44, 0xbe, 0xc4, 0x72, 0x0f, 0xbc, 0xf9, 0x2c, 0xcf, 0x3d,
  0x3d, 0x62, 0xab, 0xbe, 0x7e, 0x28, 0x49, 0x3d, 0xa9, 0x05, 0xea, 0x3d,
  0x35, 0x1a, 0x3d, 0x3d, 0xad, 0xe7, 0x57, 0xbd, 0xd2, 0xa9, 0xca, 0x3c,
  0x73, 0xf8, 0xf9, 0x3c, 0xf5, 0xb4, 0x8b, 0x3d, 0x0f, 0x20, 0x4a, 0x3d,
  0xbc, 0x98, 0x4b, 0xbe, 0x1f, 0x2d, 0x98, 0xbc, 0x91, 0x17, 0x4e, 0xbe,
  0x46, 0x21, 0x3e, 0xbe, 0xe3, 0xae, 0x4d, 0xbd, 0xe6, 0x94, 0x30, 0x3d,
  0xf7, 0xac, 0x1a, 0xbe, 0x4f, 0xd5, 0xc0, 0xbd, 0x82, 0xd5, 0xaf, 0x3d,
  0x35, 0xcc, 0x66, 0xbe, 0xf8, 0x54, 0x91, 0xbc, 0x65, 0x5a, 0xf0, 0xbc,
  0xc5, 0x0e, 0x7d, 0xbe, 0x73, 0x68, 0xdd, 0xbd, 0xee, 0x5d, 0x26, 0xbe,
  0x8a, 0x9f, 0x72, 0xbe, 0x0a, 0xd4, 0x09, 0x3e, 0xd0, 0xa2, 0x0e, 0x3e,
  0x2a, 0xeb, 0x4d, 0xbe, 0x1a, 0x09, 0x76, 0xbe, 0x30, 0x52, 0xc4, 0x3d,
  0x2c, 0xb0, 0xf2, 0xbd, 0x2f, 0x6d, 0x3c, 0x3b, 0xde, 0xd3, 0x56, 0xbe,
  0x41, 0x48, 0xca, 0x3d, 0xcd, 0xe7, 0x15, 0xbc, 0x0f, 0xd2, 0x76, 0x3c,
  0xfc, 0xd5, 0x94, 0xbd, 0xa2, 0xb1, 0x03, 0x3e, 0x5e, 0xe6, 0x0e, 0x3e,
  0x97, 0x0f, 0x44, 0xbd, 0x5f, 0x00, 0x15, 0x3e, 0xad, 0xf6, 0x25, 0xbe,
  0x32, 0x3f, 0x79, 0xbe, 0x03, 0x74, 0xba, 0xbd, 0x2c, 0x0f, 0x90, 0xbe,
  0x25, 0x84, 0xe5, 0xbd, 0xf1, 0x69, 0xdb, 0xbd, 0xf8, 0x14, 0xfc, 0x3d,
  0xc2, 0xcb, 0x11, 0xbe, 0x8a, 0x66, 0xcf, 0x3d, 0xb8, 0xc8, 0x38, 0x3e,
  0xea, 0x6d, 0x0e, 0xbe, 0x44, 0x5d, 0x87, 0xbd, 0x37, 0x2c, 0x05, 0xbe,
  0x33, 0xfb, 0x25, 0x3e, 0xcd, 0x40, 0xae, 0xbd, 0x14, 0xff, 0x66, 0x3b,
  0x70, 0x4f, 0xcf, 0xbd, 0x2c, 0xe3, 0x33, 0xbe, 0x42, 0xb8, 0x38, 0xbe,
  0x97, 0x98, 0x13, 0xbe, 0xc6, 0x77, 0x19, 0x3d, 0x2d, 0xe6, 0x80, 0xbe,
  0xaf, 0xc2, 0xd9, 0x3d, 0x53, 0x6a, 0x9b, 0xbe, 0xda, 0x52, 0xa5, 0xbd,
  0xe4, 0xc5, 0x30, 0x3e, 0x25, 0x12, 0x35, 0xbd, 0x8f, 0xae, 0x27, 0xbe,
  0xc5, 0x13, 0x62, 0xbe, 0xd9, 0xa6, 0x11, 0xbe, 0xdb, 0xa8, 0xe4, 0x3d,
  0xc7, 0xcc, 0xa1, 0x3c, 0x6e, 0xa2, 0xff, 0xbc, 0x11, 0x40, 0x4b, 0xbc,
  0x6e, 0x6f, 0x24, 0xbc, 0x0b, 0x1e, 0xb4, 0xbd, 0xa0, 0x55, 0x21, 0xbe,
  0x32, 0x2d, 0x07, 0x3e, 0x7f, 0x40, 0xf7, 0x3c, 0xeb, 0x81, 0xda, 0xbd,
  0xf5, 0xb1, 0x32, 0xbe, 0x7c, 0x05, 0x9a, 0xbd, 0xfb, 0xa7, 0x10, 0x3d,
  0x23, 0x48, 0xa9, 0xbd, 0x5c, 0x0c, 0xc1, 0xbc, 0x1e, 0x61, 0x0a, 0x3e,
  0xbc, 0xe5, 0xe7, 0xbd, 0x39, 0xe5, 0x4f, 0xbd, 0x48, 0xcc, 0x24, 0xbe,
  0x98, 0x57, 0xe7, 0xbd, 0x52, 0xf3, 0x15, 0x3e, 0xb3, 0xd1, 0x0f, 0xbd,
  0x25, 0x60, 0x40, 0xbe, 0xfb, 0xc8, 0x0e, 0xbe, 0xf9, 0x99, 0xef, 0xbb,
  0x64, 0x3f, 0xf5, 0x3b, 0x7f, 0x98, 0x27, 0xbe, 0xf1, 0x7b, 0x16, 0xbd,
  0x00, 0xc7, 0x95, 0xbe, 0xd8, 0x7b, 0x7f, 0xbe, 0x6e, 0xc7, 0x38, 0xbd,
  0x73, 0xb9, 0x64, 0xbe, 0x5f, 0xe8, 0x31, 0xbe, 0x03, 0xc8, 0xeb, 0xbd,
  0x85, 0x3b, 0xf8, 0x3d, 0xd3, 0xc4, 0xbb, 0x3d, 0x03, 0x6e, 0x19, 0xbe,
  0x23, 0xde, 0x1d, 0xbe, 0xe5, 0x26, 0x33, 0x3e, 0xdf, 0x30, 0xd1, 0xbe,
  0x51, 0xfd, 0x4e, 0xbe, 0x75, 0x39, 0xb2, 0xbc, 0xbb, 0x4b, 0x38, 0xbe,
  0x1c, 0x39, 0xbc, 0xbe, 0x58, 0xb8, 0x4a, 0x3f, 0x03, 0x67, 0x29, 0xbf,
  0xa4, 0x22, 0x5b, 0xbe, 0x04, 0x25, 0x65, 0x3c, 0x9d, 0xf0, 0xcc, 0x3c,
  0x4d, 0xa5, 0x12, 0xbf, 0x7d, 0x9c, 0x33, 0xbe, 0xbf, 0x30, 0x35, 0x3c,
  0xee, 0xa3, 0xce, 0x39, 0x79, 0x16, 0xa7, 0x3d, 0xfa, 0xf6, 0x10, 0x3e,
  0x9a, 0x26, 0xc7, 0xbe, 0x67, 0x05, 0x14, 0xbe, 0xfb, 0xd4, 0x9d, 0x3d,
  0x41, 0x04, 0x3b, 0x3e, 0xf1, 0x53, 0xe6, 0xbe, 0xa7, 0x7d, 0xfa, 0x3e,
  0xe8, 0xd3, 0x84, 0xbe, 0x90, 0x75, 0x5a, 0x3d, 0x68, 0xa4, 0x39, 0x3e,
  0x02, 0xfb, 0x26, 0xbd, 0x06, 0xa7, 0x25, 0xbe, 0x3a, 0xdf, 0xdc, 0xbd,
  0x60, 0xc2, 0x1b, 0xbe, 0xb5, 0x5c, 0x20, 0x3e, 0xd8, 0xb5, 0x11, 0x3d,
  0xcc, 0x10, 0x01, 0x3e, 0x6d, 0xc2, 0x88, 0xbe, 0x15, 0x57, 0x08, 0x3d,
  0xd7, 0x3e, 0xec, 0x3d, 0xb5, 0x03, 0xed, 0x3d, 0x7c, 0x29, 0xcb, 0xbe,
  0xe1, 0xee, 0x87, 0x3e, 0xac, 0xa9, 0x88, 0xbe, 0xfd, 0xb4, 0xf7, 0x3d,
  0x36, 0xe4, 0xb0, 0x3e, 0x2c, 0x7f, 0xcb, 0x3d, 0x86, 0x77, 0x0b, 0x3d,
  0xb1, 0x18, 0x6c, 0x3e, 0x97, 0x0c, 0x82, 0x3d, 0x6b, 0x7d, 0x11, 0x3e,
  0x83, 0x61, 0xac, 0x3c, 0xa0, 0xc4, 0x93, 0x3d, 0x0d, 0x36, 0x1e, 0xbe,
  0x3f, 0x69, 0x5b, 0x3e, 0xbe, 0x06, 0x19, 0x3e, 0xc1, 0xae, 0x57, 0x3e,
  0x2b, 0xec, 0xb6, 0xbe, 0x0b, 0x13, 0x65, 0x3d, 0xc6, 0x51, 0x4f, 0xbe,
  0xc4, 0x81, 0x11, 0x3e, 0x99, 0x98, 0xb2, 0x3e, 0x0e, 0xf9, 0xdf, 0x39,
  0xd4, 0xb6, 0x26, 0xbd, 0xf4, 0xa7, 0x56, 0x3d, 0xfc, 0x17, 0x10, 0xbb,
  0xf6, 0x5e, 0x54, 0x3e, 0xe7, 0x90, 0x8f, 0x3d, 0x4f, 0x91, 0x0a, 0xbe,
  0x3b, 0x44, 0xe0, 0xbe, 0x2e, 0xc1, 0x2f, 0xbd, 0x4b, 0x85, 0xdf, 0x3d,
  0x7c, 0x8a, 0x14, 0x3e, 0x41, 0xa9, 0x08, 0xbf, 0x16, 0xc3, 0x0b, 0x3f,
  0xda, 0xa7, 0x82, 0xbe, 0x4f, 0x20, 0x5f, 0x3d, 0x62, 0xd6, 0x4f, 0x3c,
  0xcd, 0xf2, 0x37, 0x3d, 0x53, 0xaa, 0xd7, 0xbd, 0xf8, 0x24, 0x90, 0xbe,
  0xd4, 0xc4, 0xaf, 0xbd, 0x7a, 0xca, 0x2e, 0x3d, 0xd6, 0xa3, 0x8a, 0x3d,
  0xa6, 0x40, 0xb6, 0xbd, 0xe3, 0x2e, 0x2a, 0xbe, 0x88, 0x25, 0x14, 0xbe,
  0xf6, 0x72, 0x6a, 0x3c, 0x91, 0xbe, 0xbf, 0x3d, 0x82, 0x99, 0x7a, 0xbe,
  0xf4, 0x09, 0xc8, 0x3e, 0xe0, 0x16, 0x2a, 0xbe, 0x98, 0x62, 0x81, 0xbc,
  0x9a, 0xff, 0x49, 0x3c, 0xe5, 0x43, 0xae, 0x3d, 0x0f, 0x51, 0x3b, 0x3d,
  0xb4, 0x37, 0x4e, 0xbb, 0x0d, 0x73, 0xbf, 0xbe, 0xd4, 0x82, 0x3b, 0x3e,
  0x62, 0xb3, 0x34, 0x3d, 0xa8, 0x1d, 0x62, 0xbe, 0x0d, 0x3e, 0xd3, 0xbd,
  0xa7, 0xcf, 0xa6, 0xbe, 0x1e, 0xe3, 0xc0, 0xbd, 0xe7, 0x2b, 0x97, 0xbd,
  0xa4, 0x8b, 0xac, 0xbb, 0xb1, 0xed, 0x60, 0x3e, 0x92, 0xbc, 0xc6, 0x3c,
  0xe0, 0x30, 0x1c, 0xbd, 0x9e, 0x49, 0x11, 0x3d, 0x48, 0xa4, 0x62, 0x3d,
  0xbe, 0x33, 0xe8, 0xbc, 0x6a, 0xf6, 0x8f, 0xbe, 0x2d, 0xeb, 0x06, 0xbe,
  0x33, 0x7a, 0x01, 0xbe, 0xd5, 0x8a, 0xf2, 0xba, 0x44, 0x46, 0x89, 0x3d,
  0xa6, 0x1a, 0x6e, 0xbb, 0xf7, 0x97, 0x8e, 0x3e, 0x9d, 0x08, 0x0b, 0x3d,
  0x2e, 0xb1, 0x84, 0x3e, 0xdb, 0xc4, 0x22, 0xbe, 0x4d, 0x8f, 0x8c, 0xbe,
  0x6a, 0x13, 0xf0, 0x3c, 0x2b, 0xec, 0xa3, 0x3e, 0x27, 0x54, 0xaa, 0x3e,
  0x96, 0xc0, 0x85, 0x3d, 0x03, 0xea, 0xe4, 0x3d, 0x7c, 0x33, 0x0c, 0x3d,
  0x64, 0xe8, 0xcf, 0x3d, 0x50, 0x1e, 0xd1, 0xbe, 0xce, 0x2f, 0xac, 0xbd,
  0x6f, 0xbf, 0xeb, 0xbd, 0xe4, 0xa6, 0xae, 0x3c, 0xff, 0x03, 0x43, 0xbe,
  0x64, 0x3a, 0xb7, 0xbe, 0xc3, 0x00, 0xd5, 0xbd, 0xe4, 0x4c, 0x34, 0xbe,
  0x31, 0x8b, 0x4d, 0xbd, 0x2b, 0xa6, 0xc5, 0xbd, 0xe9, 0xa6, 0xc4, 0xbe,
  0xdd, 0x57, 0xc3, 0x3e, 0xb2, 0x63, 0xa4, 0xbc, 0x35, 0xf8, 0x99, 0xbd,
  0x82, 0xb5, 0x84, 0xbb, 0xee, 0x00, 0xbb, 0xbe, 0x2f, 0x57, 0xe7, 0x3c,
  0x5c, 0x2f, 0x9f, 0xbd, 0x7d, 0x4f, 0x46, 0xbe, 0x1b, 0xd2, 0x78, 0xbe,
  0xed, 0x82, 0xf1, 0xbe, 0xb8, 0x77, 0x31, 0xbe, 0xcb, 0x63, 0x3b, 0xbe,
  0xce, 0xfe, 0x69, 0xbe, 0x41, 0x31, 0x00, 0xbe, 0x80, 0x17, 0xb7, 0xbe,
  0xa0, 0xbe, 0x30, 0xbe, 0x31, 0x4c, 0x09, 0xbe, 0x5e, 0x33, 0xc8, 0xbd,
  0xce, 0x6b, 0x72, 0xbe, 0x2e, 0x3b, 0x55, 0xbd, 0xa3, 0xd2, 0x25, 0xbf,
  0x2b, 0x52, 0xd9, 0x3c, 0x05, 0x9c, 0x0c, 0xbe, 0x22, 0xf9, 0x1e, 0xbd,
  0x37, 0x71, 0x6e, 0xbd, 0xb7, 0x68, 0x18, 0xbf, 0xec, 0xd6, 0x9c, 0xbd,
  0x9f, 0xe0, 0x65, 0xbe, 0x51, 0xa9, 0xca, 0xbd, 0x47, 0xe1, 0xa2, 0xbe,
  0x82, 0xc1, 0x10, 0xbf, 0x19, 0x76, 0xfb, 0xbd, 0x66, 0xd8, 0x84, 0xbe,
  0x36, 0x6a, 0x12, 0xbe, 0xfa, 0x88, 0x11, 0xbf, 0x4c, 0xe2, 0x80, 0xbe,
  0x1f, 0xcb, 0x05, 0xbf, 0x7d, 0xbb, 0x0a, 0x3e, 0x15, 0x21, 0x03, 0xbe,
  0x7c, 0xa1, 0xa6, 0x3e, 0x10, 0xe2, 0x73, 0x3e, 0xa4, 0xac, 0xb2, 0x3e,
  0xce, 0x90, 0xad, 0xbd, 0x3d, 0xca, 0x35, 0xbd, 0x28, 0x42, 0xd7, 0xbe,
  0x90, 0xaf, 0x51, 0xbb, 0xf0, 0xcc, 0x02, 0xbf, 0xea, 0x7f, 0xf7, 0x3d,
  0x2d, 0xd0, 0x7f, 0xbd, 0x35, 0xc8, 0x4a, 0xbd, 0xf5, 0xcf, 0x00, 0xbf,
  0xdc, 0x6a, 0x2c, 0xbe, 0x5c, 0x7c, 0xa9, 0x3d, 0xfb, 0x84, 0xbc, 0x3d,
  0xdd, 0xb1, 0x2f, 0xbd, 0x3d, 0x62, 0x13, 0x3e, 0x43, 0x7d, 0x06, 0xbd,
  0x92, 0xa3, 0x95, 0x3e, 0xef, 0xe6, 0x07, 0xbd, 0xc8, 0x60, 0x2a, 0x3e,
  0x04, 0xa0, 0x80, 0xbe, 0xf4, 0xb7, 0x10, 0xbd, 0x91, 0x60, 0x68, 0xbd,
  0x78, 0x91, 0xa3, 0x3e, 0xc0, 0x85, 0xa8, 0x3e, 0xaa, 0x1e, 0xb6, 0xbd,
  0xea, 0x23, 0x13, 0xbc, 0x1b, 0x15, 0x6c, 0xbe, 0xad, 0xfb, 0xa0, 0xbc,
  0xd5, 0x1e, 0x32, 0xbc, 0xe9, 0xe0, 0xe7, 0xbd, 0x77, 0xd7, 0x5f, 0x3e,
  0x03, 0x0b, 0xa8, 0xbd, 0x0e, 0x06, 0x9f, 0x3e, 0x41, 0x20, 0x2c, 0x3d,
  0x1d, 0x8f, 0x2b, 0xbd, 0xbf, 0x10, 0x8f, 0x3d, 0x2a, 0xbe, 0xe3, 0x3c,
  0x91, 0x7b, 0xe7, 0xbc, 0x3a, 0x98, 0x3c, 0x3c, 0x8e, 0x4a, 0xbe, 0x3e,
  0x86, 0xcc, 0xa8, 0xbd, 0x53, 0x89, 0x38, 0xba, 0x93, 0xe4, 0x48, 0xbc,
  0x03, 0x86, 0xad, 0x3d, 0xa2, 0xaa, 0xb4, 0x3e, 0x7f, 0x39, 0xa9, 0x3b,
  0x66, 0xfd, 0xff, 0xff, 0x10, 0x00, 0x00, 0x00, 0x07, 0x00, 0x00, 0x00,
  0x14, 0x00, 0x00, 0x00, 0x2c, 0x00, 0x00, 0x00, 0x02, 0x00, 0x00, 0x00,
  0x10, 0x00, 0x00, 0x00, 0x70, 0x00, 0x00, 0x00, 0x17, 0x00, 0x00, 0x00,
  0x73, 0x65, 0x71, 0x75, 0x65, 0x6e, 0x74, 0x69, 0x61, 0x6c, 0x2f, 0x64,
  0x65, 0x6e, 0x73, 0x65, 0x2f, 0x4d, 0x61, 0x74, 0x4d, 0x75, 0x6c, 0x00,
  0xd0, 0xfc, 0xff, 0xff, 0xda, 0xfd, 0xff, 0xff, 0x04, 0x00, 0x00, 0x00,
  0x08, 0x00, 0x00, 0x00, 0xff, 0xff, 0xff, 0xff, 0x70, 0x00, 0x00, 0x00,
  0x00, 0x00, 0x0e, 0x00, 0x18, 0x00, 0x08, 0x00, 0x07, 0x00, 0x0c, 0x00,
  0x10, 0x00, 0x14, 0x00, 0x0e, 0x00, 0x00, 0x00, 0x00, 0x00, 0x00, 0x02,
  0x10, 0x00, 0x00, 0x00, 0x06, 0x00, 0x00, 0x00, 0x10, 0x00, 0x00, 0x00,
  0x2c, 0x00, 0x00, 0x00, 0x01, 0x00, 0x00, 0x00, 0x02, 0x00, 0x00, 0x00,
  0x18, 0x00, 0x00, 0x00, 0x73, 0x65, 0x71, 0x75, 0x65, 0x6e, 0x74, 0x69,
  0x61, 0x6c, 0x2f, 0x66, 0x6c, 0x61, 0x74, 0x74, 0x65, 0x6e, 0x2f, 0x43,
  0x6f, 0x6e, 0x73, 0x74, 0x00, 0x00, 0x00, 0x00, 0x38, 0xfd, 0xff, 0xff,
  0x42, 0xfe, 0xff, 0xff, 0x04, 0x00, 0x00, 0x00, 0x0c, 0x00, 0x00, 0x00,
  0x14, 0xc6, 0x5c, 0xbf, 0xe6, 0xa6, 0xf1, 0xbe, 0x39, 0xac, 0x09, 0xbd,
  0x26, 0xfe, 0xff, 0xff, 0x10, 0x00, 0x00, 0x00, 0x05, 0x00, 0x00, 0x00,
  0x10, 0x00, 0x00, 0x00, 0x44, 0x00, 0x00, 0x00, 0x01, 0x00, 0x00, 0x00,
  0x03, 0x00, 0x00, 0x00, 0x32, 0x00, 0x00, 0x00, 0x73, 0x65, 0x71, 0x75,
  0x65, 0x6e, 0x74, 0x69, 0x61, 0x6c, 0x2f, 0x64, 0x65, 0x6e, 0x73, 0x65,
  0x5f, 0x31, 0x2f, 0x42, 0x69, 0x61, 0x73, 0x41, 0x64, 0x64, 0x2f, 0x52,
  0x65, 0x61, 0x64, 0x56, 0x61, 0x72, 0x69, 0x61, 0x62, 0x6c, 0x65, 0x4f,
  0x70, 0x2f, 0x72, 0x65, 0x73, 0x6f, 0x75, 0x72, 0x63, 0x65, 0x00, 0x00,
  0xa8, 0xfd, 0xff, 0xff, 0xb2, 0xfe, 0xff, 0xff, 0x04, 0x00, 0x00, 0x00,
  0x40, 0x00, 0x00, 0x00, 0x72, 0x1a, 0xcf, 0xbc, 0x10, 0xa6, 0x9c, 0x40,
  0x47, 0xb4, 0x1d, 0xbe, 0x9a, 0xef, 0x42, 0xbf, 0xae, 0xb2, 0x4b, 0x3e,
  0x85, 0x4b, 0xbb, 0xbe, 0x7a, 0x4a, 0xe7, 0x3e, 0xc8, 0x2c, 0x65, 0xbf,
  0x84, 0x9d, 0x13, 0x3e, 0xa7, 0xef, 0x86, 0x3d, 0xb1, 0x55, 0x2f, 0xbe,
  0x3a, 0x60, 0x8d, 0x40, 0x7e, 0xfd, 0xe2, 0xbf, 0xa4, 0x0b, 0x37, 0xbe,
  0x5c, 0x42, 0xa2, 0x40, 0x97, 0x79, 0x1d, 0xbf, 0xca, 0xfe, 0xff, 0xff,
  0x10, 0x00, 0x00, 0x00, 0x04, 0x00, 0x00, 0x00, 0x10, 0x00, 0x00, 0x00,
  0x44, 0x00, 0x00, 0x00, 0x01, 0x00, 0x00, 0x00, 0x10, 0x00, 0x00, 0x00,
  0x30, 0x00, 0x00, 0x00, 0x73, 0x65, 0x71, 0x75, 0x65, 0x6e, 0x74, 0x69,
  0x61, 0x6c, 0x2f, 0x64, 0x65, 0x6e, 0x73, 0x65, 0x2f, 0x42, 0x69, 0x61,
  0x73, 0x41, 0x64, 0x64, 0x2f, 0x52, 0x65, 0x61, 0x64, 0x56, 0x61, 0x72,
  0x69, 0x61, 0x62, 0x6c, 0x65, 0x4f, 0x70, 0x2f, 0x72, 0x65, 0x73, 0x6f,
  0x75, 0x72, 0x63, 0x65, 0x00, 0x00, 0x00, 0x00, 0x4c, 0xfe, 0xff, 0xff,
  0x56, 0xff, 0xff, 0xff, 0x04, 0x00, 0x00, 0x00, 0x40, 0x00, 0x00, 0x00,
  0x5a, 0xa6, 0x8f, 0xbe, 0xdb, 0x44, 0x3c, 0xc0, 0xc5, 0xb1, 0xe3, 0xbf,
  0x69, 0xb8, 0xdf, 0x3f, 0x87, 0xc0, 0xa5, 0x3f, 0x44, 0x81, 0x0a, 0xc0,
  0x1c, 0x5d, 0x86, 0x40, 0x13, 0x5a, 0x42, 0xc0, 0x8c, 0x56, 0xa1, 0xbf,
  0x3a, 0x90, 0x3e, 0xbf, 0x0a, 0xcf, 0x25, 0x40, 0x15, 0x02, 0x2c, 0xc0,
  0xfc, 0xc3, 0xb6, 0xbf, 0x68, 0x99, 0x1f, 0xc0, 0x79, 0xac, 0x02, 0x40,
  0x0c, 0xb8, 0x4d, 0x40, 0x6e, 0xff, 0xff, 0xff, 0x10, 0x00, 0x00, 0x00,
  0x03, 0x00, 0x00, 0x00, 0x10, 0x00, 0x00, 0x00, 0x48, 0x00, 0x00, 0x00,
  0x01, 0x00, 0x00, 0x00, 0x10, 0x00, 0x00, 0x00, 0x33, 0x00, 0x00, 0x00,
  0x73, 0x65, 0x71, 0x75, 0x65, 0x6e, 0x74, 0x69, 0x61, 0x6c, 0x2f, 0x63,
  0x6f, 0x6e, 0x76, 0x32, 0x64, 0x5f, 0x31, 0x2f, 0x42, 0x69, 0x61, 0x73,
  0x41, 0x64, 0x64, 0x2f, 0x52, 0x65, 0x61, 0x64, 0x56, 0x61, 0x72, 0x69,
  0x61, 0x62, 0x6c, 0x65, 0x4f, 0x70, 0x2f, 0x72, 0x65, 0x73, 0x6f, 0x75,
  0x72, 0x63, 0x65, 0x00, 0x04, 0x00, 0x06, 0x00, 0x04, 0x00, 0x00, 0x00,
  0x00, 0x00, 0x06, 0x00, 0x08, 0x00, 0x04, 0x00, 0x06, 0x00, 0x00, 0x00,
  0x04, 0x00, 0x00, 0x00, 0x20, 0x00, 0x00, 0x00, 0x3b, 0x2c, 0x05, 0xc0,
  0x99, 0x2c, 0x3d, 0x3f, 0xda, 0x26, 0x37, 0xc0, 0xc7, 0x6d, 0xd2, 0x3e,
  0x5e, 0x03, 0x0d, 0xc0, 0xdf, 0xf1, 0xac, 0xbf, 0x03, 0xc2, 0x5d, 0x3f,
  0x02, 0x0a, 0xb6, 0xbf, 0x00, 0x00, 0x0e, 0x00, 0x14, 0x00, 0x04, 0x00,
  0x00, 0x00, 0x08, 0x00, 0x0c, 0x00, 0x10, 0x00, 0x0e, 0x00, 0x00, 0x00,
  0x10, 0x00, 0x00, 0x00, 0x02, 0x00, 0x00, 0x00, 0x10, 0x00, 0x00, 0x00,
  0x44, 0x00, 0x00, 0x00, 0x01, 0x00, 0x00, 0x00, 0x08, 0x00, 0x00, 0x00,
  0x31, 0x00, 0x00, 0x00, 0x73, 0x65, 0x71, 0x75, 0x65, 0x6e, 0x74, 0x69,
  0x61, 0x6c, 0x2f, 0x63, 0x6f, 0x6e, 0x76, 0x32, 0x64, 0x2f, 0x42, 0x69,
  0x61, 0x73, 0x41, 0x64, 0x64, 0x2f, 0x52, 0x65, 0x61, 0x64, 0x56, 0x61,
  0x72, 0x69, 0x61, 0x62, 0x6c, 0x65, 0x4f, 0x70, 0x2f, 0x72, 0x65, 0x73,
  0x6f, 0x75, 0x72, 0x63, 0x65, 0x00, 0x00, 0x00, 0x90, 0xff, 0xff, 0xff,
  0x14, 0x00, 0x18, 0x00, 0x04, 0x00, 0x00, 0x00, 0x08, 0x00, 0x0c, 0x00,
  0x10, 0x00, 0x00, 0x00, 0x00, 0x00, 0x14, 0x00, 0x14, 0x00, 0x00, 0x00,
  0x14, 0x00, 0x00, 0x00, 0x01, 0x00, 0x00, 0x00, 0x20, 0x00, 0x00, 0x00,
  0x44, 0x00, 0x00, 0x00, 0x2c, 0x00, 0x00, 0x00, 0x04, 0x00, 0x00, 0x00,
  0x01, 0x00, 0x00, 0x00, 0x40, 0x00, 0x00, 0x00, 0x03, 0x00, 0x00, 0x00,
  0x01, 0x00, 0x00, 0x00, 0x0c, 0x00, 0x00, 0x00, 0x63, 0x6f, 0x6e, 0x76,
  0x32, 0x64, 0x5f, 0x69, 0x6e, 0x70, 0x75, 0x74, 0x00, 0x00, 0x00, 0x00,
  0x04, 0x00, 0x00, 0x00, 0xff, 0xff, 0xff, 0xff, 0x40, 0x00, 0x00, 0x00,
  0x03, 0x00, 0x00, 0x00, 0x01, 0x00, 0x00, 0x00, 0xfc, 0xff, 0xff, 0xff,
  0x04, 0x00, 0x04, 0x00, 0x04, 0x00, 0x00, 0x00
};

unsigned int model_tflite_len = ;// Fill the int in `src/model.cc` here